{
  "version": "1.0",
  "truncation": null,
  "padding": null,
  "added_tokens": [
    {
      "id": 0,
      "content": "[UNK]",
      "single_word": false,
      "lstrip": false,
      "rstrip": false,
      "normalized": false,
      "special": true
    },
    {
      "id": 1,
      "content": "[PAD]",
      "single_word": false,
      "lstrip": false,
      "rstrip": false,
      "normalized": false,
      "special": true
    },
    {
      "id": 2,
      "content": "[CLS]",
      "single_word": false,
      "lstrip": false,
      "rstrip": false,
      "normalized": false,
      "special": true
    },
    {
      "id": 3,
      "content": "[SEP]",
      "single_word": false,
      "lstrip": false,
      "rstrip": false,
      "normalized": false,
      "special": true
    },
    {
      "id": 4,
      "content": "[MASK]",
      "single_word": false,
      "lstrip": false,
      "rstrip": false,
      "normalized": false,
      "special": true
    }
  ],
  "normalizer": {
    "type": "Sequence",
    "normalizers": [
      {
        "type": "NFKC"
      }
    ]
  },
  "pre_tokenizer": {
    "type": "Whitespace"
  },
  "post_processor": null,
  "decoder": null,
  "model": {
    "type": "BPE",
    "dropout": null,
    "unk_token": "[UNK]",
    "continuing_subword_prefix": null,
    "end_of_word_suffix": null,
    "fuse_unk": false,
    "byte_fallback": false,
    "ignore_merges": false,
    "vocab": {
      "[UNK]": 0,
      "[PAD]": 1,
      "[CLS]": 2,
      "[SEP]": 3,
      "[MASK]": 4,
      "!": 5,
      "\"": 6,
      "#": 7,
      "$": 8,
      "%": 9,
      "&": 10,
      "'": 11,
      "(": 12,
      ")": 13,
      "*": 14,
      "+": 15,
      ",": 16,
      "-": 17,
      ".": 18,
      "/": 19,
      "0": 20,
      "1": 21,
      "2": 22,
      "3": 23,
      "4": 24,
      "5": 25,
      "6": 26,
      "7": 27,
      "8": 28,
      "9": 29,
      ":": 30,
      ";": 31,
      "<": 32,
      "=": 33,
      ">": 34,
      "?": 35,
      "@": 36,
      "A": 37,
      "B": 38,
      "C": 39,
      "D": 40,
      "E": 41,
      "F": 42,
      "G": 43,
      "H": 44,
      "I": 45,
      "J": 46,
      "K": 47,
      "L": 48,
      "M": 49,
      "N": 50,
      "O": 51,
      "P": 52,
      "Q": 53,
      "R": 54,
      "S": 55,
      "T": 56,
      "U": 57,
      "V": 58,
      "W": 59,
      "X": 60,
      "Y": 61,
      "Z": 62,
      "[": 63,
      "]": 64,
      "_": 65,
      "`": 66,
      "a": 67,
      "b": 68,
      "c": 69,
      "d": 70,
      "e": 71,
      "f": 72,
      "g": 73,
      "h": 74,
      "i": 75,
      "j": 76,
      "k": 77,
      "l": 78,
      "m": 79,
      "n": 80,
      "o": 81,
      "p": 82,
      "q": 83,
      "r": 84,
      "s": 85,
      "t": 86,
      "u": 87,
      "v": 88,
      "w": 89,
      "x": 90,
      "y": 91,
      "z": 92,
      "|": 93,
      "~": 94,
      "«": 95,
      "®": 96,
      "°": 97,
      "±": 98,
      "»": 99,
      "À": 100,
      "Á": 101,
      "Ä": 102,
      "Å": 103,
      "É": 104,
      "Î": 105,
      "Ö": 106,
      "×": 107,
      "ß": 108,
      "à": 109,
      "á": 110,
      "ã": 111,
      "ä": 112,
      "å": 113,
      "ç": 114,
      "è": 115,
      "é": 116,
      "ë": 117,
      "í": 118,
      "õ": 119,
      "ö": 120,
      "ú": 121,
      "ü": 122,
      "ā": 123,
      "ć": 124,
      "č": 125,
      "ē": 126,
      "ğ": 127,
      "ī": 128,
      "ı": 129,
      "ł": 130,
      "ń": 131,
      "ņ": 132,
      "ō": 133,
      "ř": 134,
      "ş": 135,
      "Š": 136,
      "š": 137,
      "ū": 138,
      "ż": 139,
      "Ž": 140,
      "ž": 141,
      "ǎ": 142,
      "́": 143,
      "Δ": 144,
      "Ε": 145,
      "Λ": 146,
      "Μ": 147,
      "ά": 148,
      "έ": 149,
      "α": 150,
      "δ": 151,
      "ε": 152,
      "η": 153,
      "θ": 154,
      "ι": 155,
      "κ": 156,
      "μ": 157,
      "ν": 158,
      "ο": 159,
      "π": 160,
      "ρ": 161,
      "ς": 162,
      "σ": 163,
      "τ": 164,
      "υ": 165,
      "ω": 166,
      "ό": 167,
      "А": 168,
      "Б": 169,
      "Н": 170,
      "О": 171,
      "С": 172,
      "а": 173,
      "б": 174,
      "в": 175,
      "г": 176,
      "д": 177,
      "е": 178,
      "ж": 179,
      "з": 180,
      "и": 181,
      "й": 182,
      "к": 183,
      "л": 184,
      "м": 185,
      "н": 186,
      "о": 187,
      "п": 188,
      "р": 189,
      "с": 190,
      "т": 191,
      "у": 192,
      "ф": 193,
      "х": 194,
      "ц": 195,
      "ч": 196,
      "ш": 197,
      "щ": 198,
      "ъ": 199,
      "ы": 200,
      "ь": 201,
      "э": 202,
      "ю": 203,
      "я": 204,
      "ё": 205,
      "Ա": 206,
      "ա": 207,
      "տ": 208,
      "ր": 209,
      "א": 210,
      "ט": 211,
      "ר": 212,
      "آ": 213,
      "ا": 214,
      "ت": 215,
      "ر": 216,
      "ა": 217,
      "ვ": 218,
      "ი": 219,
      "ნ": 220,
      "ო": 221,
      "რ": 222,
      "ს": 223,
      "ხ": 224,
      "ḥ": 225,
      "ὐ": 226,
      "–": 227,
      "—": 228,
      "‘": 229,
      "’": 230,
      "“": 231,
      "”": 232,
      "⁄": 233,
      "€": 234,
      "−": 235,
      "台": 236,
      "尖": 237,
      "島": 238,
      "群": 239,
      "諸": 240,
      "釣": 241,
      "閣": 242,
      "魏": 243,
      "魚": 244,
      "en": 245,
      "ta": 246,
      "is": 247,
      "in": 248,
      "an": 249,
      "ll": 250,
      "tä": 251,
      "si": 252,
      "va": 253,
      "ka": 254,
      "ti": 255,
      "te": 256,
      "on": 257,
      "sa": 258,
      "tu": 259,
      "ja": 260,
      "ku": 261,
      "ma": 262,
      "es": 263,
      "oi": 264,
      "et": 265,
      "än": 266,
      "li": 267,
      "ko": 268,
      "ke": 269,
      "it": 270,
      "la": 271,
      "se": 272,
      "to": 273,
      "ki": 274,
      "uo": 275,
      "er": 276,
      "jo": 277,
      "lla": 278,
      "pa": 279,
      "mu": 280,
      "tta": 281,
      "mi": 282,
      "sta": 283,
      "vä": 284,
      "ty": 285,
      "lu": 286,
      "ei": 287,
      "ksi": 288,
      "el": 289,
      "vi": 290,
      "ks": 291,
      "kä": 292,
      "ra": 293,
      "sä": 294,
      "mis": 295,
      "lle": 296,
      "le": 297,
      "uu": 298,
      "ri": 299,
      "ssa": 300,
      "mä": 301,
      "isi": 302,
      "den": 303,
      "pi": 304,
      "un": 305,
      "jä": 306,
      "ista": 307,
      "pä": 308,
      "kin": 309,
      "ut": 310,
      "vat": 311,
      "ha": 312,
      "inen": 313,
      "yt": 314,
      "lo": 315,
      "llä": 316,
      "ik": 317,
      "us": 318,
      "ro": 319,
      "ten": 320,
      "na": 321,
      "oli": 322,
      "hd": 323,
      "me": 324,
      "että": 325,
      "ne": 326,
      "ni": 327,
      "pu": 328,
      "ys": 329,
      "so": 330,
      "yö": 331,
      "ar": 332,
      "kan": 333,
      "sen": 334,
      "al": 335,
      "yh": 336,
      "min": 337,
      "men": 338,
      "os": 339,
      "llis": 340,
      "op": 341,
      "ai": 342,
      "tö": 343,
      "voi": 344,
      "tti": 345,
      "kun": 346,
      "he": 347,
      "nä": 348,
      "ksen": 349,
      "toi": 350,
      "val": 351,
      "lä": 352,
      "issa": 353,
      "man": 354,
      "essa": 355,
      "kuu": 356,
      "ol": 357,
      "as": 358,
      "de": 359,
      "kaan": 360,
      "een": 361,
      "van": 362,
      "ih": 363,
      "aa": 364,
      "isen": 365,
      "per": 366,
      "taan": 367,
      "maan": 368,
      "00": 369,
      "ky": 370,
      "hän": 371,
      "ole": 372,
      "pää": 373,
      "vuo": 374,
      "tar": 375,
      "il": 376,
      "tää": 377,
      "tun": 378,
      "re": 379,
      "sin": 380,
      "jen": 381,
      "tte": 382,
      "vät": 383,
      "saa": 384,
      "kau": 385,
      "joi": 386,
      "vo": 387,
      "no": 388,
      "tai": 389,
      "esta": 390,
      "tus": 391,
      "myö": 392,
      "esti": 393,
      "ttu": 394,
      "kaa": 395,
      "mme": 396,
      "po": 397,
      "taa": 398,
      "vaa": 399,
      "ed": 400,
      "maa": 401,
      "itä": 402,
      "ur": 403,
      "istä": 404,
      "yn": 405,
      "ina": 406,
      "kes": 407,
      "iden": 408,
      "hy": 409,
      "kse": 410,
      "ön": 411,
      "ttaa": 412,
      "män": 413,
      "ker": 414,
      "teen": 415,
      "lta": 416,
      "jan": 417,
      "vu": 418,
      "su": 419,
      "mer": 420,
      "isä": 421,
      "da": 422,
      "ve": 423,
      "uro": 424,
      "tään": 425,
      "kuin": 426,
      "ton": 427,
      "elä": 428,
      "tel": 429,
      "19": 430,
      "ssä": 431,
      "essä": 432,
      "sti": 433,
      "myös": 434,
      "nyt": 435,
      "hi": 436,
      "ise": 437,
      "puo": 438,
      "200": 439,
      "kos": 440,
      "ken": 441,
      "san": 442,
      "är": 443,
      "vasta": 444,
      "or": 445,
      "mat": 446,
      "suu": 447,
      "esi": 448,
      "hu": 449,
      "var": 450,
      "lais": 451,
      "yhte": 452,
      "kka": 453,
      "joka": 454,
      "mutta": 455,
      "las": 456,
      "jon": 457,
      "tin": 458,
      "ttä": 459,
      "laa": 460,
      "päi": 461,
      "iste": 462,
      "lan": 463,
      "kon": 464,
      "ovat": 465,
      "han": 466,
      "koi": 467,
      "kir": 468,
      "stä": 469,
      "estä": 470,
      "hin": 471,
      "huo": 472,
      "sia": 473,
      "ää": 474,
      "vai": 475,
      "hdo": 476,
      "tiin": 477,
      "isesti": 478,
      "itse": 479,
      "yli": 480,
      "pe": 481,
      "suo": 482,
      "osa": 483,
      "vän": 484,
      "ran": 485,
      "muu": 486,
      "di": 487,
      "oike": 488,
      "työ": 489,
      "pan": 490,
      "ul": 491,
      "mmä": 492,
      "pal": 493,
      "hta": 494,
      "tuo": 495,
      "my": 496,
      "ver": 497,
      "issä": 498,
      "usta": 499,
      "kaik": 500,
      "vin": 501,
      "Tä": 502,
      "ir": 503,
      "isia": 504,
      "kas": 505,
      "tut": 506,
      "hti": 507,
      "mo": 508,
      "jär": 509,
      "ään": 510,
      "utu": 511,
      "ittä": 512,
      "ulu": 513,
      "iten": 514,
      "istu": 515,
      "opis": 516,
      "mista": 517,
      "alu": 518,
      "oll": 519,
      "määr": 520,
      "ita": 521,
      "sy": 522,
      "isin": 523,
      "uroop": 524,
      "au": 525,
      "minen": 526,
      "lin": 527,
      "olla": 528,
      "tiet": 529,
      "nut": 530,
      "kki": 531,
      "rin": 532,
      "jäsen": 533,
      "käyt": 534,
      "ho": 535,
      "aan": 536,
      "sekä": 537,
      "hen": 538,
      "luo": 539,
      "jat": 540,
      "vel": 541,
      "len": 542,
      "oh": 543,
      "pro": 544,
      "etta": 545,
      "ksia": 546,
      "yhteis": 547,
      "kko": 548,
      "ase": 549,
      "tapa": 550,
      "eri": 551,
      "olisi": 552,
      "niin": 553,
      "kor": 554,
      "valti": 555,
      "ji": 556,
      "lö": 557,
      "yty": 558,
      "tuksen": 559,
      "ity": 560,
      "toimi": 561,
      "kset": 562,
      "llo": 563,
      "liit": 564,
      "do": 565,
      "raa": 566,
      "kö": 567,
      "mukaan": 568,
      "vii": 569,
      "sopi": 570,
      "tie": 571,
      "tto": 572,
      "kuuta": 573,
      "tka": 574,
      "talo": 575,
      "kseen": 576,
      "pun": 577,
      "Suo": 578,
      "lke": 579,
      "Hän": 580,
      "tuu": 581,
      "järj": 582,
      "mpi": 583,
      "ttiin": 584,
      "Euroop": 585,
      "sitä": 586,
      "massa": 587,
      "kään": 588,
      "ikka": 589,
      "hyvä": 590,
      "vain": 591,
      "jos": 592,
      "lleen": 593,
      "mään": 594,
      "utta": 595,
      "hte": 596,
      "iset": 597,
      "inä": 598,
      "kku": 599,
      "Ka": 600,
      "käy": 601,
      "nan": 602,
      "dän": 603,
      "Se": 604,
      "yr": 605,
      "tutki": 606,
      "mon": 607,
      "lli": 608,
      "onna": 609,
      "uus": 610,
      "eh": 611,
      "sopimu": 612,
      "..": 613,
      "tava": 614,
      "isten": 615,
      "teh": 616,
      "mar": 617,
      "mmin": 618,
      "je": 619,
      "lisä": 620,
      "kea": 621,
      "perus": 622,
      "ppa": 623,
      "kiin": 624,
      "ppu": 625,
      "väl": 626,
      "misen": 627,
      "kanssa": 628,
      "use": 629,
      "tettu": 630,
      "kansa": 631,
      "yksi": 632,
      "tik": 633,
      "Tur": 634,
      "ino": 635,
      "sit": 636,
      "enn": 637,
      "aja": 638,
      "tied": 639,
      "ttava": 640,
      "eksi": 641,
      "par": 642,
      "kuiten": 643,
      "koko": 644,
      "järjes": 645,
      "Si": 646,
      "malla": 647,
      "sel": 648,
      "yttä": 649,
      "kat": 650,
      "kul": 651,
      "har": 652,
      "aika": 653,
      "Euroopan": 654,
      "pai": 655,
      "määrä": 656,
      "tule": 657,
      "pit": 658,
      "isiin": 659,
      "artik": 660,
      "am": 661,
      "ala": 662,
      "kus": 663,
      "ee": 664,
      "tii": 665,
      "itta": 666,
      "kaikki": 667,
      "Ko": 668,
      "tieto": 669,
      "vien": 670,
      "ollut": 671,
      "hei": 672,
      "gi": 673,
      "nö": 674,
      "vuonna": 675,
      "seu": 676,
      "missi": 677,
      "ter": 678,
      "eli": 679,
      "vielä": 680,
      "jälke": 681,
      "kol": 682,
      "halu": 683,
      "hoi": 684,
      "yy": 685,
      "ystä": 686,
      "kke": 687,
      "assa": 688,
      "yliopis": 689,
      "asia": 690,
      "tee": 691,
      "jou": 692,
      "koske": 693,
      "hä": 694,
      "uud": 695,
      "at": 696,
      "ensi": 697,
      "Mi": 698,
      "siitä": 699,
      "lii": 700,
      "liik": 701,
      "tan": 702,
      "ihmis": 703,
      "En": 704,
      "miel": 705,
      "eni": 706,
      "johta": 707,
      "jälkeen": 708,
      "Sa": 709,
      "tty": 710,
      "jotka": 711,
      "net": 712,
      "nu": 713,
      "ysy": 714,
      "läh": 715,
      "asi": 716,
      "asti": 717,
      "vos": 718,
      "käsi": 719,
      "ail": 720,
      "ju": 721,
      "vaan": 722,
      "jossa": 723,
      "muka": 724,
      "mei": 725,
      "mahdo": 726,
      "tur": 727,
      "ikan": 728,
      "yle": 729,
      "uuden": 730,
      "puhe": 731,
      "tui": 732,
      "mus": 733,
      "ksessa": 734,
      "neet": 735,
      "sai": 736,
      "valta": 737,
      "llinen": 738,
      "vuoden": 739,
      "asta": 740,
      "oma": 741,
      "puu": 742,
      "sija": 743,
      "oiden": 744,
      "via": 745,
      "tarkoi": 746,
      "Vi": 747,
      "jota": 748,
      "kuulu": 749,
      "sitten": 750,
      "ot": 751,
      "lainen": 752,
      "eivät": 753,
      "päivän": 754,
      "On": 755,
      "tetaan": 756,
      "mien": 757,
      "kuitenkin": 758,
      "yd": 759,
      "koulu": 760,
      "met": 761,
      "sisä": 762,
      "tämän": 763,
      "sillä": 764,
      "mio": 765,
      "mitä": 766,
      "väli": 767,
      "jul": 768,
      "isto": 769,
      "toimin": 770,
      "poli": 771,
      "tän": 772,
      "maail": 773,
      "sano": 774,
      "illa": 775,
      "ras": 776,
      "päivä": 777,
      "jäsenvalti": 778,
      "yhd": 779,
      "sää": 780,
      "em": 781,
      "jän": 782,
      "tele": 783,
      "puol": 784,
      "EU": 785,
      "kohd": 786,
      "lait": 787,
      "tunut": 788,
      "prosen": 789,
      "tapah": 790,
      "ttö": 791,
      "mia": 792,
      "isa": 793,
      "vali": 794,
      "aina": 795,
      "kkin": 796,
      "isti": 797,
      "mies": 798,
      "jää": 799,
      "ttia": 800,
      "daan": 801,
      "ede": 802,
      "jonka": 803,
      "llisen": 804,
      "Ma": 805,
      "her": 806,
      "lloin": 807,
      "ille": 808,
      "non": 809,
      "kusta": 810,
      "komissi": 811,
      "muut": 812,
      "viime": 813,
      "paa": 814,
      "mistä": 815,
      "suun": 816,
      "keh": 817,
      "ryh": 818,
      "tusta": 819,
      "kaupun": 820,
      "vaiku": 821,
      "tettiin": 822,
      "tulo": 823,
      "jaa": 824,
      "tyy": 825,
      "hall": 826,
      "ensimmä": 827,
      "anta": 828,
      "neu": 829,
      "osta": 830,
      "matta": 831,
      "Va": 832,
      "ellä": 833,
      "Turun": 834,
      "kit": 835,
      "tyi": 836,
      "gin": 837,
      "ud": 838,
      "Jo": 839,
      "ehdo": 840,
      "ven": 841,
      "ria": 842,
      "hänen": 843,
      "hyvin": 844,
      "Ni": 845,
      "mp": 846,
      "ua": 847,
      "telu": 848,
      "muo": 849,
      "sil": 850,
      "vas": 851,
      "miseen": 852,
      "tämä": 853,
      "merki": 854,
      "20": 855,
      "llaan": 856,
      "Ta": 857,
      "etti": 858,
      "ihin": 859,
      "jien": 860,
      "teke": 861,
      "erity": 862,
      "ihan": 863,
      "bi": 864,
      "jel": 865,
      "tila": 866,
      "viä": 867,
      "kyse": 868,
      "toa": 869,
      "joh": 870,
      "mää": 871,
      "keskus": 872,
      "199": 873,
      "Ar": 874,
      "ny": 875,
      "rke": 876,
      "huomio": 877,
      "ajan": 878,
      "eu": 879,
      "kai": 880,
      "tehd": 881,
      "sella": 882,
      "iseen": 883,
      "uutta": 884,
      "isiä": 885,
      "nel": 886,
      "py": 887,
      "kaksi": 888,
      "rek": 889,
      "hel": 890,
      "von": 891,
      "mie": 892,
      "sään": 893,
      "olivat": 894,
      "seuraa": 895,
      "rei": 896,
      "raken": 897,
      "llisesti": 898,
      "poi": 899,
      "tote": 900,
      "itsi": 901,
      "markkin": 902,
      "10": 903,
      "tua": 904,
      "vah": 905,
      "joitta": 906,
      "Suomen": 907,
      "dä": 908,
      "pitä": 909,
      "nin": 910,
      "ottaa": 911,
      "iso": 912,
      "pala": 913,
      "kkaa": 914,
      "tio": 915,
      "epä": 916,
      "euro": 917,
      "otta": 918,
      "pel": 919,
      "vaikka": 920,
      "voidaan": 921,
      "kirja": 922,
      "Tämä": 923,
      "henki": 924,
      "merkiksi": 925,
      "kysy": 926,
      "käyttö": 927,
      "Ki": 928,
      "tärke": 929,
      "saan": 930,
      "vää": 931,
      "Jos": 932,
      "To": 933,
      "ong": 934,
      "paljon": 935,
      "Pa": 936,
      "masta": 937,
      "ing": 938,
      "miseksi": 939,
      "uni": 940,
      "Nä": 941,
      "llan": 942,
      "raha": 943,
      "minä": 944,
      "ru": 945,
      "rä": 946,
      "lamen": 947,
      "Kun": 948,
      "het": 949,
      "pö": 950,
      "tilan": 951,
      "ksesta": 952,
      "joiden": 953,
      "ennen": 954,
      "mmen": 955,
      "kiel": 956,
      "eikä": 957,
      "opiske": 958,
      "liitty": 959,
      "La": 960,
      "ltä": 961,
      "kulu": 962,
      "eseen": 963,
      "koh": 964,
      "neen": 965,
      "kana": 966,
      "olen": 967,
      "suhte": 968,
      "vastaan": 969,
      "oikeu": 970,
      "järjestel": 971,
      "musta": 972,
      "puole": 973,
      "parlamen": 974,
      "moi": 975,
      "mil": 976,
      "kunta": 977,
      "...": 978,
      "muuta": 979,
      "hyväks": 980,
      "henkilö": 981,
      "mpä": 982,
      "ruo": 983,
      "ssi": 984,
      "täy": 985,
      "teki": 986,
      "oni": 987,
      "tuli": 988,
      "kuun": 989,
      "päätö": 990,
      "Ei": 991,
      "siir": 992,
      "oita": 993,
      "misesta": 994,
      "kesä": 995,
      "vastaa": 996,
      "prosenttia": 997,
      "Ti": 998,
      "lei": 999,
      "tia": 1000,
      "lap": 1001,
      "aihe": 1002,
      "ohjel": 1003,
      "llista": 1004,
      "tojen": 1005,
      "eiden": 1006,
      "pien": 1007,
      "pitää": 1008,
      "koska": 1009,
      "päivänä": 1010,
      "Hel": 1011,
      "vista": 1012,
      "artikla": 1013,
      "ais": 1014,
      "det": 1015,
      "mit": 1016,
      "teet": 1017,
      "tehtä": 1018,
      "maailman": 1019,
      "No": 1020,
      "juu": 1021,
      "mmi": 1022,
      "odo": 1023,
      "ttää": 1024,
      "tettava": 1025,
      "onn": 1026,
      "lau": 1027,
      "kanna": 1028,
      "kunna": 1029,
      "sopimuksen": 1030,
      "liiken": 1031,
      "Ja": 1032,
      "Yhd": 1033,
      "eet": 1034,
      "rit": 1035,
      "syn": 1036,
      "ope": 1037,
      "laiset": 1038,
      "laisten": 1039,
      "myyn": 1040,
      "elle": 1041,
      "niiden": 1042,
      "yhti": 1043,
      "ihen": 1044,
      "iseksi": 1045,
      "Ku": 1046,
      "aikan": 1047,
      "ksa": 1048,
      "kil": 1049,
      "perusta": 1050,
      "ttelu": 1051,
      "2009": 1052,
      "talou": 1053,
      "yliopiston": 1054,
      "huomioon": 1055,
      "ongel": 1056,
      "pin": 1057,
      "ris": 1058,
      "ksin": 1059,
      "lää": 1060,
      "joita": 1061,
      "noin": 1062,
      "ain": 1063,
      "vit": 1064,
      "llut": 1065,
      "tetta": 1066,
      "kuussa": 1067,
      "suoma": 1068,
      "yhteisön": 1069,
      "mahdollis": 1070,
      "enä": 1071,
      "kah": 1072,
      "esty": 1073,
      "olevan": 1074,
      "voin": 1075,
      "lento": 1076,
      "katso": 1077,
      "uh": 1078,
      "ympä": 1079,
      "vaih": 1080,
      "koti": 1081,
      "lain": 1082,
      "kunnan": 1083,
      "000": 1084,
      "neuvos": 1085,
      "18": 1086,
      "alla": 1087,
      "poh": 1088,
      "hyö": 1089,
      "vasti": 1090,
      "eita": 1091,
      "tapahtu": 1092,
      "ET": 1093,
      "juo": 1094,
      "ini": 1095,
      "tetään": 1096,
      "tettä": 1097,
      "työn": 1098,
      "johtaja": 1099,
      "enem": 1100,
      "tetty": 1101,
      "elta": 1102,
      "rau": 1103,
      "uusi": 1104,
      "arvo": 1105,
      "ulko": 1106,
      "paika": 1107,
      "tulee": 1108,
      "tal": 1109,
      "ansa": 1110,
      "kia": 1111,
      "tön": 1112,
      "valmis": 1113,
      "perä": 1114,
      "suur": 1115,
      "hui": 1116,
      "Helsin": 1117,
      "Ro": 1118,
      "ossa": 1119,
      "soi": 1120,
      "tilas": 1121,
      "loppu": 1122,
      "della": 1123,
      "ttele": 1124,
      "esimerkiksi": 1125,
      "rektii": 1126,
      "An": 1127,
      "yllä": 1128,
      "ksiin": 1129,
      "vier": 1130,
      "asu": 1131,
      "velu": 1132,
      "puolu": 1133,
      "toon": 1134,
      "lopu": 1135,
      "artiklan": 1136,
      "asian": 1137,
      "aikana": 1138,
      "ga": 1139,
      "isty": 1140,
      "siihen": 1141,
      "tul": 1142,
      "lai": 1143,
      "muun": 1144,
      "aloi": 1145,
      "onin": 1146,
      "tor": 1147,
      "ksista": 1148,
      "vuosi": 1149,
      "In": 1150,
      "tuksia": 1151,
      "toja": 1152,
      "vir": 1153,
      "vuoksi": 1154,
      "vaati": 1155,
      "Li": 1156,
      "pol": 1157,
      "enää": 1158,
      "tyä": 1159,
      "kerto": 1160,
      "huon": 1161,
      "direktii": 1162,
      "ittäin": 1163,
      "talous": 1164,
      "tutkimu": 1165,
      "erityisesti": 1166,
      "ly": 1167,
      "nuo": 1168,
      "miin": 1169,
      "aali": 1170,
      "15": 1171,
      "Lu": 1172,
      "Sen": 1173,
      "din": 1174,
      "kkä": 1175,
      "taka": 1176,
      "kur": 1177,
      "joon": 1178,
      "osoi": 1179,
      "198": 1180,
      "huoma": 1181,
      "yrit": 1182,
      "messa": 1183,
      "syö": 1184,
      "vy": 1185,
      "kuten": 1186,
      "toista": 1187,
      "mikä": 1188,
      "peri": 1189,
      "tarv": 1190,
      "jun": 1191,
      "tänä": 1192,
      "tien": 1193,
      "saman": 1194,
      "kohta": 1195,
      "elo": 1196,
      "eltä": 1197,
      "viik": 1198,
      "haa": 1199,
      "kymmen": 1200,
      "kauppa": 1201,
      "komission": 1202,
      "Yhdys": 1203,
      "Pi": 1204,
      "kis": 1205,
      "mma": 1206,
      "tis": 1207,
      "isän": 1208,
      "kar": 1209,
      "koo": 1210,
      "luon": 1211,
      "sovel": 1212,
      "arvi": 1213,
      "por": 1214,
      "ksella": 1215,
      "palvelu": 1216,
      "tutkimus": 1217,
      "lisäksi": 1218,
      "nyky": 1219,
      "mman": 1220,
      "olo": 1221,
      "ulo": 1222,
      "ettel": 1223,
      "mitään": 1224,
      "ksu": 1225,
      "lliset": 1226,
      "kautta": 1227,
      "matka": 1228,
      "julka": 1229,
      "miten": 1230,
      "piste": 1231,
      "teli": 1232,
      "kuva": 1233,
      "jana": 1234,
      "kuinka": 1235,
      "puoli": 1236,
      "utui": 1237,
      "II": 1238,
      "fi": 1239,
      "joten": 1240,
      "niitä": 1241,
      "osti": 1242,
      "ilmoi": 1243,
      "nou": 1244,
      "maahan": 1245,
      "moni": 1246,
      "opiskeli": 1247,
      "enemmän": 1248,
      "ella": 1249,
      "uksen": 1250,
      "sii": 1251,
      "siis": 1252,
      "staa": 1253,
      "voisi": 1254,
      "tehdä": 1255,
      "miljoon": 1256,
      "mitta": 1257,
      "ana": 1258,
      "tätä": 1259,
      "tässä": 1260,
      "vapa": 1261,
      "kut": 1262,
      "koke": 1263,
      "yttää": 1264,
      "edusta": 1265,
      "merk": 1266,
      "yleis": 1267,
      "puheen": 1268,
      "hallin": 1269,
      "juuri": 1270,
      "kilpai": 1271,
      "Ra": 1272,
      "nus": 1273,
      "pys": 1274,
      "ani": 1275,
      "tella": 1276,
      "pitkä": 1277,
      "yliopisto": 1278,
      "joukku": 1279,
      "meidän": 1280,
      "ili": 1281,
      "oin": 1282,
      "etin": 1283,
      "sanoi": 1284,
      "mukaisesti": 1285,
      "12": 1286,
      "olle": 1287,
      "sän": 1288,
      "laisen": 1289,
      "västi": 1290,
      "alis": 1291,
      "voitte": 1292,
      "näky": 1293,
      "vulla": 1294,
      "matto": 1295,
      "halua": 1296,
      "13": 1297,
      "alle": 1298,
      "isu": 1299,
      "täyty": 1300,
      "siinä": 1301,
      "oilla": 1302,
      "llään": 1303,
      "astaan": 1304,
      "määri": 1305,
      "EY": 1306,
      "dan": 1307,
      "oa": 1308,
      "äi": 1309,
      "tasa": 1310,
      "tion": 1311,
      "tuus": 1312,
      "kier": 1313,
      "jotta": 1314,
      "muassa": 1315,
      "mite": 1316,
      "ksissa": 1317,
      "edes": 1318,
      "laske": 1319,
      "peli": 1320,
      "aluee": 1321,
      "asetuksen": 1322,
      "ehkä": 1323,
      "liikenteen": 1324,
      "du": 1325,
      "inväl": 1326,
      "anne": 1327,
      "teiden": 1328,
      "elin": 1329,
      "näin": 1330,
      "ilta": 1331,
      "tteli": 1332,
      "myön": 1333,
      "keski": 1334,
      "kirjoi": 1335,
      "oikeus": 1336,
      "Suomessa": 1337,
      "Mit": 1338,
      "mel": 1339,
      "taso": 1340,
      "vara": 1341,
      "ttanut": 1342,
      "viin": 1343,
      "Lo": 1344,
      "lj": 1345,
      "ren": 1346,
      "isessa": 1347,
      "joissa": 1348,
      "isille": 1349,
      "halli": 1350,
      "alku": 1351,
      "suuri": 1352,
      "muuto": 1353,
      "tiedon": 1354,
      "Ju": 1355,
      "Vä": 1356,
      "nit": 1357,
      "taas": 1358,
      "tek": 1359,
      "masti": 1360,
      "töön": 1361,
      "keske": 1362,
      "tuotte": 1363,
      "auto": 1364,
      "yhtiö": 1365,
      "ETY": 1366,
      "17": 1367,
      "hri": 1368,
      "illä": 1369,
      "mmat": 1370,
      "ppi": 1371,
      "st": 1372,
      "uksessa": 1373,
      "ytä": 1374,
      "sar": 1375,
      "päin": 1376,
      "puhu": 1377,
      "menettel": 1378,
      "näkö": 1379,
      "olin": 1380,
      "perin": 1381,
      "amma": 1382,
      "Mar": 1383,
      "Te": 1384,
      "aino": 1385,
      "otto": 1386,
      "tinen": 1387,
      "llisia": 1388,
      "lia": 1389,
      "itti": 1390,
      "lun": 1391,
      "mässä": 1392,
      "toimen": 1393,
      "ilma": 1394,
      "ttuu": 1395,
      "Re": 1396,
      "komite": 1397,
      "lassa": 1398,
      "joulu": 1399,
      "pare": 1400,
      "alta": 1401,
      "nettu": 1402,
      "jotain": 1403,
      "pitäisi": 1404,
      "Lisä": 1405,
      "Myö": 1406,
      "son": 1407,
      "vun": 1408,
      "teo": 1409,
      "ksiä": 1410,
      "ikki": 1411,
      "kyllä": 1412,
      "hie": 1413,
      "isella": 1414,
      "usein": 1415,
      "ba": 1416,
      "hde": 1417,
      "alkoi": 1418,
      "aikaa": 1419,
      "asun": 1420,
      "vuod": 1421,
      "vuotta": 1422,
      "käyttä": 1423,
      "lähes": 1424,
      "Kes": 1425,
      "Kau": 1426,
      "ia": 1427,
      "laisia": 1428,
      "rahoi": 1429,
      "missä": 1430,
      "lop": 1431,
      "sove": 1432,
      "pois": 1433,
      "kerta": 1434,
      "iselle": 1435,
      "osallis": 1436,
      "osalta": 1437,
      "lisää": 1438,
      "kolme": 1439,
      "liian": 1440,
      "Al": 1441,
      "Poh": 1442,
      "Ruo": 1443,
      "Venä": 1444,
      "fes": 1445,
      "antaa": 1446,
      "tällä": 1447,
      "ittää": 1448,
      "josta": 1449,
      "vähän": 1450,
      "oppi": 1451,
      "sina": 1452,
      "esiin": 1453,
      "mmär": 1454,
      "edell": 1455,
      "neuvoston": 1456,
      "AN": 1457,
      "oo": 1458,
      "ulla": 1459,
      "llen": 1460,
      "vau": 1461,
      "valo": 1462,
      "kein": 1463,
      "käyn": 1464,
      "pii": 1465,
      "yhtä": 1466,
      "aamu": 1467,
      "yhteisö": 1468,
      "uudessa": 1469,
      "säännö": 1470,
      "euroa": 1471,
      "16": 1472,
      "50": 1473,
      "He": 1474,
      "sten": 1475,
      "uttaa": 1476,
      "ero": 1477,
      "mät": 1478,
      "alin": 1479,
      "aikaan": 1480,
      "voima": 1481,
      "lähe": 1482,
      "päästä": 1483,
      "ilman": 1484,
      "nosta": 1485,
      "kiinni": 1486,
      "heidän": 1487,
      "politi": 1488,
      "kustan": 1489,
      "puolella": 1490,
      "myynti": 1491,
      "Ne": 1492,
      "Nyt": 1493,
      "bu": 1494,
      "kän": 1495,
      "ry": 1496,
      "kasta": 1497,
      "oihin": 1498,
      "luku": 1499,
      "naa": 1500,
      "suosi": 1501,
      "Ha": 1502,
      "Min": 1503,
      "Vuo": 1504,
      "hil": 1505,
      "kkaan": 1506,
      "ymmär": 1507,
      "vallan": 1508,
      "estaan": 1509,
      "kokon": 1510,
      "paik": 1511,
      "säh": 1512,
      "korkea": 1513,
      "kulje": 1514,
      "terve": 1515,
      "vahv": 1516,
      "sovelta": 1517,
      "30": 1518,
      "Euro": 1519,
      "Ky": 1520,
      "Pe": 1521,
      "kista": 1522,
      "nen": 1523,
      "ensä": 1524,
      "inti": 1525,
      "ans": 1526,
      "saar": 1527,
      "koro": 1528,
      "kohti": 1529,
      "erittäin": 1530,
      "jolla": 1531,
      "rat": 1532,
      "uun": 1533,
      "yhden": 1534,
      "mene": 1535,
      "lähti": 1536,
      "jia": 1537,
      "miehen": 1538,
      "hyväksy": 1539,
      "fesso": 1540,
      "Mutta": 1541,
      "ket": 1542,
      "nos": 1543,
      "osaa": 1544,
      "um": 1545,
      "vais": 1546,
      "uuteen": 1547,
      "rii": 1548,
      "ministe": 1549,
      "valtuus": 1550,
      "isena": 1551,
      "vaali": 1552,
      "myy": 1553,
      "Tässä": 1554,
      "käyttää": 1555,
      "kansainväl": 1556,
      "jäsenvaltioiden": 1557,
      "laito": 1558,
      "suunni": 1559,
      "toimenpi": 1560,
      "Pää": 1561,
      "So": 1562,
      "ss": 1563,
      "tähän": 1564,
      "jal": 1565,
      "jopa": 1566,
      "ttavat": 1567,
      "tynyt": 1568,
      "pur": 1569,
      "minun": 1570,
      "kertaa": 1571,
      "koskaan": 1572,
      "itsee": 1573,
      "puna": 1574,
      "seura": 1575,
      "kolman": 1576,
      "muodo": 1577,
      "Mithri": 1578,
      "Mithrida": 1579,
      "ura": 1580,
      "yksin": 1581,
      "tukseen": 1582,
      "uude": 1583,
      "sosi": 1584,
      "aivan": 1585,
      "voivat": 1586,
      "nor": 1587,
      "pelaa": 1588,
      "tiede": 1589,
      "tavalla": 1590,
      "perustamis": 1591,
      "euroop": 1592,
      "ge": 1593,
      "jö": 1594,
      "mys": 1595,
      "pysy": 1596,
      "tavar": 1597,
      "llin": 1598,
      "tälla": 1599,
      "valla": 1600,
      "tukset": 1601,
      "toinen": 1602,
      "kii": 1603,
      "joista": 1604,
      "ksien": 1605,
      "yhteen": 1606,
      "tunte": 1607,
      "kauden": 1608,
      "joilla": 1609,
      "197": 1610,
      "kohdan": 1611,
      "komissio": 1612,
      "Le": 1613,
      "iä": 1614,
      "oman": 1615,
      "pyö": 1616,
      "pre": 1617,
      "teks": 1618,
      "main": 1619,
      "tode": 1620,
      "jolloin": 1621,
      "rian": 1622,
      "pieni": 1623,
      "maali": 1624,
      "elämän": 1625,
      "käytän": 1626,
      "poliit": 1627,
      "kehittä": 1628,
      "kysymy": 1629,
      "pohja": 1630,
      "tilasto": 1631,
      "San": 1632,
      "Tu": 1633,
      "ag": 1634,
      "ber": 1635,
      "huu": 1636,
      "mm": 1637,
      "nope": 1638,
      "oista": 1639,
      "itsen": 1640,
      "muita": 1641,
      "miä": 1642,
      "ratka": 1643,
      "jäl": 1644,
      "hemmin": 1645,
      "saavu": 1646,
      "kerran": 1647,
      "joneu": 1648,
      "löyty": 1649,
      "tavara": 1650,
      "teella": 1651,
      "välillä": 1652,
      "sanoo": 1653,
      "johon": 1654,
      "Arvo": 1655,
      "tilante": 1656,
      "Ruot": 1657,
      "Tuo": 1658,
      "etu": 1659,
      "sien": 1660,
      "vassa": 1661,
      "telä": 1662,
      "tou": 1663,
      "erä": 1664,
      "ksan": 1665,
      "missa": 1666,
      "riin": 1667,
      "alan": 1668,
      "osan": 1669,
      "opin": 1670,
      "kertoi": 1671,
      "2006": 1672,
      "matkusta": 1673,
      "vaihe": 1674,
      "pela": 1675,
      "muutta": 1676,
      "yrity": 1677,
      "kuitenkaan": 1678,
      "tiiv": 1679,
      "tietojen": 1680,
      "ydessä": 1681,
      "sisäl": 1682,
      "neljä": 1683,
      "hetke": 1684,
      "tänään": 1685,
      "14": 1686,
      "ron": 1687,
      "roi": 1688,
      "isessä": 1689,
      "tästä": 1690,
      "siellä": 1691,
      "kui": 1692,
      "änä": 1693,
      "tori": 1694,
      "kär": 1695,
      "mällä": 1696,
      "utti": 1697,
      "usko": 1698,
      "llisuus": 1699,
      "hem": 1700,
      "valmista": 1701,
      "isenä": 1702,
      "tunne": 1703,
      "istui": 1704,
      "juh": 1705,
      "keskustelu": 1706,
      "ympäri": 1707,
      "kertoo": 1708,
      "Myös": 1709,
      "hieman": 1710,
      "22": 1711,
      "EK": 1712,
      "Var": 1713,
      "ava": 1714,
      "dy": 1715,
      "enkin": 1716,
      "muiden": 1717,
      "mieh": 1718,
      "väär": 1719,
      "llisten": 1720,
      "näke": 1721,
      "näyt": 1722,
      "vuoro": 1723,
      "saada": 1724,
      "2005": 1725,
      "mootto": 1726,
      "korva": 1727,
      "toimia": 1728,
      "mpia": 1729,
      "kehit": 1730,
      "kaupunki": 1731,
      "parlamentin": 1732,
      "ammatti": 1733,
      "Mä": 1734,
      "Mei": 1735,
      "ck": 1736,
      "der": 1737,
      "län": 1738,
      "peen": 1739,
      "ppo": 1740,
      "res": 1741,
      "vet": 1742,
      "siden": 1743,
      "tes": 1744,
      "teitä": 1745,
      "joku": 1746,
      "paran": 1747,
      "raan": 1748,
      "misestä": 1749,
      "toivo": 1750,
      "lähte": 1751,
      "vuoti": 1752,
      "kerro": 1753,
      "yhteydessä": 1754,
      "kone": 1755,
      "kirjoitta": 1756,
      "huoli": 1757,
      "tehty": 1758,
      "turva": 1759,
      "ainakin": 1760,
      "markkina": 1761,
      "ulos": 1762,
      "Arvoisa": 1763,
      "Har": 1764,
      "Yli": 1765,
      "don": 1766,
      "emme": 1767,
      "histo": 1768,
      "ori": 1769,
      "silloin": 1770,
      "kassa": 1771,
      "tuvat": 1772,
      "tullut": 1773,
      "lah": 1774,
      "pain": 1775,
      "miksi": 1776,
      "luki": 1777,
      "eitä": 1778,
      "toimitta": 1779,
      "ttua": 1780,
      "täntöön": 1781,
      "valio": 1782,
      "täytäntöön": 1783,
      "Lisäksi": 1784,
      "Kä": 1785,
      "Me": 1786,
      "Minä": 1787,
      "Olen": 1788,
      "eks": 1789,
      "kra": 1790,
      "kri": 1791,
      "set": 1792,
      "tisen": 1793,
      "ulle": 1794,
      "tavoitte": 1795,
      "isesta": 1796,
      "äni": 1797,
      "paino": 1798,
      "mietin": 1799,
      "vähen": 1800,
      "luen": 1801,
      "kää": 1802,
      "piir": 1803,
      "jään": 1804,
      "yhty": 1805,
      "kuning": 1806,
      "2008": 1807,
      "sani": 1808,
      "lasku": 1809,
      "perusteella": 1810,
      "yksity": 1811,
      "gia": 1812,
      "joukko": 1813,
      "kunnassa": 1814,
      "taloude": 1815,
      "pysty": 1816,
      ":)": 1817,
      "Esi": 1818,
      "Ke": 1819,
      "Suu": 1820,
      "pen": 1821,
      "sto": 1822,
      "sken": 1823,
      "tse": 1824,
      "sille": 1825,
      "sivat": 1826,
      "tuksessa": 1827,
      "keu": 1828,
      "mur": 1829,
      "vie": 1830,
      "ville": 1831,
      "meen": 1832,
      "meni": 1833,
      "essaan": 1834,
      "tarjo": 1835,
      "tarkas": 1836,
      "nous": 1837,
      "Tämän": 1838,
      "professo": 1839,
      "yhteistyö": 1840,
      "puhemies": 1841,
      "telee": 1842,
      "puolesta": 1843,
      "Helsingin": 1844,
      "kilpailu": 1845,
      "presiden": 1846,
      "Es": 1847,
      "IS": 1848,
      "Kansa": 1849,
      "Ol": 1850,
      "Tar": 1851,
      "gen": 1852,
      "nes": 1853,
      "pyy": 1854,
      "run": 1855,
      "jaan": 1856,
      "kossa": 1857,
      "kel": 1858,
      "laista": 1859,
      "toisen": 1860,
      "muksen": 1861,
      "tyttö": 1862,
      "riä": 1863,
      "piti": 1864,
      "jälleen": 1865,
      "aiko": 1866,
      "urin": 1867,
      "meri": 1868,
      "mmäis": 1869,
      "luoki": 1870,
      "Komissi": 1871,
      "sijaan": 1872,
      "unionin": 1873,
      "menettely": 1874,
      "Kai": 1875,
      "Mitä": 1876,
      "Su": 1877,
      "Uu": 1878,
      "Val": 1879,
      "ses": 1880,
      "sun": 1881,
      "visi": 1882,
      "vissä": 1883,
      "ena": 1884,
      "samalla": 1885,
      "tys": 1886,
      "vil": 1887,
      "riittä": 1888,
      "pikku": 1889,
      "ysin": 1890,
      "kansan": 1891,
      "tarvi": 1892,
      "tusten": 1893,
      "suku": 1894,
      "2003": 1895,
      "kaiken": 1896,
      "velka": 1897,
      "ppale": 1898,
      "parha": 1899,
      "tietoja": 1900,
      "uudesta": 1901,
      "Ai": 1902,
      "Hy": 1903,
      "Kir": 1904,
      "Mon": 1905,
      "ce": 1906,
      "ile": 1907,
      "ät": 1908,
      "vaun": 1909,
      "vapaa": 1910,
      "kalta": 1911,
      "tuksesta": 1912,
      "koa": 1913,
      "lat": 1914,
      "luu": 1915,
      "rien": 1916,
      "niistä": 1917,
      "töjen": 1918,
      "heti": 1919,
      "näh": 1920,
      "nämä": 1921,
      "tarpeen": 1922,
      "myöhemmin": 1923,
      "eriko": 1924,
      "asiassa": 1925,
      "koskevat": 1926,
      "säädän": 1927,
      "euvos": 1928,
      "Pohjo": 1929,
      "suunnitel": 1930,
      "25": 1931,
      "Työ": 1932,
      "ak": 1933,
      "kkö": 1934,
      "nissa": 1935,
      "opa": 1936,
      "ruu": 1937,
      "vissa": 1938,
      "inan": 1939,
      "llon": 1940,
      "tulla": 1941,
      "kuvaa": 1942,
      "alka": 1943,
      "minua": 1944,
      "opetta": 1945,
      "töä": 1946,
      "vana": 1947,
      "olemassa": 1948,
      "2007": 1949,
      "varmasti": 1950,
      "tutkin": 1951,
      "luotto": 1952,
      "Hänen": 1953,
      "Eurooppa": 1954,
      "kulttuu": 1955,
      "harjoitta": 1956,
      "mielen": 1957,
      "mielestä": 1958,
      "toiminta": 1959,
      "edelleen": 1960,
      "aine": 1961,
      "direktiivin": 1962,
      "takaisin": 1963,
      "yritys": 1964,
      "arvioi": 1965,
      "alueella": 1966,
      "perustamissopimuksen": 1967,
      "EKP": 1968,
      "ON": 1969,
      "avulla": 1970,
      "bo": 1971,
      "pis": 1972,
      "rö": 1973,
      "rten": 1974,
      "sut": 1975,
      "maiden": 1976,
      "ito": 1977,
      "lehti": 1978,
      "mättä": 1979,
      "pide": 1980,
      "istaa": 1981,
      "nat": 1982,
      "maassa": 1983,
      "merkit": 1984,
      "2004": 1985,
      "oikein": 1986,
      "versi": 1987,
      "valtio": 1988,
      "Kaikki": 1989,
      "marras": 1990,
      "laitos": 1991,
      "mppan": 1992,
      "käyttöön": 1993,
      "saanut": 1994,
      "lainsäädän": 1995,
      "isännö": 1996,
      "21": 1997,
      "Di": 1998,
      "Tun": 1999,
      "im": 2000,
      "nön": 2001,
      "tali": 2002,
      "sijoi": 2003,
      "varo": 2004,
      "tit": 2005,
      "sata": 2006,
      "esin": 2007,
      "kolle": 2008,
      "joutu": 2009,
      "pako": 2010,
      "pallo": 2011,
      "vään": 2012,
      "eille": 2013,
      "vih": 2014,
      "viisi": 2015,
      "rajoi": 2016,
      "jäi": 2017,
      "istaan": 2018,
      "neksi": 2019,
      "tunn": 2020,
      "kaupan": 2021,
      "elämä": 2022,
      "194": 2023,
      "dia": 2024,
      "kasva": 2025,
      "kasvu": 2026,
      "syy": 2027,
      "valtion": 2028,
      "gian": 2029,
      "nössä": 2030,
      "hoita": 2031,
      "ryhmä": 2032,
      "Vaikka": 2033,
      "neljän": 2034,
      "tarvitta": 2035,
      "viikon": 2036,
      "merkittä": 2037,
      "vahviste": 2038,
      "27": 2039,
      "Ih": 2040,
      "Mu": 2041,
      "Po": 2042,
      "Tai": 2043,
      "ikä": 2044,
      "rys": 2045,
      "vus": 2046,
      "tammi": 2047,
      "kal": 2048,
      "kap": 2049,
      "tuon": 2050,
      "oille": 2051,
      "ettiin": 2052,
      "lit": 2053,
      "seli": 2054,
      "tois": 2055,
      "mukana": 2056,
      "milla": 2057,
      "yhä": 2058,
      "heinä": 2059,
      "aatte": 2060,
      "pääs": 2061,
      "merkki": 2062,
      "työsken": 2063,
      "alueen": 2064,
      "julk": 2065,
      "ensimmäinen": 2066,
      "neuvo": 2067,
      "päätös": 2068,
      "lääke": 2069,
      "tutkimuksen": 2070,
      "Mik": 2071,
      "Per": 2072,
      "Pal": 2073,
      "co": 2074,
      "emmin": 2075,
      "gan": 2076,
      "ime": 2077,
      "mpaa": 2078,
      "pyr": 2079,
      "ui": 2080,
      "yys": 2081,
      "taulu": 2082,
      "inf": 2083,
      "tävä": 2084,
      "valu": 2085,
      "kumppan": 2086,
      "keino": 2087,
      "muistu": 2088,
      "ttain": 2089,
      "rai": 2090,
      "raja": 2091,
      "rilla": 2092,
      "sor": 2093,
      "perhe": 2094,
      "jäsentä": 2095,
      "käytö": 2096,
      "sopimus": 2097,
      "tulevais": 2098,
      "liike": 2099,
      "nettiin": 2100,
      "käsitte": 2101,
      "puun": 2102,
      "kuuluu": 2103,
      "ensimmäisen": 2104,
      "tärkeä": 2105,
      "ympäris": 2106,
      "huippu": 2107,
      "polku": 2108,
      "ainoastaan": 2109,
      "ministeri": 2110,
      "joneuvo": 2111,
      "EN": 2112,
      "Halu": 2113,
      "ch": 2114,
      "kys": 2115,
      "vahin": 2116,
      "kappale": 2117,
      "tety": 2118,
      "teho": 2119,
      "tuke": 2120,
      "jaks": 2121,
      "maksu": 2122,
      "lasta": 2123,
      "seen": 2124,
      "kiä": 2125,
      "välin": 2126,
      "vira": 2127,
      "pidä": 2128,
      "una": 2129,
      "hal": 2130,
      "nainen": 2131,
      "lliseen": 2132,
      "kyl": 2133,
      "laajen": 2134,
      "useita": 2135,
      "uudet": 2136,
      "puolelle": 2137,
      "onnistu": 2138,
      "kahden": 2139,
      "lopulta": 2140,
      "uudelleen": 2141,
      "vaiheessa": 2142,
      "40": 2143,
      "Hei": 2144,
      "Muu": 2145,
      "OP": 2146,
      "Pu": 2147,
      "The": 2148,
      "ien": 2149,
      "mpa": 2150,
      "tista": 2151,
      "isyy": 2152,
      "kot": 2153,
      "laus": 2154,
      "todella": 2155,
      "mun": 2156,
      "vähem": 2157,
      "nimi": 2158,
      "yssä": 2159,
      "llisuuden": 2160,
      "päätty": 2161,
      "ttuna": 2162,
      "hien": 2163,
      "varsin": 2164,
      "liitto": 2165,
      "tietee": 2166,
      "tiedot": 2167,
      "Ensi": 2168,
      "Niin": 2169,
      "poika": 2170,
      "vahvista": 2171,
      "tärkeää": 2172,
      "ruoka": 2173,
      "lentoliikenteen": 2174,
      "tulisi": 2175,
      "Yhdysvalta": 2176,
      "nouda": 2177,
      "täytyy": 2178,
      "sähkö": 2179,
      "hetkellä": 2180,
      "11": 2181,
      "28": 2182,
      "Kor": 2183,
      "Lä": 2184,
      "hden": 2185,
      "iin": 2186,
      "omis": 2187,
      "enna": 2188,
      "sivu": 2189,
      "koto": 2190,
      "keä": 2191,
      "seur": 2192,
      "pari": 2193,
      "mille": 2194,
      "kävi": 2195,
      "misto": 2196,
      "riko": 2197,
      "kanta": 2198,
      "minut": 2199,
      "kunin": 2200,
      "demo": 2201,
      "hänet": 2202,
      "saattaa": 2203,
      "kaupa": 2204,
      "eläin": 2205,
      "isellä": 2206,
      "tuotan": 2207,
      "käytettä": 2208,
      "ttavasti": 2209,
      "tietoa": 2210,
      "Mies": 2211,
      "vastuu": 2212,
      "tekee": 2213,
      "puheenjohtaja": 2214,
      "valtuuskunta": 2215,
      "professori": 2216,
      "23": 2217,
      "AA": 2218,
      "Ba": 2219,
      "Rans": 2220,
      "aut": 2221,
      "hun": 2222,
      "rr": 2223,
      "isestä": 2224,
      "anto": 2225,
      "sivät": 2226,
      "kahd": 2227,
      "tilaa": 2228,
      "savu": 2229,
      "ittu": 2230,
      "ttamaan": 2231,
      "uno": 2232,
      "loka": 2233,
      "naut": 2234,
      "nime": 2235,
      "valmi": 2236,
      "vanha": 2237,
      "häntä": 2238,
      "olemme": 2239,
      "täällä": 2240,
      "nolla": 2241,
      "kselle": 2242,
      "ksellä": 2243,
      "varten": 2244,
      "laati": 2245,
      "työttö": 2246,
      "järjestä": 2247,
      "jek": 2248,
      "tettua": 2249,
      "yleensä": 2250,
      "Näin": 2251,
      "olleet": 2252,
      "vuodesta": 2253,
      "edellyty": 2254,
      "kuningas": 2255,
      "Pohjois": 2256,
      "Jä": 2257,
      "Mo": 2258,
      "Oli": 2259,
      "Por": 2260,
      "hol": 2261,
      "oissa": 2262,
      "pp": 2263,
      "posti": 2264,
      "ret": 2265,
      "zz": 2266,
      "llisi": 2267,
      "teis": 2268,
      "kuole": 2269,
      "mas": 2270,
      "kello": 2271,
      "kille": 2272,
      "tyh": 2273,
      "rapor": 2274,
      "lee": 2275,
      "piha": 2276,
      "alkaa": 2277,
      "minkä": 2278,
      "voitti": 2279,
      "kylä": 2280,
      "suure": 2281,
      "huol": 2282,
      "hyvää": 2283,
      "ihmiset": 2284,
      "mieltä": 2285,
      "toiminnan": 2286,
      "talouden": 2287,
      "vaihto": 2288,
      "joukkue": 2289,
      "kustannu": 2290,
      "Mithridates": 2291,
      "Kol": 2292,
      "Voi": 2293,
      "by": 2294,
      "juus": 2295,
      "mes": 2296,
      "ussa": 2297,
      "isuus": 2298,
      "anal": 2299,
      "täysin": 2300,
      "tilais": 2301,
      "tell": 2302,
      "maks": 2303,
      "maton": 2304,
      "maalis": 2305,
      "kilo": 2306,
      "erin": 2307,
      "luvun": 2308,
      "rate": 2309,
      "pian": 2310,
      "lou": 2311,
      "rou": 2312,
      "hiu": 2313,
      "esittä": 2314,
      "pano": 2315,
      "palja": 2316,
      "alue": 2317,
      "jatku": 2318,
      "ohja": 2319,
      "joskus": 2320,
      "tiedo": 2321,
      "tiedä": 2322,
      "selvästi": 2323,
      "kaikkien": 2324,
      "päätöksen": 2325,
      "yhtiön": 2326,
      "miljoonaa": 2327,
      "sovelle": 2328,
      "jalka": 2329,
      "touko": 2330,
      "63": 2331,
      "Hu": 2332,
      "Na": 2333,
      "Toi": 2334,
      "Tam": 2335,
      "Vu": 2336,
      "lyh": 2337,
      "netta": 2338,
      "sur": 2339,
      "takia": 2340,
      "tellä": 2341,
      "teessä": 2342,
      "tuksi": 2343,
      "jassa": 2344,
      "kolla": 2345,
      "itin": 2346,
      "lause": 2347,
      "tyyty": 2348,
      "viiden": 2349,
      "uuksia": 2350,
      "pidet": 2351,
      "nau": 2352,
      "nassa": 2353,
      "mennä": 2354,
      "osin": 2355,
      "aiemmin": 2356,
      "kseni": 2357,
      "päälle": 2358,
      "ttui": 2359,
      "vaara": 2360,
      "huhti": 2361,
      "syystä": 2362,
      "tietä": 2363,
      "tieteen": 2364,
      "tehnyt": 2365,
      "välttä": 2366,
      "pitkin": 2367,
      "Mikä": 2368,
      "liikke": 2369,
      "yhdessä": 2370,
      "kaupungin": 2371,
      "rekiste": 2372,
      "oikeuden": 2373,
      "vierai": 2374,
      "Väli": 2375,
      "komitean": 2376,
      "huolimatta": 2377,
      "marraskuuta": 2378,
      "Yhdysvaltain": 2379,
      "Vuonna": 2380,
      "24": 2381,
      "Kos": 2382,
      "Sit": 2383,
      "TT": 2384,
      "apu": 2385,
      "del": 2386,
      "hö": 2387,
      "hon": 2388,
      "ilo": 2389,
      "ltaan": 2390,
      "nis": 2391,
      "oon": 2392,
      "omaa": 2393,
      "sty": 2394,
      "sisi": 2395,
      "tah": 2396,
      "siksi": 2397,
      "tuksella": 2398,
      "tosi": 2399,
      "kie": 2400,
      "kian": 2401,
      "kieli": 2402,
      "mieli": 2403,
      "lus": 2404,
      "mättö": 2405,
      "log": 2406,
      "arvos": 2407,
      "toihin": 2408,
      "valin": 2409,
      "tark": 2410,
      "sinne": 2411,
      "kesku": 2412,
      "keskit": 2413,
      "meren": 2414,
      "esitteli": 2415,
      "hansa": 2416,
      "verran": 2417,
      "löy": 2418,
      "toimii": 2419,
      "Siinä": 2420,
      "haluaa": 2421,
      "päivää": 2422,
      "herä": 2423,
      "kesäkuuta": 2424,
      "kannalta": 2425,
      "hilja": 2426,
      "kokonais": 2427,
      "korkeakoulu": 2428,
      "Euroopa": 2429,
      "nopeasti": 2430,
      "Ihmis": 2431,
      "Ensimmä": 2432,
      "26": 2433,
      "Ber": 2434,
      "Il": 2435,
      "Jär": 2436,
      "Lin": 2437,
      "Osa": 2438,
      "be": 2439,
      "ca": 2440,
      "dos": 2441,
      "emen": 2442,
      "glan": 2443,
      "mesta": 2444,
      "stu": 2445,
      "yks": 2446,
      "ene": 2447,
      "ensa": 2448,
      "ensin": 2449,
      "takaa": 2450,
      "annettu": 2451,
      "llö": 2452,
      "vakuu": 2453,
      "tutus": 2454,
      "jalle": 2455,
      "kukaan": 2456,
      "ettu": 2457,
      "laan": 2458,
      "seka": 2459,
      "muista": 2460,
      "lehd": 2461,
      "uusia": 2462,
      "hdin": 2463,
      "nähd": 2464,
      "läpi": 2465,
      "kuule": 2466,
      "aatto": 2467,
      "vuosina": 2468,
      "saatu": 2469,
      "vaale": 2470,
      "sul": 2471,
      "isemmin": 2472,
      "jonkin": 2473,
      "vero": 2474,
      "utua": 2475,
      "syys": 2476,
      "ehto": 2477,
      "enimmäis": 2478,
      "tarkoittaa": 2479,
      "metrin": 2480,
      "ryhmän": 2481,
      "rakenta": 2482,
      "markkinoilla": 2483,
      "vastaava": 2484,
      "artiklassa": 2485,
      "tehtävä": 2486,
      "ongelma": 2487,
      "neuvosto": 2488,
      "huone": 2489,
      "lähtien": 2490,
      "riippu": 2491,
      "yksinkerta": 2492,
      "Yliopis": 2493,
      "Esimerkiksi": 2494,
      "Espan": 2495,
      "tammikuuta": 2496,
      "Hi": 2497,
      "Jus": 2498,
      "alas": 2499,
      "eur": 2500,
      "jus": 2501,
      "omin": 2502,
      "sissa": 2503,
      "uksia": 2504,
      "vei": 2505,
      "ener": 2506,
      "isissa": 2507,
      "silta": 2508,
      "tiu": 2509,
      "onko": 2510,
      "maksa": 2511,
      "estin": 2512,
      "oitu": 2513,
      "johdo": 2514,
      "vähin": 2515,
      "luke": 2516,
      "rasta": 2517,
      "säil": 2518,
      "uttu": 2519,
      "haasta": 2520,
      "ikkaa": 2521,
      "sodan": 2522,
      "voida": 2523,
      "voitto": 2524,
      "valko": 2525,
      "mansa": 2526,
      "aste": 2527,
      "vuoteen": 2528,
      "edessä": 2529,
      "oikeastaan": 2530,
      "ollen": 2531,
      "kkien": 2532,
      "jille": 2533,
      "ityksen": 2534,
      "EUR": 2535,
      "isaalta": 2536,
      "tulos": 2537,
      "tyivät": 2538,
      "poikke": 2539,
      "kkää": 2540,
      "kutsu": 2541,
      "jälje": 2542,
      "Car": 2543,
      "Etelä": 2544,
      "Luo": 2545,
      "Må": 2546,
      "OS": 2547,
      "asen": 2548,
      "fe": 2549,
      "ota": 2550,
      "ottelu": 2551,
      "yl": 2552,
      "taisiin": 2553,
      "tahansa": 2554,
      "lletta": 2555,
      "siin": 2556,
      "sas": 2557,
      "ette": 2558,
      "koja": 2559,
      "kei": 2560,
      "toin": 2561,
      "joutui": 2562,
      "musi": 2563,
      "lua": 2564,
      "luvulla": 2565,
      "eilla": 2566,
      "villa": 2567,
      "ksessä": 2568,
      "lev": 2569,
      "isilla": 2570,
      "naisen": 2571,
      "naisten": 2572,
      "albu": 2573,
      "kunni": 2574,
      "näyttä": 2575,
      "vanhe": 2576,
      "aari": 2577,
      "pääse": 2578,
      "tunti": 2579,
      "uring": 2580,
      "kerä": 2581,
      "tely": 2582,
      "suurin": 2583,
      "kirjan": 2584,
      "vaikea": 2585,
      "palkin": 2586,
      "verra": 2587,
      "tapauksessa": 2588,
      "tuksena": 2589,
      "kansallis": 2590,
      "Silloin": 2591,
      "meillä": 2592,
      "sijaitse": 2593,
      "ydä": 2594,
      "silti": 2595,
      "vastusta": 2596,
      "nousi": 2597,
      "Venäjän": 2598,
      "eurooppala": 2599,
      "tavaroiden": 2600,
      "korvaus": 2601,
      "lokakuuta": 2602,
      "Mårten": 2603,
      "60": 2604,
      "90": 2605,
      "Brys": 2606,
      "DP": 2607,
      "EM": 2608,
      "Kuu": 2609,
      "Nor": 2610,
      "Neuvos": 2611,
      "OM": 2612,
      "Tut": 2613,
      "Vir": 2614,
      "ite": 2615,
      "iri": 2616,
      "ide": 2617,
      "nän": 2618,
      "risti": 2619,
      "sis": 2620,
      "tissa": 2621,
      "vis": 2622,
      "ller": 2623,
      "tänyt": 2624,
      "siten": 2625,
      "vaksi": 2626,
      "jaksi": 2627,
      "eto": 2628,
      "kojen": 2629,
      "ere": 2630,
      "pas": 2631,
      "pakko": 2632,
      "paikka": 2633,
      "viran": 2634,
      "ssaan": 2635,
      "jät": 2636,
      "ikku": 2637,
      "osto": 2638,
      "oleva": 2639,
      "pääsi": 2640,
      "tarkka": 2641,
      "tarpe": 2642,
      "sinä": 2643,
      "hymy": 2644,
      "kkaasti": 2645,
      "dio": 2646,
      "oikeasti": 2647,
      "verkos": 2648,
      "äänesty": 2649,
      "määrän": 2650,
      "tietty": 2651,
      "kkia": 2652,
      "kolmen": 2653,
      "hoito": 2654,
      "Miksi": 2655,
      "numer": 2656,
      "mahdollista": 2657,
      "tilanne": 2658,
      "lääkä": 2659,
      "hyöd": 2660,
      "periaatte": 2661,
      "äiti": 2662,
      "kierro": 2663,
      "Venäjä": 2664,
      "käynn": 2665,
      "itsensä": 2666,
      "ympäristö": 2667,
      "kotoutta": 2668,
      "tyytyvä": 2669,
      "euron": 2670,
      "vähintään": 2671,
      "Hen": 2672,
      "Itä": 2673,
      "Pro": 2674,
      "TE": 2675,
      "avoi": 2676,
      "dit": 2677,
      "eteen": 2678,
      "gissä": 2679,
      "mö": 2680,
      "mpan": 2681,
      "otti": 2682,
      "pes": 2683,
      "pos": 2684,
      "rus": 2685,
      "yden": 2686,
      "vall": 2687,
      "vaka": 2688,
      "kate": 2689,
      "tellaan": 2690,
      "onne": 2691,
      "sama": 2692,
      "tuun": 2693,
      "kuor": 2694,
      "etsi": 2695,
      "liha": 2696,
      "keli": 2697,
      "seitse": 2698,
      "joja": 2699,
      "väri": 2700,
      "villä": 2701,
      "ksestä": 2702,
      "ytty": 2703,
      "meta": 2704,
      "minulle": 2705,
      "voimaan": 2706,
      "ttien": 2707,
      "näitä": 2708,
      "näiden": 2709,
      "läs": 2710,
      "issaan": 2711,
      "vesi": 2712,
      "2001": 2713,
      "vänsä": 2714,
      "asetus": 2715,
      "tietää": 2716,
      "harjoi": 2717,
      "tarkoitus": 2718,
      "kohdassa": 2719,
      "hallitsi": 2720,
      "keskuspan": 2721,
      "helpo": 2722,
      "hetken": 2723,
      "Lap": 2724,
      "suhteista": 2725,
      "ruot": 2726,
      "synty": 2727,
      "puolue": 2728,
      "kymmenen": 2729,
      "matkalla": 2730,
      "elintarvi": 2731,
      "alkuperä": 2732,
      "sosiaa": 2733,
      "toukokuuta": 2734,
      "Euroopassa": 2735,
      "31": 2736,
      "98": 2737,
      "Itali": 2738,
      "Krei": 2739,
      "Ri": 2740,
      "SDP": 2741,
      "Van": 2742,
      "ajoneuvo": 2743,
      "cen": 2744,
      "dessa": 2745,
      "gh": 2746,
      "uksissa": 2747,
      "vistä": 2748,
      "isit": 2749,
      "tetu": 2750,
      "onen": 2751,
      "onkin": 2752,
      "jalla": 2753,
      "kelin": 2754,
      "selke": 2755,
      "joko": 2756,
      "paper": 2757,
      "mihin": 2758,
      "lue": 2759,
      "luenn": 2760,
      "ksille": 2761,
      "elan": 2762,
      "käs": 2763,
      "misessa": 2764,
      "isivat": 2765,
      "nasta": 2766,
      "ettävä": 2767,
      "nimen": 2768,
      "arvon": 2769,
      "menn": 2770,
      "llistä": 2771,
      "töjä": 2772,
      "voitta": 2773,
      "näy": 2774,
      "valvon": 2775,
      "olta": 2776,
      "pääll": 2777,
      "kauan": 2778,
      "nossa": 2779,
      "kesken": 2780,
      "195": 2781,
      "kenut": 2782,
      "esittää": 2783,
      "vaike": 2784,
      "tuotta": 2785,
      "moin": 2786,
      "toimitus": 2787,
      "käytetään": 2788,
      "ihmisiä": 2789,
      "netto": 2790,
      "tänne": 2791,
      "yhdisty": 2792,
      "yhdeks": 2793,
      "venä": 2794,
      "huomiota": 2795,
      "tettävä": 2796,
      "vaatimu": 2797,
      "melko": 2798,
      "parempi": 2799,
      "osallistu": 2800,
      "eurooppa": 2801,
      "yhteensä": 2802,
      "Meidän": 2803,
      "yhtye": 2804,
      "luokitus": 2805,
      "kulttuuri": 2806,
      "isännöitsi": 2807,
      "sovelletaan": 2808,
      "81": 2809,
      "AS": 2810,
      "KT": 2811,
      "Kon": 2812,
      "Sitä": 2813,
      "des": 2814,
      "desta": 2815,
      "for": 2816,
      "hor": 2817,
      "ike": 2818,
      "jes": 2819,
      "lyö": 2820,
      "of": 2821,
      "omaan": 2822,
      "omista": 2823,
      "oven": 2824,
      "tuki": 2825,
      "malli": 2826,
      "lie": 2827,
      "kotiin": 2828,
      "ittaa": 2829,
      "ser": 2830,
      "väki": 2831,
      "ytti": 2832,
      "nalla": 2833,
      "nim": 2834,
      "puhel": 2835,
      "sosia": 2836,
      "yhtään": 2837,
      "llisessa": 2838,
      "näyttää": 2839,
      "mana": 2840,
      "deksi": 2841,
      "kyky": 2842,
      "saavat": 2843,
      "saapu": 2844,
      "telin": 2845,
      "essään": 2846,
      "2000": 2847,
      "matkan": 2848,
      "tuomio": 2849,
      "Tätä": 2850,
      "Tästä": 2851,
      "hoja": 2852,
      "asema": 2853,
      "Kat": 2854,
      "yrittä": 2855,
      "kiinnos": 2856,
      "koskee": 2857,
      "häiri": 2858,
      "ihmisten": 2859,
      "Viime": 2860,
      "Vali": 2861,
      "helppo": 2862,
      "seuraavasti": 2863,
      "Kiinan": 2864,
      "kuluessa": 2865,
      "ongelmia": 2866,
      "kymmentä": 2867,
      "julkais": 2868,
      "opiskelija": 2869,
      "tasolla": 2870,
      "joulukuuta": 2871,
      "teksti": 2872,
      "moottori": 2873,
      "Kaija": 2874,
      "mielenkiin": 2875,
      "uringon": 2876,
      "puhelin": 2877,
      "As": 2878,
      "Eh": 2879,
      "Er": 2880,
      "Iran": 2881,
      "Kan": 2882,
      "Ole": 2883,
      "US": 2884,
      "Yle": 2885,
      "iksi": 2886,
      "jin": 2887,
      "ksaa": 2888,
      "ketta": 2889,
      "ohi": 2890,
      "otetaan": 2891,
      "ssin": 2892,
      "ston": 2893,
      "tre": 2894,
      "ves": 2895,
      "ylä": 2896,
      "äly": 2897,
      "ölj": 2898,
      "ennä": 2899,
      "taiste": 2900,
      "takana": 2901,
      "ison": 2902,
      "lleni": 2903,
      "kala": 2904,
      "tian": 2905,
      "tuen": 2906,
      "este": 2907,
      "koos": 2908,
      "kohte": 2909,
      "kevät": 2910,
      "laisille": 2911,
      "paitsi": 2912,
      "levy": 2913,
      "mäki": 2914,
      "mästä": 2915,
      "mätön": 2916,
      "hau": 2917,
      "hake": 2918,
      "mina": 2919,
      "minulla": 2920,
      "menta": 2921,
      "kuukau": 2922,
      "vansa": 2923,
      "päässä": 2924,
      "ilmi": 2925,
      "ilme": 2926,
      "tteja": 2927,
      "tona": 2928,
      "hir": 2929,
      "laisista": 2930,
      "yhteys": 2931,
      "peä": 2932,
      "suoja": 2933,
      "työtä": 2934,
      "kaikissa": 2935,
      "syr": 2936,
      "lintu": 2937,
      "proses": 2938,
      "liitteessä": 2939,
      "tieliikenteen": 2940,
      "tettuna": 2941,
      "katse": 2942,
      "asiasta": 2943,
      "liikku": 2944,
      "johtajana": 2945,
      "metriä": 2946,
      "puolestaan": 2947,
      "suunta": 2948,
      "kaupung": 2949,
      "udet": 2950,
      "2010": 2951,
      "1998": 2952,
      "1999": 2953,
      "tehdään": 2954,
      "toteu": 2955,
      "lauta": 2956,
      "katsoo": 2957,
      "pohjo": 2958,
      "tarvitse": 2959,
      "annetun": 2960,
      "Lopu": 2961,
      "normaali": 2962,
      "miehet": 2963,
      "Komission": 2964,
      "laitosten": 2965,
      "lausun": 2966,
      "rekisterö": 2967,
      "Sitten": 2968,
      "29": 2969,
      "Au": 2970,
      "Ca": 2971,
      "Kar": 2972,
      "Las": 2973,
      "OOP": 2974,
      "dun": 2975,
      "htori": 2976,
      "kraa": 2977,
      "pus": 2978,
      "ryö": 2979,
      "tra": 2980,
      "vina": 2981,
      "yri": 2982,
      "ylö": 2983,
      "yyttä": 2984,
      "ent": 2985,
      "tavan": 2986,
      "taina": 2987,
      "tämään": 2988,
      "täyttä": 2989,
      "vase": 2990,
      "kasti": 2991,
      "kaver": 2992,
      "teetti": 2993,
      "tellut": 2994,
      "tuho": 2995,
      "kovin": 2996,
      "tot": 2997,
      "mian": 2998,
      "mietti": 2999,
      "tyksen": 3000,
      "ksua": 3001,
      "kävel": 3002,
      "mistö": 3003,
      "isimme": 3004,
      "pään": 3005,
      "hdon": 3006,
      "soh": 3007,
      "osuus": 3008,
      "ttivat": 3009,
      "lähd": 3010,
      "lähi": 3011,
      "assosiaa": 3012,
      "ihmisen": 3013,
      "perjan": 3014,
      "päätti": 3015,
      "saata": 3016,
      "saakka": 3017,
      "nouse": 3018,
      "posi": 3019,
      "poista": 3020,
      "edus": 3021,
      "suhta": 3022,
      "teltiin": 3023,
      "myöskään": 3024,
      "lasten": 3025,
      "ttänyt": 3026,
      "hinta": 3027,
      "suori": 3028,
      "kasvoi": 3029,
      "äänestä": 3030,
      "Suoma": 3031,
      "tettujen": 3032,
      "pito": 3033,
      "lähetti": 3034,
      "meille": 3035,
      "musten": 3036,
      "koulutus": 3037,
      "tapahtuu": 3038,
      "antaina": 3039,
      "totesi": 3040,
      "toteutta": 3041,
      "pöy": 3042,
      "järjestelmä": 3043,
      "lapsi": 3044,
      "aiheutta": 3045,
      "odottaa": 3046,
      "voinut": 3047,
      "paikalle": 3048,
      "kurssi": 3049,
      "eloku": 3050,
      "myönte": 3051,
      "perinte": 3052,
      "sovelletta": 3053,
      "toimenpiteet": 3054,
      "lähteä": 3055,
      "vaunu": 3056,
      "kappal": 3057,
      "neuvottelu": 3058,
      "vähemmän": 3059,
      "auton": 3060,
      "maaliskuuta": 3061,
      "llöin": 3062,
      "EUROOP": 3063,
      "viranoma": 3064,
      "seitsemän": 3065,
      "EUROOPAN": 3066,
      "Bi": 3067,
      "Bri": 3068,
      "Elä": 3069,
      "IK": 3070,
      "Olin": 3071,
      "Par": 3072,
      "Sä": 3073,
      "ds": 3074,
      "ell": 3075,
      "eaa": 3076,
      "epäi": 3077,
      "gam": 3078,
      "htä": 3079,
      "ikin": 3080,
      "vyö": 3081,
      "inno": 3082,
      "antoi": 3083,
      "onto": 3084,
      "samaan": 3085,
      "jasta": 3086,
      "mari": 3087,
      "maista": 3088,
      "ettaa": 3089,
      "koon": 3090,
      "kosta": 3091,
      "kean": 3092,
      "keho": 3093,
      "era": 3094,
      "pah": 3095,
      "paras": 3096,
      "lupa": 3097,
      "ksistä": 3098,
      "isiksi": 3099,
      "pil": 3100,
      "nais": 3101,
      "sota": 3102,
      "töitä": 3103,
      "kuukauden": 3104,
      "kyy": 3105,
      "olevat": 3106,
      "voja": 3107,
      "not": 3108,
      "nolo": 3109,
      "taakse": 3110,
      "2002": 3111,
      "laski": 3112,
      "kona": 3113,
      "suor": 3114,
      "suoraan": 3115,
      "vertai": 3116,
      "Tällä": 3117,
      "utuu": 3118,
      "kkiä": 3119,
      "velvo": 3120,
      "projek": 3121,
      "tapaa": 3122,
      "liiton": 3123,
      "kokoon": 3124,
      "yttävä": 3125,
      "koskevan": 3126,
      "asiaa": 3127,
      "tuivat": 3128,
      "saivat": 3129,
      "kuuluvat": 3130,
      "sanoa": 3131,
      "ensimmäistä": 3132,
      "Joka": 3133,
      "mpänä": 3134,
      "kyseisen": 3135,
      "helposti": 3136,
      "kysymys": 3137,
      "kohtaa": 3138,
      "liikenne": 3139,
      "mahdollisuus": 3140,
      "Helsingissä": 3141,
      "huomattavasti": 3142,
      "strate": 3143,
      "tavarakulje": 3144,
      "opinto": 3145,
      "valiokunnassa": 3146,
      "erikois": 3147,
      "Mikkelin": 3148,
      "muistuttaa": 3149,
      "Bryssel": 3150,
      "EMN": 3151,
      "Ehkä": 3152,
      "64": 3153,
      "65": 3154,
      "Fin": 3155,
      "IM": 3156,
      "Is": 3157,
      "Musta": 3158,
      "Ny": 3159,
      "Rau": 3160,
      "Sil": 3161,
      "UT": 3162,
      "Yor": 3163,
      "aurin": 3164,
      "etelä": 3165,
      "ian": 3166,
      "ikään": 3167,
      "jista": 3168,
      "jetta": 3169,
      "kyt": 3170,
      "kkau": 3171,
      "mmu": 3172,
      "ppä": 3173,
      "put": 3174,
      "taar": 3175,
      "tavoi": 3176,
      "tausta": 3177,
      "istel": 3178,
      "lly": 3179,
      "sian": 3180,
      "valle": 3181,
      "katu": 3182,
      "kalla": 3183,
      "kahde": 3184,
      "tille": 3185,
      "kuoli": 3186,
      "kulke": 3187,
      "mate": 3188,
      "ett": 3189,
      "lien": 3190,
      "kelta": 3191,
      "toden": 3192,
      "tosia": 3193,
      "jojen": 3194,
      "mita": 3195,
      "vähi": 3196,
      "vähä": 3197,
      "viksi": 3198,
      "viestin": 3199,
      "käteen": 3200,
      "ravin": 3201,
      "rabi": 3202,
      "jätti": 3203,
      "hat": 3204,
      "alkan": 3205,
      "menee": 3206,
      "menesty": 3207,
      "ksena": 3208,
      "valvo": 3209,
      "lähde": 3210,
      "astu": 3211,
      "hänelle": 3212,
      "olevien": 3213,
      "tarkista": 3214,
      "tuneita": 3215,
      "merkin": 3216,
      "keng": 3217,
      "peh": 3218,
      "rans": 3219,
      "myys": 3220,
      "verkko": 3221,
      "alussa": 3222,
      "liittyy": 3223,
      "sopimusten": 3224,
      "selvi": 3225,
      "pitkään": 3226,
      "ystävä": 3227,
      "tanssi": 3228,
      "lähesty": 3229,
      "käsittele": 3230,
      "puheli": 3231,
      "sijaitsee": 3232,
      "kuului": 3233,
      "koulutuksen": 3234,
      "prosentin": 3235,
      "jäämien": 3236,
      "suunnit": 3237,
      "oikeuksien": 3238,
      "parlamentti": 3239,
      "muutaman": 3240,
      "tekijän": 3241,
      "kesäkuussa": 3242,
      "mittaa": 3243,
      "kannattaa": 3244,
      "elokuuta": 3245,
      "luonno": 3246,
      "hallinto": 3247,
      "näkökul": 3248,
      "esiinty": 3249,
      "New": 3250,
      "Pekka": 3251,
      "muodosta": 3252,
      "kiire": 3253,
      "yksityis": 3254,
      "presidentin": 3255,
      "yritysten": 3256,
      "Halua": 3257,
      "vahing": 3258,
      "Ranskan": 3259,
      "Olemme": 3260,
      "ylös": 3261,
      "gambi": 3262,
      "100": 3263,
      "Ad": 3264,
      "Bo": 3265,
      "Da": 3266,
      "Ed": 3267,
      "Hä": 3268,
      "Itse": 3269,
      "My": 3270,
      "Maa": 3271,
      "Molla": 3272,
      "Maan": 3273,
      "Oy": 3274,
      "Oba": 3275,
      "Pan": 3276,
      "Puo": 3277,
      "TO": 3278,
      "Teh": 3279,
      "Ver": 3280,
      "ad": 3281,
      "alo": 3282,
      "auringon": 3283,
      "hos": 3284,
      "kp": 3285,
      "kissa": 3286,
      "khol": 3287,
      "mole": 3288,
      "prin": 3289,
      "stö": 3290,
      "vuuden": 3291,
      "tari": 3292,
      "sieltä": 3293,
      "tiista": 3294,
      "tein": 3295,
      "tetun": 3296,
      "tellään": 3297,
      "tellen": 3298,
      "onnetto": 3299,
      "tuhan": 3300,
      "tuksista": 3301,
      "malle": 3302,
      "estää": 3303,
      "etty": 3304,
      "liin": 3305,
      "kemmin": 3306,
      "kien": 3307,
      "ttavaa": 3308,
      "leh": 3309,
      "rikko": 3310,
      "hava": 3311,
      "losta": 3312,
      "iken": 3313,
      "uskon": 3314,
      "nasti": 3315,
      "osana": 3316,
      "voitaisiin": 3317,
      "toimis": 3318,
      "ily": 3319,
      "iltä": 3320,
      "tuntuu": 3321,
      "tuntia": 3322,
      "ttelin": 3323,
      "vaatte": 3324,
      "ynnä": 3325,
      "hyvän": 3326,
      "kseksi": 3327,
      "veli": 3328,
      "puolen": 3329,
      "varmis": 3330,
      "kkaiden": 3331,
      "huomaa": 3332,
      "osassa": 3333,
      "ranga": 3334,
      "korko": 3335,
      "löyd": 3336,
      "Suomi": 3337,
      "mpiä": 3338,
      "järjestö": 3339,
      "heitä": 3340,
      "kkejä": 3341,
      "kkeiden": 3342,
      "toimintaa": 3343,
      "yhdys": 3344,
      "vaikuttaa": 3345,
      "vaikutuksia": 3346,
      "Niko": 3347,
      "tekemään": 3348,
      "kyseessä": 3349,
      "sellaisen": 3350,
      "pyyn": 3351,
      "liittyvät": 3352,
      "kohtaan": 3353,
      "onia": 3354,
      "Japan": 3355,
      "talon": 3356,
      "maahanmuut": 3357,
      "yleisö": 3358,
      "yliopistossa": 3359,
      "hallituksen": 3360,
      "tekn": 3361,
      "tekni": 3362,
      "komitea": 3363,
      "politiikan": 3364,
      "sosiaali": 3365,
      "pyörä": 3366,
      "käytännössä": 3367,
      "kehitys": 3368,
      "vuotias": 3369,
      "Komissio": 3370,
      "käytössä": 3371,
      "seuran": 3372,
      "tarkistu": 3373,
      "tutustu": 3374,
      "syyskuuta": 3375,
      "verrattuna": 3376,
      "Tutki": 3377,
      "päällik": 3378,
      "Kaijasilta": 3379,
      "Britan": 3380,
      "kpl": 3381,
      "Ase": 3382,
      "Iso": 3383,
      "Kaa": 3384,
      "KOM": 3385,
      "Ris": 3386,
      "Sin": 3387,
      "TA": 3388,
      "VI": 3389,
      "Vai": 3390,
      "Yhti": 3391,
      "Yhte": 3392,
      "ger": 3393,
      "gra": 3394,
      "hes": 3395,
      "hön": 3396,
      "ivät": 3397,
      "kro": 3398,
      "krei": 3399,
      "lista": 3400,
      "mmalla": 3401,
      "mesty": 3402,
      "nun": 3403,
      "nur": 3404,
      "nnut": 3405,
      "od": 3406,
      "ou": 3407,
      "sista": 3408,
      "the": 3409,
      "up": 3410,
      "vittä": 3411,
      "tau": 3412,
      "tamme": 3413,
      "iston": 3414,
      "isissä": 3415,
      "ansi": 3416,
      "sipu": 3417,
      "sivus": 3418,
      "tetut": 3419,
      "ona": 3420,
      "sal": 3421,
      "sain": 3422,
      "salaa": 3423,
      "maku": 3424,
      "mahta": 3425,
      "oitta": 3426,
      "tossa": 3427,
      "vär": 3428,
      "luvu": 3429,
      "ele": 3430,
      "miselle": 3431,
      "lemaan": 3432,
      "piis": 3433,
      "unoh": 3434,
      "haku": 3435,
      "tenä": 3436,
      "ysten": 3437,
      "arin": 3438,
      "olet": 3439,
      "olisin": 3440,
      "kyn": 3441,
      "ilen": 3442,
      "ilmesty": 3443,
      "joihin": 3444,
      "hyvät": 3445,
      "ksemme": 3446,
      "dassa": 3447,
      "varsina": 3448,
      "ääri": 3449,
      "htia": 3450,
      "ollan": 3451,
      "linnan": 3452,
      "jäsenet": 3453,
      "hous": 3454,
      "ohje": 3455,
      "valtioiden": 3456,
      "alainen": 3457,
      "kaikkia": 3458,
      "Miel": 3459,
      "sairaa": 3460,
      "jotakin": 3461,
      "jäsenvaltion": 3462,
      "säädet": 3463,
      "miesten": 3464,
      "tilaan": 3465,
      "1990": 3466,
      "kaikille": 3467,
      "pyyh": 3468,
      "toteuttaa": 3469,
      "markkinoiden": 3470,
      "dät": 3471,
      "räjä": 3472,
      "järjestelmän": 3473,
      "parlamentaar": 3474,
      "tekijö": 3475,
      "siirty": 3476,
      "lapset": 3477,
      "Nokian": 3478,
      "uhkaa": 3479,
      "hyök": 3480,
      "rauta": 3481,
      "virka": 3482,
      "kuvassa": 3483,
      "säni": 3484,
      "määritel": 3485,
      "tasavallan": 3486,
      "kirjoittaa": 3487,
      "hallitus": 3488,
      "asunto": 3489,
      "Keski": 3490,
      "politiikkaa": 3491,
      "kokonaan": 3492,
      "menetel": 3493,
      "poliitt": 3494,
      "löytyy": 3495,
      "paranta": 3496,
      "tarjoa": 3497,
      "presidentti": 3498,
      "Montre": 3499,
      "mielestäni": 3500,
      "pidetään": 3501,
      "valuutta": 3502,
      "polkumyynti": 3503,
      "lyhy": 3504,
      "nähdä": 3505,
      "aattori": 3506,
      "mennessä": 3507,
      "venälä": 3508,
      "öljy": 3509,
      "suoritta": 3510,
      "Britanni": 3511,
      "33": 3512,
      "80": 3513,
      "Asia": 3514,
      "Bel": 3515,
      "De": 3516,
      "Her": 3517,
      "Pen": 3518,
      "Ste": 3519,
      "VA": 3520,
      "Yksi": 3521,
      "ah": 3522,
      "cro": 3523,
      "ccen": 3524,
      "etaan": 3525,
      "iti": 3526,
      "imme": 3527,
      "kkuu": 3528,
      "kön": 3529,
      "ketti": 3530,
      "lis": 3531,
      "mmo": 3532,
      "ppe": 3533,
      "vuutta": 3534,
      "enkä": 3535,
      "ensisi": 3536,
      "englan": 3537,
      "isoi": 3538,
      "istää": 3539,
      "and": 3540,
      "vataan": 3541,
      "kaun": 3542,
      "til": 3543,
      "teja": 3544,
      "sala": 3545,
      "tuksiin": 3546,
      "jar": 3547,
      "maissa": 3548,
      "maini": 3549,
      "estu": 3550,
      "keen": 3551,
      "laulu": 3552,
      "toiseen": 3553,
      "toisella": 3554,
      "jokin": 3555,
      "ttaisi": 3556,
      "mikään": 3557,
      "väit": 3558,
      "luun": 3559,
      "ksy": 3560,
      "loso": 3561,
      "mea": 3562,
      "neli": 3563,
      "valtaa": 3564,
      "kuusi": 3565,
      "maansa": 3566,
      "ilin": 3567,
      "saat": 3568,
      "joille": 3569,
      "myötä": 3570,
      "poru": 3571,
      "maasta": 3572,
      "keskusta": 3573,
      "kerää": 3574,
      "sulke": 3575,
      "eläke": 3576,
      "isee": 3577,
      "esille": 3578,
      "human": 3579,
      "koihin": 3580,
      "Tälla": 3581,
      "ollaan": 3582,
      "olisivat": 3583,
      "löytä": 3584,
      "lisään": 3585,
      "kiinteis": 3586,
      "Turkin": 3587,
      "ajattele": 3588,
      "selvä": 3589,
      "kulttu": 3590,
      "tulevat": 3591,
      "vienti": 3592,
      "hämä": 3593,
      "uudistu": 3594,
      "Saksa": 3595,
      "Saksan": 3596,
      "jossain": 3597,
      "meitä": 3598,
      "tarkoituksena": 3599,
      "säätää": 3600,
      "llisena": 3601,
      "muodos": 3602,
      "Tapah": 3603,
      "bio": 3604,
      "johto": 3605,
      "pyri": 3606,
      "kkaat": 3607,
      "pör": 3608,
      "pöytä": 3609,
      "muutama": 3610,
      "täyden": 3611,
      "tekijä": 3612,
      "lapsen": 3613,
      "pienen": 3614,
      "tettavasti": 3615,
      "suomalainen": 3616,
      "And": 3617,
      "yllättä": 3618,
      "virhe": 3619,
      "huono": 3620,
      "luonnon": 3621,
      "maahanmuutta": 3622,
      "paremmin": 3623,
      "Mithridateen": 3624,
      "täytäntöönpan": 3625,
      "vihre": 3626,
      "heinäkuuta": 3627,
      "demokra": 3628,
      "analys": 3629,
      "Tamper": 3630,
      "huhtikuuta": 3631,
      "Koska": 3632,
      "lusc": 3633,
      "Berlusc": 3634,
      "KTM": 3635,
      "sosiaal": 3636,
      "rangaistu": 3637,
      "35": 3638,
      "Aa": 3639,
      "Co": 3640,
      "Elo": 3641,
      "Isän": 3642,
      "Jan": 3643,
      "Jal": 3644,
      "Ker": 3645,
      "Mer": 3646,
      "Poli": 3647,
      "Saa": 3648,
      "TV": 3649,
      "Uni": 3650,
      "ali": 3651,
      "ale": 3652,
      "dri": 3653,
      "eta": 3654,
      "fin": 3655,
      "his": 3656,
      "ilu": 3657,
      "mos": 3658,
      "mmasta": 3659,
      "oksen": 3660,
      "ove": 3661,
      "psy": 3662,
      "ste": 3663,
      "ssia": 3664,
      "tt": 3665,
      "vyy": 3666,
      "isista": 3667,
      "isina": 3668,
      "istunut": 3669,
      "vallo": 3670,
      "tika": 3671,
      "teita": 3672,
      "samaa": 3673,
      "koin": 3674,
      "kommen": 3675,
      "laina": 3676,
      "sein": 3677,
      "tod": 3678,
      "torin": 3679,
      "toisaalta": 3680,
      "kita": 3681,
      "erään": 3682,
      "muksia": 3683,
      "tyyd": 3684,
      "käsin": 3685,
      "rati": 3686,
      "rajan": 3687,
      "isian": 3688,
      "loma": 3689,
      "naisia": 3690,
      "media": 3691,
      "ettää": 3692,
      "ysti": 3693,
      "sopu": 3694,
      "yön": 3695,
      "alkoh": 3696,
      "minaari": 3697,
      "llisesta": 3698,
      "lliseksi": 3699,
      "töissä": 3700,
      "lähin": 3701,
      "dex": 3702,
      "tunnus": 3703,
      "myöhä": 3704,
      "vaadi": 3705,
      "urhei": 3706,
      "teltu": 3707,
      "isempi": 3708,
      "kkaita": 3709,
      "jonkun": 3710,
      "istettu": 3711,
      "koneen": 3712,
      "hankke": 3713,
      "kirj": 3714,
      "itselleen": 3715,
      "ranta": 3716,
      "kaikkea": 3717,
      "kasvi": 3718,
      "järvi": 3719,
      "määrit": 3720,
      "tietenkin": 3721,
      "aana": 3722,
      "luotta": 3723,
      "jatkaa": 3724,
      "asetuksessa": 3725,
      "dow": 3726,
      "käytä": 3727,
      "monta": 3728,
      "perustuu": 3729,
      "yksiä": 3730,
      "yksittä": 3731,
      "Turku": 3732,
      "kokouksessa": 3733,
      "järjesty": 3734,
      "selvää": 3735,
      "kuljetta": 3736,
      "eella": 3737,
      "Koko": 3738,
      "asiat": 3739,
      "mahdollisi": 3740,
      "ydin": 3741,
      "toiminut": 3742,
      "maailmaa": 3743,
      "jäsenvaltioissa": 3744,
      "telemaan": 3745,
      "puolet": 3746,
      "jäädä": 3747,
      "edellis": 3748,
      "Maail": 3749,
      "muuten": 3750,
      "suuntaan": 3751,
      "siltä": 3752,
      "miehe": 3753,
      "ottaen": 3754,
      "pelin": 3755,
      "Kiina": 3756,
      "pöydä": 3757,
      "kieltä": 3758,
      "kulutta": 3759,
      "suhtee": 3760,
      "suhteet": 3761,
      "oikeuksia": 3762,
      "hyväksyty": 3763,
      "täyde": 3764,
      "aiheuttaa": 3765,
      "syntyi": 3766,
      "paikalla": 3767,
      "huipu": 3768,
      "nuore": 3769,
      "osoittaa": 3770,
      "huomasin": 3771,
      "vyys": 3772,
      "nykyisin": 3773,
      "ilmoitta": 3774,
      "yleissopimuksen": 3775,
      "kilpailun": 3776,
      "ointi": 3777,
      "haluaisin": 3778,
      "melkein": 3779,
      "puhua": 3780,
      "hiljaa": 3781,
      "muodossa": 3782,
      "todeta": 3783,
      "Tukhol": 3784,
      "sisältää": 3785,
      "dynasti": 3786,
      "väärä": 3787,
      "lahjoi": 3788,
      "luento": 3789,
      "aikoina": 3790,
      "pisteen": 3791,
      "tulevaisuudessa": 3792,
      "käsittely": 3793,
      "kysyn": 3794,
      "Korvataan": 3795,
      "demokraa": 3796,
      "tuotanto": 3797,
      "Jäsen": 3798,
      "juusto": 3799,
      "Ensimmäinen": 3800,
      "Espanjan": 3801,
      "ominais": 3802,
      "Nyky": 3803,
      "aurinko": 3804,
      "tiistaina": 3805,
      "Montrealin": 3806,
      "ensisija": 3807,
      "39": 3808,
      "62": 3809,
      "70": 3810,
      "Aja": 3811,
      "Accen": 3812,
      "CE": 3813,
      "Ch": 3814,
      "Gor": 3815,
      "IN": 3816,
      "IT": 3817,
      "KS": 3818,
      "Kas": 3819,
      "Men": 3820,
      "Sy": 3821,
      "Sar": 3822,
      "Tää": 3823,
      "UN": 3824,
      "Vaa": 3825,
      "VOS": 3826,
      "ban": 3827,
      "beri": 3828,
      "ex": 3829,
      "htaa": 3830,
      "hteen": 3831,
      "ivat": 3832,
      "mmista": 3833,
      "ns": 3834,
      "noi": 3835,
      "nosti": 3836,
      "ohu": 3837,
      "rk": 3838,
      "tsi": 3839,
      "ukseen": 3840,
      "ÄN": 3841,
      "iske": 3842,
      "istö": 3843,
      "isaa": 3844,
      "istun": 3845,
      "kata": 3846,
      "teko": 3847,
      "onsa": 3848,
      "tuin": 3849,
      "tussa": 3850,
      "tuor": 3851,
      "tukea": 3852,
      "tuneen": 3853,
      "tuksissa": 3854,
      "lihan": 3855,
      "koe": 3856,
      "kom": 3857,
      "kevää": 3858,
      "seja": 3859,
      "seinä": 3860,
      "tosin": 3861,
      "toisten": 3862,
      "kivi": 3863,
      "joen": 3864,
      "pakka": 3865,
      "ttaen": 3866,
      "miestä": 3867,
      "lukuun": 3868,
      "elma": 3869,
      "vide": 3870,
      "viesti": 3871,
      "misessä": 3872,
      "mäen": 3873,
      "kinen": 3874,
      "uten": 3875,
      "meä": 3876,
      "niissä": 3877,
      "niille": 3878,
      "kanen": 3879,
      "kanaan": 3880,
      "alha": 3881,
      "aiku": 3882,
      "kuntaa": 3883,
      "kuntien": 3884,
      "kunnes": 3885,
      "valtuu": 3886,
      "kaani": 3887,
      "hänestä": 3888,
      "saadaan": 3889,
      "kaudella": 3890,
      "tonsa": 3891,
      "elämää": 3892,
      "matkaa": 3893,
      "varma": 3894,
      "lastus": 3895,
      "ttävä": 3896,
      "kirkon": 3897,
      "osapuoli": 3898,
      "kaikista": 3899,
      "istuu": 3900,
      "alusta": 3901,
      "luovu": 3902,
      "velvoitte": 3903,
      "yhteiskunnan": 3904,
      "asetuksella": 3905,
      "korja": 3906,
      "tieteiden": 3907,
      "monet": 3908,
      "ajaa": 3909,
      "selvit": 3910,
      "katsoi": 3911,
      "kulki": 3912,
      "harvoin": 3913,
      "määrät": 3914,
      "alalla": 3915,
      "koskevien": 3916,
      "lähtö": 3917,
      "asioita": 3918,
      "turku": 3919,
      "Onko": 3920,
      "sisään": 3921,
      "sisällä": 3922,
      "toimintaan": 3923,
      "televisi": 3924,
      "valittiin": 3925,
      "viimeksi": 3926,
      "ostaa": 3927,
      "udu": 3928,
      "sellainen": 3929,
      "pysä": 3930,
      "pysäh": 3931,
      "miehi": 3932,
      "reita": 3933,
      "pitänyt": 3934,
      "tiota": 3935,
      "käyttöä": 3936,
      "llani": 3937,
      "pöly": 3938,
      "kielen": 3939,
      "liittyviä": 3940,
      "Tied": 3941,
      "ritti": 3942,
      "asianoma": 3943,
      "Inter": 3944,
      "Yhdysvallo": 3945,
      "pistettä": 3946,
      "filoso": 3947,
      "jotenkin": 3948,
      "tuotteiden": 3949,
      "tuotteita": 3950,
      "ainoa": 3951,
      "Keskus": 3952,
      "rahoitus": 3953,
      "loppuun": 3954,
      "Albu": 3955,
      "Kyse": 3956,
      "pelasi": 3957,
      "historia": 3958,
      "Uusi": 3959,
      "Dig": 3960,
      "Tunisian": 3961,
      "tarvittaessa": 3962,
      "pyrki": 3963,
      "mpaan": 3964,
      "ennakko": 3965,
      "Mikäli": 3966,
      "lääkäri": 3967,
      "hyödyn": 3968,
      "läsnä": 3969,
      "yhdeksän": 3970,
      "Iranin": 3971,
      "lausunnon": 3972,
      "vertailu": 3973,
      "Brysselissä": 3974,
      "yhdysvalta": 3975,
      "lähinnä": 3976,
      "mahdollisimman": 3977,
      ";)": 3978,
      "Eli": 3979,
      "Han": 3980,
      "Koi": 3981,
      "Lau": 3982,
      "Med": 3983,
      "Nuo": 3984,
      "Päi": 3985,
      "Tal": 3986,
      "Tee": 3987,
      "YK": 3988,
      "atte": 3989,
      "ajoi": 3990,
      "bin": 3991,
      "destä": 3992,
      "ehti": 3993,
      "mb": 3994,
      "osi": 3995,
      "omi": 3996,
      "omat": 3997,
      "plan": 3998,
      "rmä": 3999,
      "riste": 4000,
      "sky": 4001,
      "uku": 4002,
      "entinen": 4003,
      "anti": 4004,
      "llit": 4005,
      "tälle": 4006,
      "siä": 4007,
      "tiön": 4008,
      "teili": 4009,
      "one": 4010,
      "salli": 4011,
      "ture": 4012,
      "tulli": 4013,
      "jaka": 4014,
      "kuka": 4015,
      "kuvia": 4016,
      "maksaa": 4017,
      "estään": 4018,
      "kehi": 4019,
      "itses": 4020,
      "seksua": 4021,
      "toisia": 4022,
      "toiselle": 4023,
      "erää": 4024,
      "joa": 4025,
      "palaa": 4026,
      "muus": 4027,
      "tyvät": 4028,
      "tyyn": 4029,
      "lukea": 4030,
      "radi": 4031,
      "mästi": 4032,
      "utin": 4033,
      "haki": 4034,
      "havain": 4035,
      "yttö": 4036,
      "usten": 4037,
      "tena": 4038,
      "naista": 4039,
      "nia": 4040,
      "nie": 4041,
      "puke": 4042,
      "puri": 4043,
      "yhtenä": 4044,
      "minuu": 4045,
      "llisista": 4046,
      "voimme": 4047,
      "voimassa": 4048,
      "toimisto": 4049,
      "vani": 4050,
      "ihminen": 4051,
      "kysel": 4052,
      "kylj": 4053,
      "hänellä": 4054,
      "olevia": 4055,
      "päällä": 4056,
      "nostaa": 4057,
      "istään": 4058,
      "hii": 4059,
      "sanon": 4060,
      "suuria": 4061,
      "varmista": 4062,
      "varanto": 4063,
      "hinnat": 4064,
      "hdoin": 4065,
      "itseään": 4066,
      "suoje": 4067,
      "osake": 4068,
      "vänä": 4069,
      "oikea": 4070,
      "työllis": 4071,
      "mmälle": 4072,
      "verta": 4073,
      "Tähän": 4074,
      "utuvat": 4075,
      "utuminen": 4076,
      "heng": 4077,
      "tapauksissa": 4078,
      "korke": 4079,
      "jiin": 4080,
      "viivä": 4081,
      "käytettiin": 4082,
      "käydä": 4083,
      "käytetty": 4084,
      "monen": 4085,
      "ppaa": 4086,
      "tettuja": 4087,
      "yksikkö": 4088,
      "asiaan": 4089,
      "lähet": 4090,
      "välittä": 4091,
      "EUVOS": 4092,
      "tapahtui": 4093,
      "tapahtunut": 4094,
      "vaikutus": 4095,
      "Johan": 4096,
      "1994": 4097,
      "kaipaa": 4098,
      "seuraavan": 4099,
      "ottanut": 4100,
      "union": 4101,
      "ohjelman": 4102,
      "ohjelmien": 4103,
      "tapahtuma": 4104,
      "puolus": 4105,
      "asiantunti": 4106,
      "mikäli": 4107,
      "kauppakorkeakoulu": 4108,
      "opiskelijoiden": 4109,
      "näkyy": 4110,
      "muutos": 4111,
      "tiedonanta": 4112,
      "teknolo": 4113,
      "sarja": 4114,
      "jostain": 4115,
      "säännöt": 4116,
      "Vuoden": 4117,
      "paikkaa": 4118,
      "terveys": 4119,
      "korostaa": 4120,
      "tilanteeseen": 4121,
      "Meillä": 4122,
      "veto": 4123,
      "histori": 4124,
      "historian": 4125,
      "joukkoon": 4126,
      "pyytää": 4127,
      "kolleg": 4128,
      "vahvistetaan": 4129,
      "inflaa": 4130,
      "kuninkaan": 4131,
      "nautin": 4132,
      "paljas": 4133,
      "keskuksen": 4134,
      "albumi": 4135,
      "ruotsa": 4136,
      "Italian": 4137,
      "Kreikan": 4138,
      "isännöitsijä": 4139,
      "häiriö": 4140,
      "julkaistiin": 4141,
      "mätöntä": 4142,
      "todennäkö": 4143,
      "Haluaisin": 4144,
      "päällikkö": 4145,
      "hyökkäy": 4146,
      "Tapahtu": 4147,
      "pyritään": 4148,
      "84": 4149,
      "Ge": 4150,
      "Iberi": 4151,
      "Jaa": 4152,
      "Kuo": 4153,
      "Kana": 4154,
      "Lei": 4155,
      "Luu": 4156,
      "Lop": 4157,
      "Man": 4158,
      "NEUVOS": 4159,
      "Ori": 4160,
      "Pit": 4161,
      "SI": 4162,
      "Sc": 4163,
      "Tän": 4164,
      "Ul": 4165,
      "avar": 4166,
      "cu": 4167,
      "fo": 4168,
      "hus": 4169,
      "imis": 4170,
      "jut": 4171,
      "ov": 4172,
      "olleen": 4173,
      "pei": 4174,
      "th": 4175,
      "ukset": 4176,
      "uraa": 4177,
      "vuus": 4178,
      "yp": 4179,
      "tavoin": 4180,
      "isistä": 4181,
      "llu": 4182,
      "llisiä": 4183,
      "täynnä": 4184,
      "vaku": 4185,
      "kato": 4186,
      "katta": 4187,
      "kaks": 4188,
      "kamer": 4189,
      "tilla": 4190,
      "teissa": 4191,
      "teilla": 4192,
      "saksa": 4193,
      "sauna": 4194,
      "jalan": 4195,
      "kumo": 4196,
      "oika": 4197,
      "lija": 4198,
      "koista": 4199,
      "kotona": 4200,
      "keaa": 4201,
      "lattia": 4202,
      "parin": 4203,
      "muisto": 4204,
      "muille": 4205,
      "mukanaan": 4206,
      "väes": 4207,
      "eilen": 4208,
      "vio": 4209,
      "ksissä": 4210,
      "pia": 4211,
      "jättää": 4212,
      "ikon": 4213,
      "olikin": 4214,
      "sof": 4215,
      "sovit": 4216,
      "sentään": 4217,
      "mini": 4218,
      "kunnissa": 4219,
      "näp": 4220,
      "näissä": 4221,
      "valkea": 4222,
      "kuulla": 4223,
      "oltava": 4224,
      "vanhan": 4225,
      "ihme": 4226,
      "olemaan": 4227,
      "tarvit": 4228,
      "tuntu": 4229,
      "tuntui": 4230,
      "tunnin": 4231,
      "sinun": 4232,
      "edisty": 4233,
      "maata": 4234,
      "sula": 4235,
      "sukka": 4236,
      "elämään": 4237,
      "kosmo": 4238,
      "sanan": 4239,
      "kkaus": 4240,
      "laaju": 4241,
      "koita": 4242,
      "vaimo": 4243,
      "peit": 4244,
      "osaan": 4245,
      "pannu": 4246,
      "mmät": 4247,
      "kasvaa": 4248,
      "alun": 4249,
      "alus": 4250,
      "ollu": 4251,
      "määrin": 4252,
      "tietysti": 4253,
      "luokan": 4254,
      "jatko": 4255,
      "velvoi": 4256,
      "aseman": 4257,
      "tapaan": 4258,
      "Suomeen": 4259,
      "mpien": 4260,
      "Kata": 4261,
      "tutkija": 4262,
      "perustus": 4263,
      "yksilö": 4264,
      "ajatella": 4265,
      "Siellä": 4266,
      "aikaisemmin": 4267,
      "heikko": 4268,
      "terä": 4269,
      "kkeen": 4270,
      "joukossa": 4271,
      "liikaa": 4272,
      "yleisesti": 4273,
      "eivätkä": 4274,
      "koulun": 4275,
      "metsä": 4276,
      "välittö": 4277,
      "julkis": 4278,
      "jäsenvaltiot": 4279,
      "yhdistel": 4280,
      "kohdalla": 4281,
      "prosenttiin": 4282,
      "muuttu": 4283,
      "hallit": 4284,
      "silmän": 4285,
      "vastus": 4286,
      "johtaa": 4287,
      "Ardu": 4288,
      "kaiki": 4289,
      "seuraavaa": 4290,
      "epäil": 4291,
      "ottamatta": 4292,
      "saaneet": 4293,
      "Joskus": 4294,
      "Nämä": 4295,
      "suhteessa": 4296,
      "siirtyi": 4297,
      "onnistunut": 4298,
      "suomalaiset": 4299,
      "ulkopuolella": 4300,
      "ulkopuolelle": 4301,
      "suuren": 4302,
      "vieressä": 4303,
      "torjun": 4304,
      "vuosien": 4305,
      "toistaiseksi": 4306,
      "juna": 4307,
      "viikko": 4308,
      "kauppaa": 4309,
      "Yhdysval": 4310,
      "mmaksi": 4311,
      "julkaistu": 4312,
      "miljoonan": 4313,
      "miljoonaan": 4314,
      "annetaan": 4315,
      "iltana": 4316,
      "Juho": 4317,
      "sarjan": 4318,
      "teollisuus": 4319,
      "vuodelta": 4320,
      "yhteisöjen": 4321,
      "voimakkaasti": 4322,
      "lähellä": 4323,
      "kustannus": 4324,
      "Minulla": 4325,
      "soveltamis": 4326,
      "vallat": 4327,
      "1970": 4328,
      "ratkais": 4329,
      "ratkaise": 4330,
      "löytyi": 4331,
      "eräs": 4332,
      "juhli": 4333,
      "näytteli": 4334,
      "kirjoittanut": 4335,
      "yhtyeen": 4336,
      "Suur": 4337,
      "Kansainväl": 4338,
      "Uuden": 4339,
      "heinäkuussa": 4340,
      "vahvistaa": 4341,
      "edellytykset": 4342,
      "mestar": 4343,
      "ohjaus": 4344,
      "valinta": 4345,
      "Jussi": 4346,
      "Neuvosto": 4347,
      "tarpeeksi": 4348,
      "selkeä": 4349,
      "toimitusjohtaja": 4350,
      "yhteyspiste": 4351,
      "Lopulta": 4352,
      "tavanoma": 4353,
      "pöydän": 4354,
      "kappaletta": 4355,
      "Androi": 4356,
      "Yhdysvalloissa": 4357,
      "Tänään": 4358,
      "77": 4359,
      "85": 4360,
      "Af": 4361,
      "Aina": 4362,
      "Aasian": 4363,
      "Arabi": 4364,
      "ES": 4365,
      "Ira": 4366,
      "Kul": 4367,
      "Lää": 4368,
      "Oike": 4369,
      "Rf": 4370,
      "TI": 4371,
      "TÄ": 4372,
      "Tra": 4373,
      "Wi": 4374,
      "YL": 4375,
      "Za": 4376,
      "bus": 4377,
      "cm": 4378,
      "das": 4379,
      "dessä": 4380,
      "dettävä": 4381,
      "fa": 4382,
      "fel": 4383,
      "juttu": 4384,
      "klo": 4385,
      "lkää": 4386,
      "mmisto": 4387,
      "ovi": 4388,
      "rän": 4389,
      "ska": 4390,
      "ux": 4391,
      "vut": 4392,
      "ved": 4393,
      "wa": 4394,
      "ws": 4395,
      "össä": 4396,
      "tain": 4397,
      "isuutta": 4398,
      "isyys": 4399,
      "ineen": 4400,
      "ang": 4401,
      "tävät": 4402,
      "katto": 4403,
      "timme": 4404,
      "tei": 4405,
      "tessa": 4406,
      "telta": 4407,
      "teeksi": 4408,
      "teille": 4409,
      "teeseen": 4410,
      "samoin": 4411,
      "tuttu": 4412,
      "jau": 4413,
      "jaksa": 4414,
      "kum": 4415,
      "kuvan": 4416,
      "maal": 4417,
      "keit": 4418,
      "laki": 4419,
      "toki": 4420,
      "totta": 4421,
      "tomaa": 4422,
      "todet": 4423,
      "kiih": 4424,
      "pall": 4425,
      "paikan": 4426,
      "ttavan": 4427,
      "viini": 4428,
      "viisu": 4429,
      "rakas": 4430,
      "rajat": 4431,
      "lehden": 4432,
      "rie": 4433,
      "rio": 4434,
      "rille": 4435,
      "loun": 4436,
      "loista": 4437,
      "lopun": 4438,
      "naan": 4439,
      "hdy": 4440,
      "nii": 4441,
      "purin": 4442,
      "puhui": 4443,
      "soke": 4444,
      "minusta": 4445,
      "menna": 4446,
      "töiden": 4447,
      "kunkin": 4448,
      "nät": 4449,
      "näkin": 4450,
      "valtaan": 4451,
      "valmenta": 4452,
      "lämpi": 4453,
      "kuul": 4454,
      "asin": 4455,
      "dellä": 4456,
      "vanhu": 4457,
      "perään": 4458,
      "tarin": 4459,
      "tarkemmin": 4460,
      "tunnel": 4461,
      "saarilla": 4462,
      "potila": 4463,
      "maat": 4464,
      "uransa": 4465,
      "mänä": 4466,
      "eläi": 4467,
      "organ": 4468,
      "varus": 4469,
      "ttävät": 4470,
      "laaja": 4471,
      "hanke": 4472,
      "suomen": 4473,
      "oikean": 4474,
      "oikeutta": 4475,
      "pankki": 4476,
      "kaikkein": 4477,
      "utumis": 4478,
      "auki": 4479,
      "rinta": 4480,
      "käytti": 4481,
      "veljen": 4482,
      "yhteiskunna": 4483,
      "erilaisia": 4484,
      "viikolla": 4485,
      "hyväksi": 4486,
      "Kari": 4487,
      "Seuraa": 4488,
      "tavallisesti": 4489,
      "ppado": 4490,
      "välistä": 4491,
      "välissä": 4492,
      "inoma": 4493,
      "Siitä": 4494,
      "kulku": 4495,
      "harvina": 4496,
      "ittain": 4497,
      "kaikkiaan": 4498,
      "tansa": 4499,
      "ihmistä": 4500,
      "Ensin": 4501,
      "Ennen": 4502,
      "ttyä": 4503,
      "käsitel": 4504,
      "mukaista": 4505,
      "omasta": 4506,
      "politii": 4507,
      "maailmassa": 4508,
      "illaan": 4509,
      "jänä": 4510,
      "puolis": 4511,
      "isari": 4512,
      "komissiolle": 4513,
      "tuloksia": 4514,
      "tyypi": 4515,
      "antavat": 4516,
      "Vain": 4517,
      "ginaali": 4518,
      "vastuun": 4519,
      "Talo": 4520,
      "Tallin": 4521,
      "1997": 4522,
      "sellaista": 4523,
      "sääntöjä": 4524,
      "reiden": 4525,
      "palasi": 4526,
      "euroon": 4527,
      "Pari": 4528,
      "rahaa": 4529,
      "opiskelu": 4530,
      "oikeude": 4531,
      "miljar": 4532,
      "Eikä": 4533,
      "lapsia": 4534,
      "syntyy": 4535,
      "suomalais": 4536,
      "suomalaisen": 4537,
      "mahdollisuu": 4538,
      "kahvia": 4539,
      "tettyä": 4540,
      "rauha": 4541,
      "loppua": 4542,
      "puolueen": 4543,
      "vuosittain": 4544,
      "Index": 4545,
      "samankalta": 4546,
      "Yhdysvallat": 4547,
      "soveltaa": 4548,
      "III": 4549,
      "edustaja": 4550,
      "yleissopimu": 4551,
      "pitkäaika": 4552,
      "laskee": 4553,
      "muutoksia": 4554,
      "tiedonanto": 4555,
      "Juma": 4556,
      "keskellä": 4557,
      "Tek": 4558,
      "Repo": 4559,
      "hyväksyä": 4560,
      "laitoksen": 4561,
      "tiedekunnan": 4562,
      "käytännön": 4563,
      "bert": 4564,
      "itsenä": 4565,
      "ratkaisu": 4566,
      "tilanteessa": 4567,
      "Ruotsa": 4568,
      "Ruotsin": 4569,
      "tunnetaan": 4570,
      "keskustelua": 4571,
      "Varsin": 4572,
      "väärin": 4573,
      "näkemy": 4574,
      "länsi": 4575,
      "lukien": 4576,
      "jäänyt": 4577,
      "ISSI": 4578,
      "Olisi": 4579,
      "tarvitaan": 4580,
      "Aika": 4581,
      "kkös": 4582,
      "merkitys": 4583,
      "lainsäädäntö": 4584,
      "tuonti": 4585,
      "Haluan": 4586,
      "kaupasta": 4587,
      "tuotannon": 4588,
      "tyhjä": 4589,
      "kylässä": 4590,
      "Kolman": 4591,
      "kilometriä": 4592,
      "hiukan": 4593,
      "mestari": 4594,
      "kuulemma": 4595,
      "Yliopisto": 4596,
      "jäljellä": 4597,
      "musiikki": 4598,
      "mpana": 4599,
      "ASET": 4600,
      "hosroi": 4601,
      "onnettomuu": 4602,
      "KOMISSI": 4603,
      "Aamu": 4604,
      "Isännö": 4605,
      "Maailman": 4606,
      "itsestään": 4607,
      "Geor": 4608,
      "hallitsija": 4609,
      "400": 4610,
      "69": 4611,
      "83": 4612,
      "Bu": 4613,
      "Bra": 4614,
      "El": 4615,
      "Emme": 4616,
      "HS": 4617,
      "Huo": 4618,
      "IC": 4619,
      "Jul": 4620,
      "Mat": 4621,
      "MTV": 4622,
      "MÄN": 4623,
      "Ota": 4624,
      "PS": 4625,
      "Rä": 4626,
      "Sto": 4627,
      "Tri": 4628,
      "Wor": 4629,
      "bil": 4630,
      "bur": 4631,
      "con": 4632,
      "ek": 4633,
      "empi": 4634,
      "fy": 4635,
      "gri": 4636,
      "gres": 4637,
      "mmän": 4638,
      "oja": 4639,
      "ojen": 4640,
      "pesi": 4641,
      "sessa": 4642,
      "stään": 4643,
      "tro": 4644,
      "tina": 4645,
      "tsija": 4646,
      "utunut": 4647,
      "vettä": 4648,
      "yvä": 4649,
      "zi": 4650,
      "Åke": 4651,
      "öö": 4652,
      "entisen": 4653,
      "tapo": 4654,
      "tappi": 4655,
      "iski": 4656,
      "isuuden": 4657,
      "inkaan": 4658,
      "intiin": 4659,
      "anna": 4660,
      "annettiin": 4661,
      "sili": 4662,
      "sitou": 4663,
      "siemen": 4664,
      "kaisi": 4665,
      "kaus": 4666,
      "kaar": 4667,
      "kalli": 4668,
      "tiesi": 4669,
      "teista": 4670,
      "teatte": 4671,
      "saisi": 4672,
      "tusa": 4673,
      "kuvi": 4674,
      "kulta": 4675,
      "kumpi": 4676,
      "kuvit": 4677,
      "mata": 4678,
      "maksi": 4679,
      "est": 4680,
      "kevy": 4681,
      "laji": 4682,
      "sekoi": 4683,
      "toman": 4684,
      "jot": 4685,
      "johti": 4686,
      "johdon": 4687,
      "paan": 4688,
      "paina": 4689,
      "musti": 4690,
      "mukset": 4691,
      "muihin": 4692,
      "ttamista": 4693,
      "tytö": 4694,
      "tyminen": 4695,
      "lupaa": 4696,
      "eihin": 4697,
      "lleet": 4698,
      "rillä": 4699,
      "istan": 4700,
      "hah": 4701,
      "haus": 4702,
      "uskalta": 4703,
      "naiset": 4704,
      "mella": 4705,
      "neista": 4706,
      "puh": 4707,
      "puit": 4708,
      "kantaa": 4709,
      "sentti": 4710,
      "llisuutta": 4711,
      "aiem": 4712,
      "aikoo": 4713,
      "töihin": 4714,
      "kuntaan": 4715,
      "hella": 4716,
      "toimet": 4717,
      "toivon": 4718,
      "mansi": 4719,
      "kuuden": 4720,
      "aset": 4721,
      "ihmet": 4722,
      "kyyn": 4723,
      "tunutta": 4724,
      "reun": 4725,
      "rehtori": 4726,
      "ttelen": 4727,
      "saappa": 4728,
      "maalia": 4729,
      "kerin": 4730,
      "kerton": 4731,
      "suhteen": 4732,
      "data": 4733,
      "toni": 4734,
      "elää": 4735,
      "elämässä": 4736,
      "himo": 4737,
      "sanat": 4738,
      "vastasi": 4739,
      "oran": 4740,
      "esimerkki": 4741,
      "kkari": 4742,
      "lasken": 4743,
      "konen": 4744,
      "kirje": 4745,
      "estäni": 4746,
      "huolehti": 4747,
      "muuttaa": 4748,
      "muutettuna": 4749,
      "dien": 4750,
      "oikeisto": 4751,
      "työstä": 4752,
      "pani": 4753,
      "tuoks": 4754,
      "vertika": 4755,
      "utumisen": 4756,
      "istuin": 4757,
      "alueiden": 4758,
      "määrää": 4759,
      "hom": 4760,
      "jatkoi": 4761,
      "kkua": 4762,
      "tutkijat": 4763,
      "tehtiin": 4764,
      "perustu": 4765,
      "ppua": 4766,
      "välinen": 4767,
      "kansalaisten": 4768,
      "ennus": 4769,
      "Siihen": 4770,
      "aikataulu": 4771,
      "määrästä": 4772,
      "ampu": 4773,
      "eemme": 4774,
      "Kore": 4775,
      "tietokone": 4776,
      "nöstä": 4777,
      "kkeet": 4778,
      "asioista": 4779,
      "mahdollisesti": 4780,
      "väliin": 4781,
      "jäsenvaltioille": 4782,
      "jääkie": 4783,
      "Matti": 4784,
      "herra": 4785,
      "vaikutta": 4786,
      "tulokset": 4787,
      "udessa": 4788,
      "Jou": 4789,
      "ehdotuksen": 4790,
      "telua": 4791,
      "muotoi": 4792,
      "tämättö": 4793,
      "erityisen": 4794,
      "johtuu": 4795,
      "keskustella": 4796,
      "ajanjaks": 4797,
      "sellaisena": 4798,
      "rakennu": 4799,
      "toteaa": 4800,
      "kysyi": 4801,
      "kohtuu": 4802,
      "järjestely": 4803,
      "henkilöiden": 4804,
      "Tilas": 4805,
      "teetin": 4806,
      "laula": 4807,
      "myynnin": 4808,
      "mahdollisuuden": 4809,
      "mahdollisuuksia": 4810,
      "katsoa": 4811,
      "lainkaan": 4812,
      "talvi": 4813,
      "perävaunu": 4814,
      "suurta": 4815,
      "lopuksi": 4816,
      "kertovat": 4817,
      "kurs": 4818,
      "osoitta": 4819,
      "Pian": 4820,
      "utuivat": 4821,
      "merkity": 4822,
      "puheenjohtajana": 4823,
      "joukkueen": 4824,
      "määriä": 4825,
      "sarjassa": 4826,
      "Kaupun": 4827,
      "piiri": 4828,
      "aamuna": 4829,
      "yhteisössä": 4830,
      "uudessaan": 4831,
      "terveyden": 4832,
      "ministerin": 4833,
      "kolmansien": 4834,
      "mainittu": 4835,
      "kehittämis": 4836,
      "kysymyksiä": 4837,
      "matkustajien": 4838,
      "Suuri": 4839,
      "noussut": 4840,
      "aktiiv": 4841,
      "alkaen": 4842,
      "tutkinnon": 4843,
      "luottoluokitus": 4844,
      "arvioida": 4845,
      "joutuu": 4846,
      "pakotte": 4847,
      "jäivät": 4848,
      "päättyi": 4849,
      "tieteellisen": 4850,
      "kuninkaa": 4851,
      "kustannukset": 4852,
      "analyy": 4853,
      "rouva": 4854,
      "tiedotus": 4855,
      "lausel": 4856,
      "pidettiin": 4857,
      "apua": 4858,
      "löytää": 4859,
      "Yliopiston": 4860,
      "johdosta": 4861,
      "Carl": 4862,
      "ottelussa": 4863,
      "hymyile": 4864,
      "tyytyväinen": 4865,
      "eteenpäin": 4866,
      "metalli": 4867,
      "luennoi": 4868,
      "koostuu": 4869,
      "entistä": 4870,
      "ikinä": 4871,
      "tavarakuljetukseen": 4872,
      "kahdeksan": 4873,
      "vähimmäis": 4874,
      "Obama": 4875,
      "Tehty": 4876,
      "Yhteis": 4877,
      "Digitin": 4878,
      "viivästy": 4879,
      "TÄMÄN": 4880,
      "32": 4881,
      "500": 4882,
      "86": 4883,
      "95": 4884,
      "AM": 4885,
      "Be": 4886,
      "Eri": 4887,
      "For": 4888,
      "HTE": 4889,
      "Ihan": 4890,
      "Joh": 4891,
      "Ken": 4892,
      "Kyllä": 4893,
      "Lar": 4894,
      "Mää": 4895,
      "Miten": 4896,
      "Os": 4897,
      "Oma": 4898,
      "Qu": 4899,
      "Rosa": 4900,
      "Sal": 4901,
      "Sam": 4902,
      "Tš": 4903,
      "Tuu": 4904,
      "TAN": 4905,
      "Vasta": 4906,
      "XX": 4907,
      "YHTE": 4908,
      "avaa": 4909,
      "avu": 4910,
      "alais": 4911,
      "aller": 4912,
      "blo": 4913,
      "cor": 4914,
      "eg": 4915,
      "eko": 4916,
      "f4": 4917,
      "go": 4918,
      "gu": 4919,
      "gle": 4920,
      "iva": 4921,
      "jyr": 4922,
      "kisen": 4923,
      "kkanen": 4924,
      "lti": 4925,
      "les": 4926,
      "lön": 4927,
      "leri": 4928,
      "mystä": 4929,
      "pon": 4930,
      "pla": 4931,
      "rki": 4932,
      "uksesta": 4933,
      "vessa": 4934,
      "veen": 4935,
      "zin": 4936,
      "Älä": 4937,
      "ento": 4938,
      "enkään": 4939,
      "tak": 4940,
      "tas": 4941,
      "taasti": 4942,
      "iskin": 4943,
      "tähti": 4944,
      "tävää": 4945,
      "sijoitta": 4946,
      "vaitse": 4947,
      "kama": 4948,
      "kauni": 4949,
      "teta": 4950,
      "teessa": 4951,
      "onta": 4952,
      "sattu": 4953,
      "sammu": 4954,
      "tumis": 4955,
      "tune": 4956,
      "tuul": 4957,
      "jakoi": 4958,
      "kuvai": 4959,
      "mati": 4960,
      "maus": 4961,
      "makka": 4962,
      "maihin": 4963,
      "essani": 4964,
      "oimin": 4965,
      "ettö": 4966,
      "etenkin": 4967,
      "koor": 4968,
      "itoa": 4969,
      "laita": 4970,
      "lailla": 4971,
      "sei": 4972,
      "sek": 4973,
      "seksi": 4974,
      "toisessa": 4975,
      "kivaa": 4976,
      "erit": 4977,
      "erinoma": 4978,
      "joki": 4979,
      "ttaessa": 4980,
      "väen": 4981,
      "tytön": 4982,
      "eil": 4983,
      "eljän": 4984,
      "viha": 4985,
      "vihdoin": 4986,
      "kädet": 4987,
      "rahoja": 4988,
      "misella": 4989,
      "uut": 4990,
      "uudella": 4991,
      "uutis": 4992,
      "rivi": 4993,
      "riittää": 4994,
      "isivät": 4995,
      "pio": 4996,
      "pila": 4997,
      "jättä": 4998,
      "utensa": 4999
    },
    "merges": [
      [
        "e",
        "n"
      ],
      [
        "t",
        "a"
      ],
      [
        "i",
        "s"
      ],
      [
        "i",
        "n"
      ],
      [
        "a",
        "n"
      ],
      [
        "l",
        "l"
      ],
      [
        "t",
        "ä"
      ],
      [
        "s",
        "i"
      ],
      [
        "v",
        "a"
      ],
      [
        "k",
        "a"
      ],
      [
        "t",
        "i"
      ],
      [
        "t",
        "e"
      ],
      [
        "o",
        "n"
      ],
      [
        "s",
        "a"
      ],
      [
        "t",
        "u"
      ],
      [
        "j",
        "a"
      ],
      [
        "k",
        "u"
      ],
      [
        "m",
        "a"
      ],
      [
        "e",
        "s"
      ],
      [
        "o",
        "i"
      ],
      [
        "e",
        "t"
      ],
      [
        "ä",
        "n"
      ],
      [
        "l",
        "i"
      ],
      [
        "k",
        "o"
      ],
      [
        "k",
        "e"
      ],
      [
        "i",
        "t"
      ],
      [
        "l",
        "a"
      ],
      [
        "s",
        "e"
      ],
      [
        "t",
        "o"
      ],
      [
        "k",
        "i"
      ],
      [
        "u",
        "o"
      ],
      [
        "e",
        "r"
      ],
      [
        "j",
        "o"
      ],
      [
        "ll",
        "a"
      ],
      [
        "p",
        "a"
      ],
      [
        "m",
        "u"
      ],
      [
        "t",
        "ta"
      ],
      [
        "m",
        "i"
      ],
      [
        "s",
        "ta"
      ],
      [
        "v",
        "ä"
      ],
      [
        "t",
        "y"
      ],
      [
        "l",
        "u"
      ],
      [
        "e",
        "i"
      ],
      [
        "k",
        "si"
      ],
      [
        "e",
        "l"
      ],
      [
        "v",
        "i"
      ],
      [
        "k",
        "s"
      ],
      [
        "k",
        "ä"
      ],
      [
        "r",
        "a"
      ],
      [
        "s",
        "ä"
      ],
      [
        "m",
        "is"
      ],
      [
        "ll",
        "e"
      ],
      [
        "l",
        "e"
      ],
      [
        "u",
        "u"
      ],
      [
        "r",
        "i"
      ],
      [
        "s",
        "sa"
      ],
      [
        "m",
        "ä"
      ],
      [
        "is",
        "i"
      ],
      [
        "d",
        "en"
      ],
      [
        "p",
        "i"
      ],
      [
        "u",
        "n"
      ],
      [
        "j",
        "ä"
      ],
      [
        "is",
        "ta"
      ],
      [
        "p",
        "ä"
      ],
      [
        "k",
        "in"
      ],
      [
        "u",
        "t"
      ],
      [
        "va",
        "t"
      ],
      [
        "h",
        "a"
      ],
      [
        "in",
        "en"
      ],
      [
        "y",
        "t"
      ],
      [
        "l",
        "o"
      ],
      [
        "ll",
        "ä"
      ],
      [
        "i",
        "k"
      ],
      [
        "u",
        "s"
      ],
      [
        "r",
        "o"
      ],
      [
        "t",
        "en"
      ],
      [
        "n",
        "a"
      ],
      [
        "o",
        "li"
      ],
      [
        "h",
        "d"
      ],
      [
        "m",
        "e"
      ],
      [
        "et",
        "tä"
      ],
      [
        "n",
        "e"
      ],
      [
        "n",
        "i"
      ],
      [
        "p",
        "u"
      ],
      [
        "y",
        "s"
      ],
      [
        "s",
        "o"
      ],
      [
        "y",
        "ö"
      ],
      [
        "a",
        "r"
      ],
      [
        "k",
        "an"
      ],
      [
        "s",
        "en"
      ],
      [
        "a",
        "l"
      ],
      [
        "y",
        "h"
      ],
      [
        "m",
        "in"
      ],
      [
        "m",
        "en"
      ],
      [
        "o",
        "s"
      ],
      [
        "ll",
        "is"
      ],
      [
        "o",
        "p"
      ],
      [
        "a",
        "i"
      ],
      [
        "t",
        "ö"
      ],
      [
        "v",
        "oi"
      ],
      [
        "t",
        "ti"
      ],
      [
        "ku",
        "n"
      ],
      [
        "h",
        "e"
      ],
      [
        "n",
        "ä"
      ],
      [
        "ks",
        "en"
      ],
      [
        "t",
        "oi"
      ],
      [
        "va",
        "l"
      ],
      [
        "l",
        "ä"
      ],
      [
        "is",
        "sa"
      ],
      [
        "m",
        "an"
      ],
      [
        "es",
        "sa"
      ],
      [
        "ku",
        "u"
      ],
      [
        "o",
        "l"
      ],
      [
        "a",
        "s"
      ],
      [
        "d",
        "e"
      ],
      [
        "ka",
        "an"
      ],
      [
        "e",
        "en"
      ],
      [
        "v",
        "an"
      ],
      [
        "i",
        "h"
      ],
      [
        "a",
        "a"
      ],
      [
        "is",
        "en"
      ],
      [
        "p",
        "er"
      ],
      [
        "ta",
        "an"
      ],
      [
        "ma",
        "an"
      ],
      [
        "0",
        "0"
      ],
      [
        "k",
        "y"
      ],
      [
        "h",
        "än"
      ],
      [
        "o",
        "le"
      ],
      [
        "pä",
        "ä"
      ],
      [
        "v",
        "uo"
      ],
      [
        "ta",
        "r"
      ],
      [
        "i",
        "l"
      ],
      [
        "tä",
        "ä"
      ],
      [
        "tu",
        "n"
      ],
      [
        "r",
        "e"
      ],
      [
        "s",
        "in"
      ],
      [
        "j",
        "en"
      ],
      [
        "t",
        "te"
      ],
      [
        "vä",
        "t"
      ],
      [
        "sa",
        "a"
      ],
      [
        "ka",
        "u"
      ],
      [
        "j",
        "oi"
      ],
      [
        "v",
        "o"
      ],
      [
        "n",
        "o"
      ],
      [
        "ta",
        "i"
      ],
      [
        "es",
        "ta"
      ],
      [
        "tu",
        "s"
      ],
      [
        "m",
        "yö"
      ],
      [
        "es",
        "ti"
      ],
      [
        "t",
        "tu"
      ],
      [
        "ka",
        "a"
      ],
      [
        "m",
        "me"
      ],
      [
        "p",
        "o"
      ],
      [
        "ta",
        "a"
      ],
      [
        "va",
        "a"
      ],
      [
        "e",
        "d"
      ],
      [
        "ma",
        "a"
      ],
      [
        "i",
        "tä"
      ],
      [
        "u",
        "r"
      ],
      [
        "is",
        "tä"
      ],
      [
        "y",
        "n"
      ],
      [
        "in",
        "a"
      ],
      [
        "k",
        "es"
      ],
      [
        "i",
        "den"
      ],
      [
        "h",
        "y"
      ],
      [
        "k",
        "se"
      ],
      [
        "ö",
        "n"
      ],
      [
        "tta",
        "a"
      ],
      [
        "m",
        "än"
      ],
      [
        "ke",
        "r"
      ],
      [
        "te",
        "en"
      ],
      [
        "l",
        "ta"
      ],
      [
        "j",
        "an"
      ],
      [
        "v",
        "u"
      ],
      [
        "s",
        "u"
      ],
      [
        "m",
        "er"
      ],
      [
        "is",
        "ä"
      ],
      [
        "d",
        "a"
      ],
      [
        "v",
        "e"
      ],
      [
        "u",
        "ro"
      ],
      [
        "tä",
        "än"
      ],
      [
        "ku",
        "in"
      ],
      [
        "t",
        "on"
      ],
      [
        "el",
        "ä"
      ],
      [
        "te",
        "l"
      ],
      [
        "1",
        "9"
      ],
      [
        "s",
        "sä"
      ],
      [
        "es",
        "sä"
      ],
      [
        "s",
        "ti"
      ],
      [
        "myö",
        "s"
      ],
      [
        "n",
        "yt"
      ],
      [
        "h",
        "i"
      ],
      [
        "is",
        "e"
      ],
      [
        "p",
        "uo"
      ],
      [
        "2",
        "00"
      ],
      [
        "ko",
        "s"
      ],
      [
        "k",
        "en"
      ],
      [
        "s",
        "an"
      ],
      [
        "ä",
        "r"
      ],
      [
        "va",
        "sta"
      ],
      [
        "o",
        "r"
      ],
      [
        "ma",
        "t"
      ],
      [
        "s",
        "uu"
      ],
      [
        "e",
        "si"
      ],
      [
        "h",
        "u"
      ],
      [
        "va",
        "r"
      ],
      [
        "la",
        "is"
      ],
      [
        "yh",
        "te"
      ],
      [
        "k",
        "ka"
      ],
      [
        "jo",
        "ka"
      ],
      [
        "mu",
        "tta"
      ],
      [
        "la",
        "s"
      ],
      [
        "j",
        "on"
      ],
      [
        "t",
        "in"
      ],
      [
        "t",
        "tä"
      ],
      [
        "la",
        "a"
      ],
      [
        "pä",
        "i"
      ],
      [
        "is",
        "te"
      ],
      [
        "l",
        "an"
      ],
      [
        "k",
        "on"
      ],
      [
        "o",
        "vat"
      ],
      [
        "h",
        "an"
      ],
      [
        "k",
        "oi"
      ],
      [
        "ki",
        "r"
      ],
      [
        "s",
        "tä"
      ],
      [
        "es",
        "tä"
      ],
      [
        "h",
        "in"
      ],
      [
        "h",
        "uo"
      ],
      [
        "si",
        "a"
      ],
      [
        "ä",
        "ä"
      ],
      [
        "va",
        "i"
      ],
      [
        "hd",
        "o"
      ],
      [
        "ti",
        "in"
      ],
      [
        "is",
        "esti"
      ],
      [
        "it",
        "se"
      ],
      [
        "y",
        "li"
      ],
      [
        "p",
        "e"
      ],
      [
        "s",
        "uo"
      ],
      [
        "o",
        "sa"
      ],
      [
        "v",
        "än"
      ],
      [
        "r",
        "an"
      ],
      [
        "mu",
        "u"
      ],
      [
        "d",
        "i"
      ],
      [
        "oi",
        "ke"
      ],
      [
        "ty",
        "ö"
      ],
      [
        "p",
        "an"
      ],
      [
        "u",
        "l"
      ],
      [
        "m",
        "mä"
      ],
      [
        "pa",
        "l"
      ],
      [
        "h",
        "ta"
      ],
      [
        "tu",
        "o"
      ],
      [
        "m",
        "y"
      ],
      [
        "v",
        "er"
      ],
      [
        "is",
        "sä"
      ],
      [
        "u",
        "sta"
      ],
      [
        "ka",
        "ik"
      ],
      [
        "v",
        "in"
      ],
      [
        "T",
        "ä"
      ],
      [
        "i",
        "r"
      ],
      [
        "isi",
        "a"
      ],
      [
        "ka",
        "s"
      ],
      [
        "tu",
        "t"
      ],
      [
        "h",
        "ti"
      ],
      [
        "m",
        "o"
      ],
      [
        "jä",
        "r"
      ],
      [
        "ä",
        "än"
      ],
      [
        "u",
        "tu"
      ],
      [
        "it",
        "tä"
      ],
      [
        "u",
        "lu"
      ],
      [
        "it",
        "en"
      ],
      [
        "is",
        "tu"
      ],
      [
        "op",
        "is"
      ],
      [
        "mis",
        "ta"
      ],
      [
        "a",
        "lu"
      ],
      [
        "o",
        "ll"
      ],
      [
        "mä",
        "är"
      ],
      [
        "i",
        "ta"
      ],
      [
        "s",
        "y"
      ],
      [
        "is",
        "in"
      ],
      [
        "uro",
        "op"
      ],
      [
        "a",
        "u"
      ],
      [
        "m",
        "inen"
      ],
      [
        "l",
        "in"
      ],
      [
        "o",
        "lla"
      ],
      [
        "ti",
        "et"
      ],
      [
        "n",
        "ut"
      ],
      [
        "k",
        "ki"
      ],
      [
        "r",
        "in"
      ],
      [
        "jä",
        "sen"
      ],
      [
        "kä",
        "yt"
      ],
      [
        "h",
        "o"
      ],
      [
        "a",
        "an"
      ],
      [
        "se",
        "kä"
      ],
      [
        "h",
        "en"
      ],
      [
        "l",
        "uo"
      ],
      [
        "ja",
        "t"
      ],
      [
        "v",
        "el"
      ],
      [
        "l",
        "en"
      ],
      [
        "o",
        "h"
      ],
      [
        "p",
        "ro"
      ],
      [
        "et",
        "ta"
      ],
      [
        "ksi",
        "a"
      ],
      [
        "yhte",
        "is"
      ],
      [
        "k",
        "ko"
      ],
      [
        "a",
        "se"
      ],
      [
        "ta",
        "pa"
      ],
      [
        "er",
        "i"
      ],
      [
        "ol",
        "isi"
      ],
      [
        "ni",
        "in"
      ],
      [
        "ko",
        "r"
      ],
      [
        "val",
        "ti"
      ],
      [
        "j",
        "i"
      ],
      [
        "l",
        "ö"
      ],
      [
        "y",
        "ty"
      ],
      [
        "tu",
        "ksen"
      ],
      [
        "it",
        "y"
      ],
      [
        "toi",
        "mi"
      ],
      [
        "ks",
        "et"
      ],
      [
        "ll",
        "o"
      ],
      [
        "li",
        "it"
      ],
      [
        "d",
        "o"
      ],
      [
        "ra",
        "a"
      ],
      [
        "k",
        "ö"
      ],
      [
        "mu",
        "kaan"
      ],
      [
        "vi",
        "i"
      ],
      [
        "so",
        "pi"
      ],
      [
        "ti",
        "e"
      ],
      [
        "t",
        "to"
      ],
      [
        "kuu",
        "ta"
      ],
      [
        "t",
        "ka"
      ],
      [
        "ta",
        "lo"
      ],
      [
        "kse",
        "en"
      ],
      [
        "p",
        "un"
      ],
      [
        "S",
        "uo"
      ],
      [
        "l",
        "ke"
      ],
      [
        "H",
        "än"
      ],
      [
        "tu",
        "u"
      ],
      [
        "jär",
        "j"
      ],
      [
        "m",
        "pi"
      ],
      [
        "tti",
        "in"
      ],
      [
        "E",
        "uroop"
      ],
      [
        "si",
        "tä"
      ],
      [
        "ma",
        "ssa"
      ],
      [
        "kä",
        "än"
      ],
      [
        "ik",
        "ka"
      ],
      [
        "hy",
        "vä"
      ],
      [
        "va",
        "in"
      ],
      [
        "jo",
        "s"
      ],
      [
        "lle",
        "en"
      ],
      [
        "mä",
        "än"
      ],
      [
        "u",
        "tta"
      ],
      [
        "h",
        "te"
      ],
      [
        "is",
        "et"
      ],
      [
        "in",
        "ä"
      ],
      [
        "k",
        "ku"
      ],
      [
        "K",
        "a"
      ],
      [
        "kä",
        "y"
      ],
      [
        "n",
        "an"
      ],
      [
        "d",
        "än"
      ],
      [
        "S",
        "e"
      ],
      [
        "y",
        "r"
      ],
      [
        "tut",
        "ki"
      ],
      [
        "m",
        "on"
      ],
      [
        "ll",
        "i"
      ],
      [
        "on",
        "na"
      ],
      [
        "uu",
        "s"
      ],
      [
        "e",
        "h"
      ],
      [
        "sopi",
        "mu"
      ],
      [
        ".",
        "."
      ],
      [
        "ta",
        "va"
      ],
      [
        "is",
        "ten"
      ],
      [
        "te",
        "h"
      ],
      [
        "ma",
        "r"
      ],
      [
        "m",
        "min"
      ],
      [
        "j",
        "e"
      ],
      [
        "l",
        "isä"
      ],
      [
        "ke",
        "a"
      ],
      [
        "per",
        "us"
      ],
      [
        "p",
        "pa"
      ],
      [
        "ki",
        "in"
      ],
      [
        "p",
        "pu"
      ],
      [
        "vä",
        "l"
      ],
      [
        "mis",
        "en"
      ],
      [
        "kan",
        "ssa"
      ],
      [
        "u",
        "se"
      ],
      [
        "te",
        "ttu"
      ],
      [
        "kan",
        "sa"
      ],
      [
        "y",
        "ksi"
      ],
      [
        "ti",
        "k"
      ],
      [
        "T",
        "ur"
      ],
      [
        "in",
        "o"
      ],
      [
        "si",
        "t"
      ],
      [
        "en",
        "n"
      ],
      [
        "a",
        "ja"
      ],
      [
        "ti",
        "ed"
      ],
      [
        "tta",
        "va"
      ],
      [
        "e",
        "ksi"
      ],
      [
        "pa",
        "r"
      ],
      [
        "ku",
        "iten"
      ],
      [
        "ko",
        "ko"
      ],
      [
        "järj",
        "es"
      ],
      [
        "S",
        "i"
      ],
      [
        "ma",
        "lla"
      ],
      [
        "se",
        "l"
      ],
      [
        "yt",
        "tä"
      ],
      [
        "ka",
        "t"
      ],
      [
        "ku",
        "l"
      ],
      [
        "ha",
        "r"
      ],
      [
        "ai",
        "ka"
      ],
      [
        "Euroop",
        "an"
      ],
      [
        "pa",
        "i"
      ],
      [
        "määr",
        "ä"
      ],
      [
        "tu",
        "le"
      ],
      [
        "p",
        "it"
      ],
      [
        "isi",
        "in"
      ],
      [
        "ar",
        "tik"
      ],
      [
        "a",
        "m"
      ],
      [
        "a",
        "la"
      ],
      [
        "ku",
        "s"
      ],
      [
        "e",
        "e"
      ],
      [
        "ti",
        "i"
      ],
      [
        "it",
        "ta"
      ],
      [
        "kaik",
        "ki"
      ],
      [
        "K",
        "o"
      ],
      [
        "tiet",
        "o"
      ],
      [
        "vi",
        "en"
      ],
      [
        "oll",
        "ut"
      ],
      [
        "h",
        "ei"
      ],
      [
        "g",
        "i"
      ],
      [
        "n",
        "ö"
      ],
      [
        "vu",
        "onna"
      ],
      [
        "se",
        "u"
      ],
      [
        "mis",
        "si"
      ],
      [
        "te",
        "r"
      ],
      [
        "e",
        "li"
      ],
      [
        "vi",
        "elä"
      ],
      [
        "jä",
        "lke"
      ],
      [
        "ko",
        "l"
      ],
      [
        "ha",
        "lu"
      ],
      [
        "h",
        "oi"
      ],
      [
        "y",
        "y"
      ],
      [
        "ys",
        "tä"
      ],
      [
        "k",
        "ke"
      ],
      [
        "a",
        "ssa"
      ],
      [
        "yli",
        "opis"
      ],
      [
        "a",
        "sia"
      ],
      [
        "te",
        "e"
      ],
      [
        "jo",
        "u"
      ],
      [
        "kos",
        "ke"
      ],
      [
        "h",
        "ä"
      ],
      [
        "uu",
        "d"
      ],
      [
        "a",
        "t"
      ],
      [
        "en",
        "si"
      ],
      [
        "M",
        "i"
      ],
      [
        "si",
        "itä"
      ],
      [
        "li",
        "i"
      ],
      [
        "li",
        "ik"
      ],
      [
        "ta",
        "n"
      ],
      [
        "ih",
        "mis"
      ],
      [
        "E",
        "n"
      ],
      [
        "mi",
        "el"
      ],
      [
        "en",
        "i"
      ],
      [
        "jo",
        "hta"
      ],
      [
        "jälke",
        "en"
      ],
      [
        "S",
        "a"
      ],
      [
        "t",
        "ty"
      ],
      [
        "jo",
        "tka"
      ],
      [
        "n",
        "et"
      ],
      [
        "n",
        "u"
      ],
      [
        "ys",
        "y"
      ],
      [
        "lä",
        "h"
      ],
      [
        "a",
        "si"
      ],
      [
        "as",
        "ti"
      ],
      [
        "v",
        "os"
      ],
      [
        "kä",
        "si"
      ],
      [
        "ai",
        "l"
      ],
      [
        "j",
        "u"
      ],
      [
        "va",
        "an"
      ],
      [
        "jo",
        "ssa"
      ],
      [
        "mu",
        "ka"
      ],
      [
        "m",
        "ei"
      ],
      [
        "ma",
        "hdo"
      ],
      [
        "tu",
        "r"
      ],
      [
        "ik",
        "an"
      ],
      [
        "y",
        "le"
      ],
      [
        "uu",
        "den"
      ],
      [
        "pu",
        "he"
      ],
      [
        "tu",
        "i"
      ],
      [
        "mu",
        "s"
      ],
      [
        "ks",
        "essa"
      ],
      [
        "ne",
        "et"
      ],
      [
        "sa",
        "i"
      ],
      [
        "val",
        "ta"
      ],
      [
        "ll",
        "inen"
      ],
      [
        "vuo",
        "den"
      ],
      [
        "a",
        "sta"
      ],
      [
        "o",
        "ma"
      ],
      [
        "p",
        "uu"
      ],
      [
        "si",
        "ja"
      ],
      [
        "oi",
        "den"
      ],
      [
        "vi",
        "a"
      ],
      [
        "tar",
        "koi"
      ],
      [
        "V",
        "i"
      ],
      [
        "jo",
        "ta"
      ],
      [
        "kuu",
        "lu"
      ],
      [
        "sit",
        "ten"
      ],
      [
        "o",
        "t"
      ],
      [
        "la",
        "inen"
      ],
      [
        "ei",
        "vät"
      ],
      [
        "päi",
        "vän"
      ],
      [
        "O",
        "n"
      ],
      [
        "te",
        "taan"
      ],
      [
        "mi",
        "en"
      ],
      [
        "kuiten",
        "kin"
      ],
      [
        "y",
        "d"
      ],
      [
        "ko",
        "ulu"
      ],
      [
        "m",
        "et"
      ],
      [
        "s",
        "isä"
      ],
      [
        "tä",
        "män"
      ],
      [
        "si",
        "llä"
      ],
      [
        "mi",
        "o"
      ],
      [
        "mi",
        "tä"
      ],
      [
        "vä",
        "li"
      ],
      [
        "j",
        "ul"
      ],
      [
        "is",
        "to"
      ],
      [
        "toi",
        "min"
      ],
      [
        "p",
        "oli"
      ],
      [
        "tä",
        "n"
      ],
      [
        "ma",
        "ail"
      ],
      [
        "san",
        "o"
      ],
      [
        "i",
        "lla"
      ],
      [
        "ra",
        "s"
      ],
      [
        "päi",
        "vä"
      ],
      [
        "jäsen",
        "valti"
      ],
      [
        "y",
        "hd"
      ],
      [
        "sä",
        "ä"
      ],
      [
        "e",
        "m"
      ],
      [
        "j",
        "än"
      ],
      [
        "te",
        "le"
      ],
      [
        "puo",
        "l"
      ],
      [
        "E",
        "U"
      ],
      [
        "ko",
        "hd"
      ],
      [
        "la",
        "it"
      ],
      [
        "tun",
        "ut"
      ],
      [
        "pro",
        "sen"
      ],
      [
        "tapa",
        "h"
      ],
      [
        "t",
        "tö"
      ],
      [
        "mi",
        "a"
      ],
      [
        "is",
        "a"
      ],
      [
        "va",
        "li"
      ],
      [
        "a",
        "ina"
      ],
      [
        "k",
        "kin"
      ],
      [
        "is",
        "ti"
      ],
      [
        "mi",
        "es"
      ],
      [
        "jä",
        "ä"
      ],
      [
        "tti",
        "a"
      ],
      [
        "da",
        "an"
      ],
      [
        "e",
        "de"
      ],
      [
        "jon",
        "ka"
      ],
      [
        "llis",
        "en"
      ],
      [
        "M",
        "a"
      ],
      [
        "h",
        "er"
      ],
      [
        "llo",
        "in"
      ],
      [
        "i",
        "lle"
      ],
      [
        "n",
        "on"
      ],
      [
        "ku",
        "sta"
      ],
      [
        "ko",
        "missi"
      ],
      [
        "mu",
        "ut"
      ],
      [
        "vii",
        "me"
      ],
      [
        "pa",
        "a"
      ],
      [
        "mis",
        "tä"
      ],
      [
        "suu",
        "n"
      ],
      [
        "ke",
        "h"
      ],
      [
        "r",
        "yh"
      ],
      [
        "tu",
        "sta"
      ],
      [
        "kau",
        "pun"
      ],
      [
        "vai",
        "ku"
      ],
      [
        "te",
        "ttiin"
      ],
      [
        "tu",
        "lo"
      ],
      [
        "ja",
        "a"
      ],
      [
        "ty",
        "y"
      ],
      [
        "ha",
        "ll"
      ],
      [
        "ensi",
        "mmä"
      ],
      [
        "an",
        "ta"
      ],
      [
        "ne",
        "u"
      ],
      [
        "o",
        "sta"
      ],
      [
        "ma",
        "tta"
      ],
      [
        "V",
        "a"
      ],
      [
        "e",
        "llä"
      ],
      [
        "Tur",
        "un"
      ],
      [
        "k",
        "it"
      ],
      [
        "ty",
        "i"
      ],
      [
        "g",
        "in"
      ],
      [
        "u",
        "d"
      ],
      [
        "J",
        "o"
      ],
      [
        "e",
        "hdo"
      ],
      [
        "v",
        "en"
      ],
      [
        "ri",
        "a"
      ],
      [
        "hän",
        "en"
      ],
      [
        "hy",
        "vin"
      ],
      [
        "N",
        "i"
      ],
      [
        "m",
        "p"
      ],
      [
        "u",
        "a"
      ],
      [
        "te",
        "lu"
      ],
      [
        "m",
        "uo"
      ],
      [
        "si",
        "l"
      ],
      [
        "va",
        "s"
      ],
      [
        "mis",
        "een"
      ],
      [
        "tä",
        "mä"
      ],
      [
        "mer",
        "ki"
      ],
      [
        "2",
        "0"
      ],
      [
        "lla",
        "an"
      ],
      [
        "T",
        "a"
      ],
      [
        "et",
        "ti"
      ],
      [
        "ih",
        "in"
      ],
      [
        "ji",
        "en"
      ],
      [
        "te",
        "ke"
      ],
      [
        "er",
        "ity"
      ],
      [
        "ih",
        "an"
      ],
      [
        "b",
        "i"
      ],
      [
        "j",
        "el"
      ],
      [
        "ti",
        "la"
      ],
      [
        "vi",
        "ä"
      ],
      [
        "ky",
        "se"
      ],
      [
        "to",
        "a"
      ],
      [
        "jo",
        "h"
      ],
      [
        "mä",
        "ä"
      ],
      [
        "kes",
        "kus"
      ],
      [
        "19",
        "9"
      ],
      [
        "A",
        "r"
      ],
      [
        "n",
        "y"
      ],
      [
        "r",
        "ke"
      ],
      [
        "huo",
        "mio"
      ],
      [
        "a",
        "jan"
      ],
      [
        "e",
        "u"
      ],
      [
        "ka",
        "i"
      ],
      [
        "te",
        "hd"
      ],
      [
        "se",
        "lla"
      ],
      [
        "is",
        "een"
      ],
      [
        "uu",
        "tta"
      ],
      [
        "isi",
        "ä"
      ],
      [
        "n",
        "el"
      ],
      [
        "p",
        "y"
      ],
      [
        "ka",
        "ksi"
      ],
      [
        "re",
        "k"
      ],
      [
        "h",
        "el"
      ],
      [
        "v",
        "on"
      ],
      [
        "mi",
        "e"
      ],
      [
        "sä",
        "än"
      ],
      [
        "oli",
        "vat"
      ],
      [
        "seu",
        "raa"
      ],
      [
        "r",
        "ei"
      ],
      [
        "ra",
        "ken"
      ],
      [
        "llis",
        "esti"
      ],
      [
        "p",
        "oi"
      ],
      [
        "to",
        "te"
      ],
      [
        "it",
        "si"
      ],
      [
        "mar",
        "kkin"
      ],
      [
        "1",
        "0"
      ],
      [
        "tu",
        "a"
      ],
      [
        "va",
        "h"
      ],
      [
        "joi",
        "tta"
      ],
      [
        "Suo",
        "men"
      ],
      [
        "d",
        "ä"
      ],
      [
        "pi",
        "tä"
      ],
      [
        "n",
        "in"
      ],
      [
        "o",
        "ttaa"
      ],
      [
        "is",
        "o"
      ],
      [
        "pa",
        "la"
      ],
      [
        "k",
        "kaa"
      ],
      [
        "ti",
        "o"
      ],
      [
        "e",
        "pä"
      ],
      [
        "e",
        "uro"
      ],
      [
        "o",
        "tta"
      ],
      [
        "p",
        "el"
      ],
      [
        "va",
        "ikka"
      ],
      [
        "voi",
        "daan"
      ],
      [
        "kir",
        "ja"
      ],
      [
        "Tä",
        "mä"
      ],
      [
        "hen",
        "ki"
      ],
      [
        "merki",
        "ksi"
      ],
      [
        "k",
        "ysy"
      ],
      [
        "käyt",
        "tö"
      ],
      [
        "K",
        "i"
      ],
      [
        "tä",
        "rke"
      ],
      [
        "sa",
        "an"
      ],
      [
        "vä",
        "ä"
      ],
      [
        "J",
        "os"
      ],
      [
        "T",
        "o"
      ],
      [
        "on",
        "g"
      ],
      [
        "pal",
        "jon"
      ],
      [
        "P",
        "a"
      ],
      [
        "ma",
        "sta"
      ],
      [
        "in",
        "g"
      ],
      [
        "mis",
        "eksi"
      ],
      [
        "un",
        "i"
      ],
      [
        "N",
        "ä"
      ],
      [
        "ll",
        "an"
      ],
      [
        "ra",
        "ha"
      ],
      [
        "min",
        "ä"
      ],
      [
        "r",
        "u"
      ],
      [
        "r",
        "ä"
      ],
      [
        "la",
        "men"
      ],
      [
        "K",
        "un"
      ],
      [
        "h",
        "et"
      ],
      [
        "p",
        "ö"
      ],
      [
        "ti",
        "lan"
      ],
      [
        "ks",
        "esta"
      ],
      [
        "joi",
        "den"
      ],
      [
        "enn",
        "en"
      ],
      [
        "m",
        "men"
      ],
      [
        "ki",
        "el"
      ],
      [
        "ei",
        "kä"
      ],
      [
        "opis",
        "ke"
      ],
      [
        "liit",
        "ty"
      ],
      [
        "L",
        "a"
      ],
      [
        "l",
        "tä"
      ],
      [
        "ku",
        "lu"
      ],
      [
        "es",
        "een"
      ],
      [
        "ko",
        "h"
      ],
      [
        "ne",
        "en"
      ],
      [
        "kan",
        "a"
      ],
      [
        "ol",
        "en"
      ],
      [
        "su",
        "hte"
      ],
      [
        "vasta",
        "an"
      ],
      [
        "oike",
        "u"
      ],
      [
        "järjes",
        "tel"
      ],
      [
        "mu",
        "sta"
      ],
      [
        "puo",
        "le"
      ],
      [
        "par",
        "lamen"
      ],
      [
        "m",
        "oi"
      ],
      [
        "mi",
        "l"
      ],
      [
        "kun",
        "ta"
      ],
      [
        "..",
        "."
      ],
      [
        "muu",
        "ta"
      ],
      [
        "hyvä",
        "ks"
      ],
      [
        "henki",
        "lö"
      ],
      [
        "m",
        "pä"
      ],
      [
        "r",
        "uo"
      ],
      [
        "s",
        "si"
      ],
      [
        "tä",
        "y"
      ],
      [
        "te",
        "ki"
      ],
      [
        "on",
        "i"
      ],
      [
        "tu",
        "li"
      ],
      [
        "ku",
        "un"
      ],
      [
        "pää",
        "tö"
      ],
      [
        "E",
        "i"
      ],
      [
        "si",
        "ir"
      ],
      [
        "oi",
        "ta"
      ],
      [
        "mis",
        "esta"
      ],
      [
        "kes",
        "ä"
      ],
      [
        "vasta",
        "a"
      ],
      [
        "prosen",
        "ttia"
      ],
      [
        "T",
        "i"
      ],
      [
        "l",
        "ei"
      ],
      [
        "ti",
        "a"
      ],
      [
        "la",
        "p"
      ],
      [
        "ai",
        "he"
      ],
      [
        "oh",
        "jel"
      ],
      [
        "ll",
        "ista"
      ],
      [
        "to",
        "jen"
      ],
      [
        "ei",
        "den"
      ],
      [
        "pi",
        "en"
      ],
      [
        "pi",
        "tää"
      ],
      [
        "kos",
        "ka"
      ],
      [
        "päivän",
        "ä"
      ],
      [
        "H",
        "el"
      ],
      [
        "v",
        "ista"
      ],
      [
        "artik",
        "la"
      ],
      [
        "a",
        "is"
      ],
      [
        "d",
        "et"
      ],
      [
        "m",
        "it"
      ],
      [
        "te",
        "et"
      ],
      [
        "teh",
        "tä"
      ],
      [
        "maail",
        "man"
      ],
      [
        "N",
        "o"
      ],
      [
        "j",
        "uu"
      ],
      [
        "m",
        "mi"
      ],
      [
        "o",
        "do"
      ],
      [
        "t",
        "tää"
      ],
      [
        "te",
        "ttava"
      ],
      [
        "on",
        "n"
      ],
      [
        "la",
        "u"
      ],
      [
        "kan",
        "na"
      ],
      [
        "kun",
        "na"
      ],
      [
        "sopimu",
        "ksen"
      ],
      [
        "liik",
        "en"
      ],
      [
        "J",
        "a"
      ],
      [
        "Y",
        "hd"
      ],
      [
        "e",
        "et"
      ],
      [
        "r",
        "it"
      ],
      [
        "s",
        "yn"
      ],
      [
        "op",
        "e"
      ],
      [
        "lais",
        "et"
      ],
      [
        "lais",
        "ten"
      ],
      [
        "my",
        "yn"
      ],
      [
        "e",
        "lle"
      ],
      [
        "ni",
        "iden"
      ],
      [
        "yh",
        "ti"
      ],
      [
        "ih",
        "en"
      ],
      [
        "ise",
        "ksi"
      ],
      [
        "K",
        "u"
      ],
      [
        "a",
        "ikan"
      ],
      [
        "k",
        "sa"
      ],
      [
        "ki",
        "l"
      ],
      [
        "per",
        "usta"
      ],
      [
        "tte",
        "lu"
      ],
      [
        "200",
        "9"
      ],
      [
        "talo",
        "u"
      ],
      [
        "yliopis",
        "ton"
      ],
      [
        "huomio",
        "on"
      ],
      [
        "ong",
        "el"
      ],
      [
        "p",
        "in"
      ],
      [
        "r",
        "is"
      ],
      [
        "ks",
        "in"
      ],
      [
        "lä",
        "ä"
      ],
      [
        "joi",
        "ta"
      ],
      [
        "no",
        "in"
      ],
      [
        "a",
        "in"
      ],
      [
        "v",
        "it"
      ],
      [
        "ll",
        "ut"
      ],
      [
        "te",
        "tta"
      ],
      [
        "kuu",
        "ssa"
      ],
      [
        "suo",
        "ma"
      ],
      [
        "yhteis",
        "ön"
      ],
      [
        "mahdo",
        "llis"
      ],
      [
        "en",
        "ä"
      ],
      [
        "ka",
        "h"
      ],
      [
        "es",
        "ty"
      ],
      [
        "ole",
        "van"
      ],
      [
        "vo",
        "in"
      ],
      [
        "len",
        "to"
      ],
      [
        "kat",
        "so"
      ],
      [
        "u",
        "h"
      ],
      [
        "y",
        "mpä"
      ],
      [
        "va",
        "ih"
      ],
      [
        "ko",
        "ti"
      ],
      [
        "la",
        "in"
      ],
      [
        "kun",
        "nan"
      ],
      [
        "00",
        "0"
      ],
      [
        "neu",
        "vos"
      ],
      [
        "1",
        "8"
      ],
      [
        "a",
        "lla"
      ],
      [
        "po",
        "h"
      ],
      [
        "h",
        "yö"
      ],
      [
        "va",
        "sti"
      ],
      [
        "ei",
        "ta"
      ],
      [
        "tapah",
        "tu"
      ],
      [
        "E",
        "T"
      ],
      [
        "j",
        "uo"
      ],
      [
        "in",
        "i"
      ],
      [
        "te",
        "tään"
      ],
      [
        "te",
        "ttä"
      ],
      [
        "ty",
        "ön"
      ],
      [
        "johta",
        "ja"
      ],
      [
        "en",
        "em"
      ],
      [
        "te",
        "tty"
      ],
      [
        "el",
        "ta"
      ],
      [
        "ra",
        "u"
      ],
      [
        "uu",
        "si"
      ],
      [
        "ar",
        "vo"
      ],
      [
        "ul",
        "ko"
      ],
      [
        "pai",
        "ka"
      ],
      [
        "tule",
        "e"
      ],
      [
        "ta",
        "l"
      ],
      [
        "an",
        "sa"
      ],
      [
        "ki",
        "a"
      ],
      [
        "tö",
        "n"
      ],
      [
        "val",
        "mis"
      ],
      [
        "per",
        "ä"
      ],
      [
        "suu",
        "r"
      ],
      [
        "hu",
        "i"
      ],
      [
        "Hel",
        "sin"
      ],
      [
        "R",
        "o"
      ],
      [
        "o",
        "ssa"
      ],
      [
        "s",
        "oi"
      ],
      [
        "ti",
        "las"
      ],
      [
        "lo",
        "ppu"
      ],
      [
        "de",
        "lla"
      ],
      [
        "tte",
        "le"
      ],
      [
        "esi",
        "merkiksi"
      ],
      [
        "rek",
        "tii"
      ],
      [
        "A",
        "n"
      ],
      [
        "y",
        "llä"
      ],
      [
        "ksi",
        "in"
      ],
      [
        "vi",
        "er"
      ],
      [
        "as",
        "u"
      ],
      [
        "ve",
        "lu"
      ],
      [
        "puo",
        "lu"
      ],
      [
        "to",
        "on"
      ],
      [
        "lo",
        "pu"
      ],
      [
        "artik",
        "lan"
      ],
      [
        "asi",
        "an"
      ],
      [
        "aikan",
        "a"
      ],
      [
        "g",
        "a"
      ],
      [
        "is",
        "ty"
      ],
      [
        "si",
        "ihen"
      ],
      [
        "tu",
        "l"
      ],
      [
        "la",
        "i"
      ],
      [
        "mu",
        "un"
      ],
      [
        "al",
        "oi"
      ],
      [
        "on",
        "in"
      ],
      [
        "to",
        "r"
      ],
      [
        "ks",
        "ista"
      ],
      [
        "vuo",
        "si"
      ],
      [
        "I",
        "n"
      ],
      [
        "tu",
        "ksia"
      ],
      [
        "to",
        "ja"
      ],
      [
        "vi",
        "r"
      ],
      [
        "vuo",
        "ksi"
      ],
      [
        "vaa",
        "ti"
      ],
      [
        "L",
        "i"
      ],
      [
        "p",
        "ol"
      ],
      [
        "en",
        "ää"
      ],
      [
        "ty",
        "ä"
      ],
      [
        "ker",
        "to"
      ],
      [
        "hu",
        "on"
      ],
      [
        "di",
        "rektii"
      ],
      [
        "ittä",
        "in"
      ],
      [
        "talo",
        "us"
      ],
      [
        "tutki",
        "mu"
      ],
      [
        "erity",
        "isesti"
      ],
      [
        "l",
        "y"
      ],
      [
        "n",
        "uo"
      ],
      [
        "mi",
        "in"
      ],
      [
        "aa",
        "li"
      ],
      [
        "1",
        "5"
      ],
      [
        "L",
        "u"
      ],
      [
        "S",
        "en"
      ],
      [
        "d",
        "in"
      ],
      [
        "k",
        "kä"
      ],
      [
        "ta",
        "ka"
      ],
      [
        "ku",
        "r"
      ],
      [
        "jo",
        "on"
      ],
      [
        "os",
        "oi"
      ],
      [
        "19",
        "8"
      ],
      [
        "huo",
        "ma"
      ],
      [
        "yr",
        "it"
      ],
      [
        "m",
        "essa"
      ],
      [
        "s",
        "yö"
      ],
      [
        "v",
        "y"
      ],
      [
        "ku",
        "ten"
      ],
      [
        "to",
        "ista"
      ],
      [
        "mi",
        "kä"
      ],
      [
        "per",
        "i"
      ],
      [
        "tar",
        "v"
      ],
      [
        "j",
        "un"
      ],
      [
        "tä",
        "nä"
      ],
      [
        "ti",
        "en"
      ],
      [
        "sa",
        "man"
      ],
      [
        "ko",
        "hta"
      ],
      [
        "el",
        "o"
      ],
      [
        "el",
        "tä"
      ],
      [
        "vi",
        "ik"
      ],
      [
        "ha",
        "a"
      ],
      [
        "ky",
        "mmen"
      ],
      [
        "kau",
        "ppa"
      ],
      [
        "komissi",
        "on"
      ],
      [
        "Yhd",
        "ys"
      ],
      [
        "P",
        "i"
      ],
      [
        "k",
        "is"
      ],
      [
        "m",
        "ma"
      ],
      [
        "t",
        "is"
      ],
      [
        "is",
        "än"
      ],
      [
        "ka",
        "r"
      ],
      [
        "ko",
        "o"
      ],
      [
        "lu",
        "on"
      ],
      [
        "so",
        "vel"
      ],
      [
        "ar",
        "vi"
      ],
      [
        "po",
        "r"
      ],
      [
        "kse",
        "lla"
      ],
      [
        "pal",
        "velu"
      ],
      [
        "tutki",
        "mus"
      ],
      [
        "lisä",
        "ksi"
      ],
      [
        "ny",
        "ky"
      ],
      [
        "m",
        "man"
      ],
      [
        "o",
        "lo"
      ],
      [
        "u",
        "lo"
      ],
      [
        "et",
        "tel"
      ],
      [
        "mi",
        "tään"
      ],
      [
        "ks",
        "u"
      ],
      [
        "llis",
        "et"
      ],
      [
        "kau",
        "tta"
      ],
      [
        "mat",
        "ka"
      ],
      [
        "jul",
        "ka"
      ],
      [
        "m",
        "iten"
      ],
      [
        "p",
        "iste"
      ],
      [
        "te",
        "li"
      ],
      [
        "ku",
        "va"
      ],
      [
        "jan",
        "a"
      ],
      [
        "kuin",
        "ka"
      ],
      [
        "puo",
        "li"
      ],
      [
        "utu",
        "i"
      ],
      [
        "I",
        "I"
      ],
      [
        "f",
        "i"
      ],
      [
        "jo",
        "ten"
      ],
      [
        "ni",
        "itä"
      ],
      [
        "os",
        "ti"
      ],
      [
        "il",
        "moi"
      ],
      [
        "no",
        "u"
      ],
      [
        "maa",
        "han"
      ],
      [
        "mon",
        "i"
      ],
      [
        "opiske",
        "li"
      ],
      [
        "enem",
        "män"
      ],
      [
        "e",
        "lla"
      ],
      [
        "u",
        "ksen"
      ],
      [
        "si",
        "i"
      ],
      [
        "si",
        "is"
      ],
      [
        "sta",
        "a"
      ],
      [
        "vo",
        "isi"
      ],
      [
        "tehd",
        "ä"
      ],
      [
        "mil",
        "joon"
      ],
      [
        "m",
        "itta"
      ],
      [
        "an",
        "a"
      ],
      [
        "tä",
        "tä"
      ],
      [
        "tä",
        "ssä"
      ],
      [
        "va",
        "pa"
      ],
      [
        "ku",
        "t"
      ],
      [
        "ko",
        "ke"
      ],
      [
        "yt",
        "tää"
      ],
      [
        "ed",
        "usta"
      ],
      [
        "mer",
        "k"
      ],
      [
        "yle",
        "is"
      ],
      [
        "puhe",
        "en"
      ],
      [
        "hall",
        "in"
      ],
      [
        "juu",
        "ri"
      ],
      [
        "kil",
        "pai"
      ],
      [
        "R",
        "a"
      ],
      [
        "n",
        "us"
      ],
      [
        "p",
        "ys"
      ],
      [
        "an",
        "i"
      ],
      [
        "te",
        "lla"
      ],
      [
        "pit",
        "kä"
      ],
      [
        "yliopis",
        "to"
      ],
      [
        "jou",
        "kku"
      ],
      [
        "mei",
        "dän"
      ],
      [
        "i",
        "li"
      ],
      [
        "o",
        "in"
      ],
      [
        "et",
        "in"
      ],
      [
        "san",
        "oi"
      ],
      [
        "muka",
        "isesti"
      ],
      [
        "1",
        "2"
      ],
      [
        "o",
        "lle"
      ],
      [
        "s",
        "än"
      ],
      [
        "la",
        "isen"
      ],
      [
        "vä",
        "sti"
      ],
      [
        "al",
        "is"
      ],
      [
        "voi",
        "tte"
      ],
      [
        "nä",
        "ky"
      ],
      [
        "vu",
        "lla"
      ],
      [
        "mat",
        "to"
      ],
      [
        "halu",
        "a"
      ],
      [
        "1",
        "3"
      ],
      [
        "a",
        "lle"
      ],
      [
        "is",
        "u"
      ],
      [
        "tä",
        "yty"
      ],
      [
        "si",
        "inä"
      ],
      [
        "oi",
        "lla"
      ],
      [
        "llä",
        "än"
      ],
      [
        "asta",
        "an"
      ],
      [
        "mää",
        "ri"
      ],
      [
        "E",
        "Y"
      ],
      [
        "d",
        "an"
      ],
      [
        "o",
        "a"
      ],
      [
        "ä",
        "i"
      ],
      [
        "ta",
        "sa"
      ],
      [
        "ti",
        "on"
      ],
      [
        "tu",
        "us"
      ],
      [
        "ki",
        "er"
      ],
      [
        "jo",
        "tta"
      ],
      [
        "mu",
        "assa"
      ],
      [
        "mi",
        "te"
      ],
      [
        "ks",
        "issa"
      ],
      [
        "ed",
        "es"
      ],
      [
        "las",
        "ke"
      ],
      [
        "pe",
        "li"
      ],
      [
        "alu",
        "ee"
      ],
      [
        "ase",
        "tuksen"
      ],
      [
        "eh",
        "kä"
      ],
      [
        "liiken",
        "teen"
      ],
      [
        "d",
        "u"
      ],
      [
        "in",
        "väl"
      ],
      [
        "an",
        "ne"
      ],
      [
        "te",
        "iden"
      ],
      [
        "el",
        "in"
      ],
      [
        "nä",
        "in"
      ],
      [
        "il",
        "ta"
      ],
      [
        "tte",
        "li"
      ],
      [
        "myö",
        "n"
      ],
      [
        "kes",
        "ki"
      ],
      [
        "kir",
        "joi"
      ],
      [
        "oike",
        "us"
      ],
      [
        "Suo",
        "messa"
      ],
      [
        "M",
        "it"
      ],
      [
        "m",
        "el"
      ],
      [
        "ta",
        "so"
      ],
      [
        "va",
        "ra"
      ],
      [
        "tta",
        "nut"
      ],
      [
        "vi",
        "in"
      ],
      [
        "L",
        "o"
      ],
      [
        "l",
        "j"
      ],
      [
        "r",
        "en"
      ],
      [
        "is",
        "essa"
      ],
      [
        "jo",
        "issa"
      ],
      [
        "isi",
        "lle"
      ],
      [
        "ha",
        "lli"
      ],
      [
        "al",
        "ku"
      ],
      [
        "suu",
        "ri"
      ],
      [
        "muu",
        "to"
      ],
      [
        "tied",
        "on"
      ],
      [
        "J",
        "u"
      ],
      [
        "V",
        "ä"
      ],
      [
        "n",
        "it"
      ],
      [
        "ta",
        "as"
      ],
      [
        "te",
        "k"
      ],
      [
        "ma",
        "sti"
      ],
      [
        "tö",
        "ön"
      ],
      [
        "kes",
        "ke"
      ],
      [
        "tuo",
        "tte"
      ],
      [
        "au",
        "to"
      ],
      [
        "yhti",
        "ö"
      ],
      [
        "ET",
        "Y"
      ],
      [
        "1",
        "7"
      ],
      [
        "h",
        "ri"
      ],
      [
        "i",
        "llä"
      ],
      [
        "m",
        "mat"
      ],
      [
        "p",
        "pi"
      ],
      [
        "s",
        "t"
      ],
      [
        "u",
        "ksessa"
      ],
      [
        "y",
        "tä"
      ],
      [
        "sa",
        "r"
      ],
      [
        "pä",
        "in"
      ],
      [
        "pu",
        "hu"
      ],
      [
        "men",
        "ettel"
      ],
      [
        "nä",
        "kö"
      ],
      [
        "ol",
        "in"
      ],
      [
        "per",
        "in"
      ],
      [
        "am",
        "ma"
      ],
      [
        "M",
        "ar"
      ],
      [
        "T",
        "e"
      ],
      [
        "a",
        "ino"
      ],
      [
        "o",
        "tto"
      ],
      [
        "t",
        "inen"
      ],
      [
        "ll",
        "isia"
      ],
      [
        "li",
        "a"
      ],
      [
        "it",
        "ti"
      ],
      [
        "lu",
        "n"
      ],
      [
        "mä",
        "ssä"
      ],
      [
        "toi",
        "men"
      ],
      [
        "il",
        "ma"
      ],
      [
        "ttu",
        "u"
      ],
      [
        "R",
        "e"
      ],
      [
        "ko",
        "mite"
      ],
      [
        "la",
        "ssa"
      ],
      [
        "jo",
        "ulu"
      ],
      [
        "pa",
        "re"
      ],
      [
        "al",
        "ta"
      ],
      [
        "net",
        "tu"
      ],
      [
        "jota",
        "in"
      ],
      [
        "pitä",
        "isi"
      ],
      [
        "L",
        "isä"
      ],
      [
        "M",
        "yö"
      ],
      [
        "s",
        "on"
      ],
      [
        "v",
        "un"
      ],
      [
        "te",
        "o"
      ],
      [
        "ksi",
        "ä"
      ],
      [
        "ik",
        "ki"
      ],
      [
        "ky",
        "llä"
      ],
      [
        "hi",
        "e"
      ],
      [
        "ise",
        "lla"
      ],
      [
        "use",
        "in"
      ],
      [
        "b",
        "a"
      ],
      [
        "hd",
        "e"
      ],
      [
        "al",
        "koi"
      ],
      [
        "ai",
        "kaa"
      ],
      [
        "as",
        "un"
      ],
      [
        "vuo",
        "d"
      ],
      [
        "vuo",
        "tta"
      ],
      [
        "käyt",
        "tä"
      ],
      [
        "läh",
        "es"
      ],
      [
        "K",
        "es"
      ],
      [
        "K",
        "au"
      ],
      [
        "i",
        "a"
      ],
      [
        "la",
        "isia"
      ],
      [
        "ra",
        "hoi"
      ],
      [
        "mis",
        "sä"
      ],
      [
        "lo",
        "p"
      ],
      [
        "so",
        "ve"
      ],
      [
        "po",
        "is"
      ],
      [
        "ker",
        "ta"
      ],
      [
        "ise",
        "lle"
      ],
      [
        "osa",
        "llis"
      ],
      [
        "osa",
        "lta"
      ],
      [
        "lisä",
        "ä"
      ],
      [
        "kol",
        "me"
      ],
      [
        "lii",
        "an"
      ],
      [
        "A",
        "l"
      ],
      [
        "P",
        "oh"
      ],
      [
        "R",
        "uo"
      ],
      [
        "V",
        "enä"
      ],
      [
        "f",
        "es"
      ],
      [
        "an",
        "taa"
      ],
      [
        "tä",
        "llä"
      ],
      [
        "it",
        "tää"
      ],
      [
        "jo",
        "sta"
      ],
      [
        "vä",
        "hän"
      ],
      [
        "op",
        "pi"
      ],
      [
        "sin",
        "a"
      ],
      [
        "esi",
        "in"
      ],
      [
        "mmä",
        "r"
      ],
      [
        "ede",
        "ll"
      ],
      [
        "neuvos",
        "ton"
      ],
      [
        "A",
        "N"
      ],
      [
        "o",
        "o"
      ],
      [
        "u",
        "lla"
      ],
      [
        "ll",
        "en"
      ],
      [
        "va",
        "u"
      ],
      [
        "va",
        "lo"
      ],
      [
        "ke",
        "in"
      ],
      [
        "kä",
        "yn"
      ],
      [
        "pi",
        "i"
      ],
      [
        "yh",
        "tä"
      ],
      [
        "aa",
        "mu"
      ],
      [
        "yhteis",
        "ö"
      ],
      [
        "uud",
        "essa"
      ],
      [
        "sään",
        "nö"
      ],
      [
        "euro",
        "a"
      ],
      [
        "1",
        "6"
      ],
      [
        "5",
        "0"
      ],
      [
        "H",
        "e"
      ],
      [
        "s",
        "ten"
      ],
      [
        "u",
        "ttaa"
      ],
      [
        "er",
        "o"
      ],
      [
        "mä",
        "t"
      ],
      [
        "al",
        "in"
      ],
      [
        "ai",
        "kaan"
      ],
      [
        "voi",
        "ma"
      ],
      [
        "lä",
        "he"
      ],
      [
        "pää",
        "stä"
      ],
      [
        "il",
        "man"
      ],
      [
        "no",
        "sta"
      ],
      [
        "kiin",
        "ni"
      ],
      [
        "hei",
        "dän"
      ],
      [
        "poli",
        "ti"
      ],
      [
        "kusta",
        "n"
      ],
      [
        "puole",
        "lla"
      ],
      [
        "myyn",
        "ti"
      ],
      [
        "N",
        "e"
      ],
      [
        "N",
        "yt"
      ],
      [
        "b",
        "u"
      ],
      [
        "k",
        "än"
      ],
      [
        "r",
        "y"
      ],
      [
        "ka",
        "sta"
      ],
      [
        "oi",
        "hin"
      ],
      [
        "lu",
        "ku"
      ],
      [
        "na",
        "a"
      ],
      [
        "suo",
        "si"
      ],
      [
        "H",
        "a"
      ],
      [
        "M",
        "in"
      ],
      [
        "V",
        "uo"
      ],
      [
        "h",
        "il"
      ],
      [
        "k",
        "kaan"
      ],
      [
        "y",
        "mmär"
      ],
      [
        "va",
        "llan"
      ],
      [
        "es",
        "taan"
      ],
      [
        "ko",
        "kon"
      ],
      [
        "pa",
        "ik"
      ],
      [
        "sä",
        "h"
      ],
      [
        "kor",
        "kea"
      ],
      [
        "kul",
        "je"
      ],
      [
        "ter",
        "ve"
      ],
      [
        "vah",
        "v"
      ],
      [
        "sovel",
        "ta"
      ],
      [
        "3",
        "0"
      ],
      [
        "E",
        "uro"
      ],
      [
        "K",
        "y"
      ],
      [
        "P",
        "e"
      ],
      [
        "k",
        "ista"
      ],
      [
        "n",
        "en"
      ],
      [
        "en",
        "sä"
      ],
      [
        "in",
        "ti"
      ],
      [
        "an",
        "s"
      ],
      [
        "sa",
        "ar"
      ],
      [
        "ko",
        "ro"
      ],
      [
        "ko",
        "hti"
      ],
      [
        "er",
        "ittäin"
      ],
      [
        "jo",
        "lla"
      ],
      [
        "ra",
        "t"
      ],
      [
        "uu",
        "n"
      ],
      [
        "yh",
        "den"
      ],
      [
        "men",
        "e"
      ],
      [
        "lä",
        "hti"
      ],
      [
        "ji",
        "a"
      ],
      [
        "mie",
        "hen"
      ],
      [
        "hyväks",
        "y"
      ],
      [
        "fes",
        "so"
      ],
      [
        "M",
        "utta"
      ],
      [
        "k",
        "et"
      ],
      [
        "n",
        "os"
      ],
      [
        "o",
        "saa"
      ],
      [
        "u",
        "m"
      ],
      [
        "va",
        "is"
      ],
      [
        "uu",
        "teen"
      ],
      [
        "ri",
        "i"
      ],
      [
        "min",
        "iste"
      ],
      [
        "val",
        "tuus"
      ],
      [
        "isen",
        "a"
      ],
      [
        "vaa",
        "li"
      ],
      [
        "my",
        "y"
      ],
      [
        "Tä",
        "ssä"
      ],
      [
        "käyt",
        "tää"
      ],
      [
        "kansa",
        "inväl"
      ],
      [
        "jäsenvalti",
        "oiden"
      ],
      [
        "lait",
        "o"
      ],
      [
        "suun",
        "ni"
      ],
      [
        "toimen",
        "pi"
      ],
      [
        "P",
        "ää"
      ],
      [
        "S",
        "o"
      ],
      [
        "s",
        "s"
      ],
      [
        "tä",
        "hän"
      ],
      [
        "ja",
        "l"
      ],
      [
        "jo",
        "pa"
      ],
      [
        "tta",
        "vat"
      ],
      [
        "ty",
        "nyt"
      ],
      [
        "pu",
        "r"
      ],
      [
        "min",
        "un"
      ],
      [
        "ker",
        "taa"
      ],
      [
        "kos",
        "kaan"
      ],
      [
        "itse",
        "e"
      ],
      [
        "pun",
        "a"
      ],
      [
        "seu",
        "ra"
      ],
      [
        "kol",
        "man"
      ],
      [
        "muo",
        "do"
      ],
      [
        "Mit",
        "hri"
      ],
      [
        "Mithri",
        "da"
      ],
      [
        "u",
        "ra"
      ],
      [
        "y",
        "ksin"
      ],
      [
        "tu",
        "kseen"
      ],
      [
        "uu",
        "de"
      ],
      [
        "so",
        "si"
      ],
      [
        "ai",
        "van"
      ],
      [
        "voi",
        "vat"
      ],
      [
        "no",
        "r"
      ],
      [
        "pe",
        "laa"
      ],
      [
        "tie",
        "de"
      ],
      [
        "tava",
        "lla"
      ],
      [
        "perusta",
        "mis"
      ],
      [
        "e",
        "uroop"
      ],
      [
        "g",
        "e"
      ],
      [
        "j",
        "ö"
      ],
      [
        "m",
        "ys"
      ],
      [
        "p",
        "ysy"
      ],
      [
        "ta",
        "var"
      ],
      [
        "ll",
        "in"
      ],
      [
        "tä",
        "lla"
      ],
      [
        "va",
        "lla"
      ],
      [
        "tu",
        "kset"
      ],
      [
        "to",
        "inen"
      ],
      [
        "ki",
        "i"
      ],
      [
        "jo",
        "ista"
      ],
      [
        "ksi",
        "en"
      ],
      [
        "yh",
        "teen"
      ],
      [
        "tun",
        "te"
      ],
      [
        "kau",
        "den"
      ],
      [
        "joi",
        "lla"
      ],
      [
        "19",
        "7"
      ],
      [
        "kohd",
        "an"
      ],
      [
        "komissi",
        "o"
      ],
      [
        "L",
        "e"
      ],
      [
        "i",
        "ä"
      ],
      [
        "o",
        "man"
      ],
      [
        "p",
        "yö"
      ],
      [
        "p",
        "re"
      ],
      [
        "te",
        "ks"
      ],
      [
        "ma",
        "in"
      ],
      [
        "to",
        "de"
      ],
      [
        "jo",
        "lloin"
      ],
      [
        "ri",
        "an"
      ],
      [
        "pi",
        "eni"
      ],
      [
        "maa",
        "li"
      ],
      [
        "elä",
        "män"
      ],
      [
        "käy",
        "tän"
      ],
      [
        "poli",
        "it"
      ],
      [
        "keh",
        "ittä"
      ],
      [
        "kysy",
        "my"
      ],
      [
        "poh",
        "ja"
      ],
      [
        "tilas",
        "to"
      ],
      [
        "S",
        "an"
      ],
      [
        "T",
        "u"
      ],
      [
        "a",
        "g"
      ],
      [
        "b",
        "er"
      ],
      [
        "h",
        "uu"
      ],
      [
        "m",
        "m"
      ],
      [
        "n",
        "ope"
      ],
      [
        "o",
        "ista"
      ],
      [
        "it",
        "sen"
      ],
      [
        "mu",
        "ita"
      ],
      [
        "mi",
        "ä"
      ],
      [
        "ra",
        "tka"
      ],
      [
        "jä",
        "l"
      ],
      [
        "he",
        "mmin"
      ],
      [
        "saa",
        "vu"
      ],
      [
        "ker",
        "ran"
      ],
      [
        "jon",
        "eu"
      ],
      [
        "lö",
        "yty"
      ],
      [
        "tava",
        "ra"
      ],
      [
        "tee",
        "lla"
      ],
      [
        "väli",
        "llä"
      ],
      [
        "sano",
        "o"
      ],
      [
        "joh",
        "on"
      ],
      [
        "Ar",
        "vo"
      ],
      [
        "tilan",
        "te"
      ],
      [
        "Ruo",
        "t"
      ],
      [
        "T",
        "uo"
      ],
      [
        "e",
        "tu"
      ],
      [
        "si",
        "en"
      ],
      [
        "va",
        "ssa"
      ],
      [
        "te",
        "lä"
      ],
      [
        "to",
        "u"
      ],
      [
        "er",
        "ä"
      ],
      [
        "ks",
        "an"
      ],
      [
        "mis",
        "sa"
      ],
      [
        "ri",
        "in"
      ],
      [
        "al",
        "an"
      ],
      [
        "os",
        "an"
      ],
      [
        "op",
        "in"
      ],
      [
        "ker",
        "toi"
      ],
      [
        "200",
        "6"
      ],
      [
        "mat",
        "kusta"
      ],
      [
        "vai",
        "he"
      ],
      [
        "pe",
        "la"
      ],
      [
        "muu",
        "tta"
      ],
      [
        "yr",
        "ity"
      ],
      [
        "kuiten",
        "kaan"
      ],
      [
        "tii",
        "v"
      ],
      [
        "tieto",
        "jen"
      ],
      [
        "yd",
        "essä"
      ],
      [
        "sisä",
        "l"
      ],
      [
        "nel",
        "jä"
      ],
      [
        "het",
        "ke"
      ],
      [
        "tänä",
        "än"
      ],
      [
        "1",
        "4"
      ],
      [
        "r",
        "on"
      ],
      [
        "r",
        "oi"
      ],
      [
        "is",
        "essä"
      ],
      [
        "tä",
        "stä"
      ],
      [
        "si",
        "ellä"
      ],
      [
        "ku",
        "i"
      ],
      [
        "än",
        "ä"
      ],
      [
        "to",
        "ri"
      ],
      [
        "kä",
        "r"
      ],
      [
        "mä",
        "llä"
      ],
      [
        "ut",
        "ti"
      ],
      [
        "us",
        "ko"
      ],
      [
        "llis",
        "uus"
      ],
      [
        "he",
        "m"
      ],
      [
        "val",
        "mista"
      ],
      [
        "isen",
        "ä"
      ],
      [
        "tun",
        "ne"
      ],
      [
        "istu",
        "i"
      ],
      [
        "ju",
        "h"
      ],
      [
        "keskus",
        "telu"
      ],
      [
        "ympä",
        "ri"
      ],
      [
        "kerto",
        "o"
      ],
      [
        "Myö",
        "s"
      ],
      [
        "hie",
        "man"
      ],
      [
        "2",
        "2"
      ],
      [
        "E",
        "K"
      ],
      [
        "V",
        "ar"
      ],
      [
        "a",
        "va"
      ],
      [
        "d",
        "y"
      ],
      [
        "en",
        "kin"
      ],
      [
        "mu",
        "iden"
      ],
      [
        "mi",
        "eh"
      ],
      [
        "vä",
        "är"
      ],
      [
        "llis",
        "ten"
      ],
      [
        "nä",
        "ke"
      ],
      [
        "nä",
        "yt"
      ],
      [
        "vuo",
        "ro"
      ],
      [
        "saa",
        "da"
      ],
      [
        "200",
        "5"
      ],
      [
        "mo",
        "otto"
      ],
      [
        "kor",
        "va"
      ],
      [
        "toimi",
        "a"
      ],
      [
        "mpi",
        "a"
      ],
      [
        "keh",
        "it"
      ],
      [
        "kaupun",
        "ki"
      ],
      [
        "parlamen",
        "tin"
      ],
      [
        "amma",
        "tti"
      ],
      [
        "M",
        "ä"
      ],
      [
        "M",
        "ei"
      ],
      [
        "c",
        "k"
      ],
      [
        "d",
        "er"
      ],
      [
        "l",
        "än"
      ],
      [
        "p",
        "een"
      ],
      [
        "p",
        "po"
      ],
      [
        "r",
        "es"
      ],
      [
        "v",
        "et"
      ],
      [
        "si",
        "den"
      ],
      [
        "te",
        "s"
      ],
      [
        "te",
        "itä"
      ],
      [
        "jo",
        "ku"
      ],
      [
        "pa",
        "ran"
      ],
      [
        "ra",
        "an"
      ],
      [
        "mis",
        "estä"
      ],
      [
        "toi",
        "vo"
      ],
      [
        "lä",
        "hte"
      ],
      [
        "vuo",
        "ti"
      ],
      [
        "ker",
        "ro"
      ],
      [
        "yhte",
        "ydessä"
      ],
      [
        "kon",
        "e"
      ],
      [
        "kir",
        "joitta"
      ],
      [
        "huo",
        "li"
      ],
      [
        "teh",
        "ty"
      ],
      [
        "tur",
        "va"
      ],
      [
        "aina",
        "kin"
      ],
      [
        "markkin",
        "a"
      ],
      [
        "ulo",
        "s"
      ],
      [
        "Arvo",
        "isa"
      ],
      [
        "H",
        "ar"
      ],
      [
        "Y",
        "li"
      ],
      [
        "d",
        "on"
      ],
      [
        "e",
        "mme"
      ],
      [
        "h",
        "isto"
      ],
      [
        "o",
        "ri"
      ],
      [
        "si",
        "lloin"
      ],
      [
        "ka",
        "ssa"
      ],
      [
        "tu",
        "vat"
      ],
      [
        "tu",
        "llut"
      ],
      [
        "la",
        "h"
      ],
      [
        "pa",
        "in"
      ],
      [
        "mi",
        "ksi"
      ],
      [
        "lu",
        "ki"
      ],
      [
        "ei",
        "tä"
      ],
      [
        "toi",
        "mitta"
      ],
      [
        "ttu",
        "a"
      ],
      [
        "tän",
        "töön"
      ],
      [
        "vali",
        "o"
      ],
      [
        "täy",
        "täntöön"
      ],
      [
        "Lisä",
        "ksi"
      ],
      [
        "K",
        "ä"
      ],
      [
        "M",
        "e"
      ],
      [
        "M",
        "inä"
      ],
      [
        "O",
        "len"
      ],
      [
        "e",
        "ks"
      ],
      [
        "k",
        "ra"
      ],
      [
        "k",
        "ri"
      ],
      [
        "s",
        "et"
      ],
      [
        "t",
        "isen"
      ],
      [
        "u",
        "lle"
      ],
      [
        "ta",
        "voitte"
      ],
      [
        "is",
        "esta"
      ],
      [
        "än",
        "i"
      ],
      [
        "pa",
        "ino"
      ],
      [
        "mi",
        "etin"
      ],
      [
        "vä",
        "hen"
      ],
      [
        "lu",
        "en"
      ],
      [
        "kä",
        "ä"
      ],
      [
        "pi",
        "ir"
      ],
      [
        "jä",
        "än"
      ],
      [
        "yh",
        "ty"
      ],
      [
        "kun",
        "ing"
      ],
      [
        "200",
        "8"
      ],
      [
        "san",
        "i"
      ],
      [
        "las",
        "ku"
      ],
      [
        "perus",
        "teella"
      ],
      [
        "yksi",
        "ty"
      ],
      [
        "gi",
        "a"
      ],
      [
        "jou",
        "kko"
      ],
      [
        "kunna",
        "ssa"
      ],
      [
        "talou",
        "de"
      ],
      [
        "pys",
        "ty"
      ],
      [
        ":",
        ")"
      ],
      [
        "E",
        "si"
      ],
      [
        "K",
        "e"
      ],
      [
        "S",
        "uu"
      ],
      [
        "p",
        "en"
      ],
      [
        "s",
        "to"
      ],
      [
        "s",
        "ken"
      ],
      [
        "t",
        "se"
      ],
      [
        "si",
        "lle"
      ],
      [
        "si",
        "vat"
      ],
      [
        "tu",
        "ksessa"
      ],
      [
        "ke",
        "u"
      ],
      [
        "mu",
        "r"
      ],
      [
        "vi",
        "e"
      ],
      [
        "vi",
        "lle"
      ],
      [
        "me",
        "en"
      ],
      [
        "men",
        "i"
      ],
      [
        "essa",
        "an"
      ],
      [
        "tar",
        "jo"
      ],
      [
        "tar",
        "kas"
      ],
      [
        "no",
        "us"
      ],
      [
        "Tä",
        "män"
      ],
      [
        "pro",
        "fesso"
      ],
      [
        "yhteis",
        "työ"
      ],
      [
        "puhe",
        "mies"
      ],
      [
        "tele",
        "e"
      ],
      [
        "puol",
        "esta"
      ],
      [
        "Helsin",
        "gin"
      ],
      [
        "kilpai",
        "lu"
      ],
      [
        "pre",
        "siden"
      ],
      [
        "E",
        "s"
      ],
      [
        "I",
        "S"
      ],
      [
        "K",
        "ansa"
      ],
      [
        "O",
        "l"
      ],
      [
        "T",
        "ar"
      ],
      [
        "g",
        "en"
      ],
      [
        "n",
        "es"
      ],
      [
        "p",
        "yy"
      ],
      [
        "r",
        "un"
      ],
      [
        "ja",
        "an"
      ],
      [
        "ko",
        "ssa"
      ],
      [
        "ke",
        "l"
      ],
      [
        "la",
        "ista"
      ],
      [
        "to",
        "isen"
      ],
      [
        "mu",
        "ksen"
      ],
      [
        "ty",
        "ttö"
      ],
      [
        "ri",
        "ä"
      ],
      [
        "pi",
        "ti"
      ],
      [
        "jä",
        "lleen"
      ],
      [
        "ai",
        "ko"
      ],
      [
        "ur",
        "in"
      ],
      [
        "mer",
        "i"
      ],
      [
        "mmä",
        "is"
      ],
      [
        "luo",
        "ki"
      ],
      [
        "Ko",
        "missi"
      ],
      [
        "sija",
        "an"
      ],
      [
        "uni",
        "onin"
      ],
      [
        "menettel",
        "y"
      ],
      [
        "K",
        "ai"
      ],
      [
        "M",
        "itä"
      ],
      [
        "S",
        "u"
      ],
      [
        "U",
        "u"
      ],
      [
        "V",
        "al"
      ],
      [
        "s",
        "es"
      ],
      [
        "s",
        "un"
      ],
      [
        "v",
        "isi"
      ],
      [
        "v",
        "issä"
      ],
      [
        "en",
        "a"
      ],
      [
        "sa",
        "malla"
      ],
      [
        "ty",
        "s"
      ],
      [
        "vi",
        "l"
      ],
      [
        "ri",
        "ittä"
      ],
      [
        "pi",
        "kku"
      ],
      [
        "ys",
        "in"
      ],
      [
        "kan",
        "san"
      ],
      [
        "tar",
        "vi"
      ],
      [
        "tus",
        "ten"
      ],
      [
        "su",
        "ku"
      ],
      [
        "200",
        "3"
      ],
      [
        "kaik",
        "en"
      ],
      [
        "vel",
        "ka"
      ],
      [
        "ppa",
        "le"
      ],
      [
        "par",
        "ha"
      ],
      [
        "tieto",
        "ja"
      ],
      [
        "uud",
        "esta"
      ],
      [
        "A",
        "i"
      ],
      [
        "H",
        "y"
      ],
      [
        "K",
        "ir"
      ],
      [
        "M",
        "on"
      ],
      [
        "c",
        "e"
      ],
      [
        "i",
        "le"
      ],
      [
        "ä",
        "t"
      ],
      [
        "va",
        "un"
      ],
      [
        "va",
        "paa"
      ],
      [
        "ka",
        "lta"
      ],
      [
        "tu",
        "ksesta"
      ],
      [
        "ko",
        "a"
      ],
      [
        "la",
        "t"
      ],
      [
        "lu",
        "u"
      ],
      [
        "ri",
        "en"
      ],
      [
        "ni",
        "istä"
      ],
      [
        "tö",
        "jen"
      ],
      [
        "he",
        "ti"
      ],
      [
        "nä",
        "h"
      ],
      [
        "nä",
        "mä"
      ],
      [
        "tar",
        "peen"
      ],
      [
        "myö",
        "hemmin"
      ],
      [
        "eri",
        "ko"
      ],
      [
        "asia",
        "ssa"
      ],
      [
        "koske",
        "vat"
      ],
      [
        "sää",
        "dän"
      ],
      [
        "eu",
        "vos"
      ],
      [
        "Poh",
        "jo"
      ],
      [
        "suunni",
        "tel"
      ],
      [
        "2",
        "5"
      ],
      [
        "T",
        "yö"
      ],
      [
        "a",
        "k"
      ],
      [
        "k",
        "kö"
      ],
      [
        "n",
        "issa"
      ],
      [
        "o",
        "pa"
      ],
      [
        "r",
        "uu"
      ],
      [
        "v",
        "issa"
      ],
      [
        "in",
        "an"
      ],
      [
        "ll",
        "on"
      ],
      [
        "tu",
        "lla"
      ],
      [
        "ku",
        "vaa"
      ],
      [
        "al",
        "ka"
      ],
      [
        "min",
        "ua"
      ],
      [
        "op",
        "etta"
      ],
      [
        "tö",
        "ä"
      ],
      [
        "van",
        "a"
      ],
      [
        "ole",
        "massa"
      ],
      [
        "200",
        "7"
      ],
      [
        "var",
        "masti"
      ],
      [
        "tut",
        "kin"
      ],
      [
        "luo",
        "tto"
      ],
      [
        "Hän",
        "en"
      ],
      [
        "Euroop",
        "pa"
      ],
      [
        "kul",
        "ttuu"
      ],
      [
        "har",
        "joitta"
      ],
      [
        "miel",
        "en"
      ],
      [
        "miel",
        "estä"
      ],
      [
        "toimin",
        "ta"
      ],
      [
        "ede",
        "lleen"
      ],
      [
        "ain",
        "e"
      ],
      [
        "direktii",
        "vin"
      ],
      [
        "taka",
        "isin"
      ],
      [
        "yrit",
        "ys"
      ],
      [
        "arvi",
        "oi"
      ],
      [
        "aluee",
        "lla"
      ],
      [
        "perustamis",
        "sopimuksen"
      ],
      [
        "EK",
        "P"
      ],
      [
        "O",
        "N"
      ],
      [
        "a",
        "vulla"
      ],
      [
        "b",
        "o"
      ],
      [
        "p",
        "is"
      ],
      [
        "r",
        "ö"
      ],
      [
        "r",
        "ten"
      ],
      [
        "s",
        "ut"
      ],
      [
        "ma",
        "iden"
      ],
      [
        "it",
        "o"
      ],
      [
        "le",
        "hti"
      ],
      [
        "mä",
        "ttä"
      ],
      [
        "pi",
        "de"
      ],
      [
        "ista",
        "a"
      ],
      [
        "na",
        "t"
      ],
      [
        "maa",
        "ssa"
      ],
      [
        "mer",
        "kit"
      ],
      [
        "200",
        "4"
      ],
      [
        "oike",
        "in"
      ],
      [
        "ver",
        "si"
      ],
      [
        "valti",
        "o"
      ],
      [
        "Ka",
        "ikki"
      ],
      [
        "mar",
        "ras"
      ],
      [
        "lait",
        "os"
      ],
      [
        "mp",
        "pan"
      ],
      [
        "käyttö",
        "ön"
      ],
      [
        "saan",
        "ut"
      ],
      [
        "lain",
        "säädän"
      ],
      [
        "isän",
        "nö"
      ],
      [
        "2",
        "1"
      ],
      [
        "D",
        "i"
      ],
      [
        "T",
        "un"
      ],
      [
        "i",
        "m"
      ],
      [
        "n",
        "ön"
      ],
      [
        "ta",
        "li"
      ],
      [
        "si",
        "joi"
      ],
      [
        "va",
        "ro"
      ],
      [
        "ti",
        "t"
      ],
      [
        "sa",
        "ta"
      ],
      [
        "es",
        "in"
      ],
      [
        "ko",
        "lle"
      ],
      [
        "jo",
        "utu"
      ],
      [
        "pa",
        "ko"
      ],
      [
        "pa",
        "llo"
      ],
      [
        "vä",
        "än"
      ],
      [
        "ei",
        "lle"
      ],
      [
        "vi",
        "h"
      ],
      [
        "vi",
        "isi"
      ],
      [
        "ra",
        "joi"
      ],
      [
        "jä",
        "i"
      ],
      [
        "ista",
        "an"
      ],
      [
        "ne",
        "ksi"
      ],
      [
        "tun",
        "n"
      ],
      [
        "kau",
        "pan"
      ],
      [
        "elä",
        "mä"
      ],
      [
        "19",
        "4"
      ],
      [
        "di",
        "a"
      ],
      [
        "kas",
        "va"
      ],
      [
        "kas",
        "vu"
      ],
      [
        "sy",
        "y"
      ],
      [
        "valti",
        "on"
      ],
      [
        "gi",
        "an"
      ],
      [
        "nö",
        "ssä"
      ],
      [
        "hoi",
        "ta"
      ],
      [
        "ryh",
        "mä"
      ],
      [
        "Va",
        "ikka"
      ],
      [
        "nel",
        "jän"
      ],
      [
        "tarv",
        "itta"
      ],
      [
        "viik",
        "on"
      ],
      [
        "merk",
        "ittä"
      ],
      [
        "vahv",
        "iste"
      ],
      [
        "2",
        "7"
      ],
      [
        "I",
        "h"
      ],
      [
        "M",
        "u"
      ],
      [
        "P",
        "o"
      ],
      [
        "T",
        "ai"
      ],
      [
        "i",
        "kä"
      ],
      [
        "r",
        "ys"
      ],
      [
        "v",
        "us"
      ],
      [
        "ta",
        "mmi"
      ],
      [
        "ka",
        "l"
      ],
      [
        "ka",
        "p"
      ],
      [
        "tu",
        "on"
      ],
      [
        "oi",
        "lle"
      ],
      [
        "et",
        "tiin"
      ],
      [
        "li",
        "t"
      ],
      [
        "se",
        "li"
      ],
      [
        "to",
        "is"
      ],
      [
        "mu",
        "kana"
      ],
      [
        "mi",
        "lla"
      ],
      [
        "yh",
        "ä"
      ],
      [
        "he",
        "inä"
      ],
      [
        "aa",
        "tte"
      ],
      [
        "pää",
        "s"
      ],
      [
        "mer",
        "kki"
      ],
      [
        "työ",
        "sken"
      ],
      [
        "alu",
        "een"
      ],
      [
        "jul",
        "k"
      ],
      [
        "ensimmä",
        "inen"
      ],
      [
        "neu",
        "vo"
      ],
      [
        "päätö",
        "s"
      ],
      [
        "lää",
        "ke"
      ],
      [
        "tutkimu",
        "ksen"
      ],
      [
        "M",
        "ik"
      ],
      [
        "P",
        "er"
      ],
      [
        "P",
        "al"
      ],
      [
        "c",
        "o"
      ],
      [
        "e",
        "mmin"
      ],
      [
        "g",
        "an"
      ],
      [
        "i",
        "me"
      ],
      [
        "m",
        "paa"
      ],
      [
        "p",
        "yr"
      ],
      [
        "u",
        "i"
      ],
      [
        "y",
        "ys"
      ],
      [
        "ta",
        "ulu"
      ],
      [
        "in",
        "f"
      ],
      [
        "tä",
        "vä"
      ],
      [
        "va",
        "lu"
      ],
      [
        "ku",
        "mppan"
      ],
      [
        "ke",
        "ino"
      ],
      [
        "mu",
        "istu"
      ],
      [
        "tta",
        "in"
      ],
      [
        "ra",
        "i"
      ],
      [
        "ra",
        "ja"
      ],
      [
        "ri",
        "lla"
      ],
      [
        "so",
        "r"
      ],
      [
        "per",
        "he"
      ],
      [
        "jäsen",
        "tä"
      ],
      [
        "käyt",
        "ö"
      ],
      [
        "sopimu",
        "s"
      ],
      [
        "tule",
        "vais"
      ],
      [
        "lii",
        "ke"
      ],
      [
        "net",
        "tiin"
      ],
      [
        "käsi",
        "tte"
      ],
      [
        "puu",
        "n"
      ],
      [
        "kuulu",
        "u"
      ],
      [
        "ensimmä",
        "isen"
      ],
      [
        "tärke",
        "ä"
      ],
      [
        "ympä",
        "ris"
      ],
      [
        "hui",
        "ppu"
      ],
      [
        "pol",
        "ku"
      ],
      [
        "aino",
        "astaan"
      ],
      [
        "ministe",
        "ri"
      ],
      [
        "joneu",
        "vo"
      ],
      [
        "E",
        "N"
      ],
      [
        "H",
        "alu"
      ],
      [
        "c",
        "h"
      ],
      [
        "k",
        "ys"
      ],
      [
        "va",
        "hin"
      ],
      [
        "ka",
        "ppale"
      ],
      [
        "te",
        "ty"
      ],
      [
        "te",
        "ho"
      ],
      [
        "tu",
        "ke"
      ],
      [
        "ja",
        "ks"
      ],
      [
        "ma",
        "ksu"
      ],
      [
        "la",
        "sta"
      ],
      [
        "se",
        "en"
      ],
      [
        "ki",
        "ä"
      ],
      [
        "vä",
        "lin"
      ],
      [
        "vi",
        "ra"
      ],
      [
        "pi",
        "dä"
      ],
      [
        "un",
        "a"
      ],
      [
        "ha",
        "l"
      ],
      [
        "na",
        "inen"
      ],
      [
        "llis",
        "een"
      ],
      [
        "ky",
        "l"
      ],
      [
        "laa",
        "jen"
      ],
      [
        "use",
        "ita"
      ],
      [
        "uud",
        "et"
      ],
      [
        "puole",
        "lle"
      ],
      [
        "onn",
        "istu"
      ],
      [
        "kah",
        "den"
      ],
      [
        "lopu",
        "lta"
      ],
      [
        "uude",
        "lleen"
      ],
      [
        "vaihe",
        "essa"
      ],
      [
        "4",
        "0"
      ],
      [
        "H",
        "ei"
      ],
      [
        "M",
        "uu"
      ],
      [
        "O",
        "P"
      ],
      [
        "P",
        "u"
      ],
      [
        "T",
        "he"
      ],
      [
        "i",
        "en"
      ],
      [
        "m",
        "pa"
      ],
      [
        "t",
        "ista"
      ],
      [
        "is",
        "yy"
      ],
      [
        "ko",
        "t"
      ],
      [
        "la",
        "us"
      ],
      [
        "to",
        "della"
      ],
      [
        "mu",
        "n"
      ],
      [
        "vä",
        "hem"
      ],
      [
        "ni",
        "mi"
      ],
      [
        "ys",
        "sä"
      ],
      [
        "llis",
        "uuden"
      ],
      [
        "pää",
        "tty"
      ],
      [
        "ttu",
        "na"
      ],
      [
        "hi",
        "en"
      ],
      [
        "var",
        "sin"
      ],
      [
        "liit",
        "to"
      ],
      [
        "tie",
        "tee"
      ],
      [
        "tied",
        "ot"
      ],
      [
        "En",
        "si"
      ],
      [
        "Ni",
        "in"
      ],
      [
        "poi",
        "ka"
      ],
      [
        "vah",
        "vista"
      ],
      [
        "tärke",
        "ää"
      ],
      [
        "ruo",
        "ka"
      ],
      [
        "lento",
        "liikenteen"
      ],
      [
        "tul",
        "isi"
      ],
      [
        "Yhdys",
        "valta"
      ],
      [
        "nou",
        "da"
      ],
      [
        "täyty",
        "y"
      ],
      [
        "säh",
        "kö"
      ],
      [
        "hetke",
        "llä"
      ],
      [
        "1",
        "1"
      ],
      [
        "2",
        "8"
      ],
      [
        "K",
        "or"
      ],
      [
        "L",
        "ä"
      ],
      [
        "h",
        "den"
      ],
      [
        "i",
        "in"
      ],
      [
        "o",
        "mis"
      ],
      [
        "en",
        "na"
      ],
      [
        "si",
        "vu"
      ],
      [
        "ko",
        "to"
      ],
      [
        "ke",
        "ä"
      ],
      [
        "se",
        "ur"
      ],
      [
        "pa",
        "ri"
      ],
      [
        "mi",
        "lle"
      ],
      [
        "kä",
        "vi"
      ],
      [
        "mis",
        "to"
      ],
      [
        "ri",
        "ko"
      ],
      [
        "kan",
        "ta"
      ],
      [
        "min",
        "ut"
      ],
      [
        "kun",
        "in"
      ],
      [
        "de",
        "mo"
      ],
      [
        "hän",
        "et"
      ],
      [
        "saa",
        "ttaa"
      ],
      [
        "kau",
        "pa"
      ],
      [
        "elä",
        "in"
      ],
      [
        "ise",
        "llä"
      ],
      [
        "tuo",
        "tan"
      ],
      [
        "käy",
        "tettä"
      ],
      [
        "ttava",
        "sti"
      ],
      [
        "tieto",
        "a"
      ],
      [
        "Mi",
        "es"
      ],
      [
        "vas",
        "tuu"
      ],
      [
        "teke",
        "e"
      ],
      [
        "puheen",
        "johtaja"
      ],
      [
        "valtuus",
        "kunta"
      ],
      [
        "professo",
        "ri"
      ],
      [
        "2",
        "3"
      ],
      [
        "A",
        "A"
      ],
      [
        "B",
        "a"
      ],
      [
        "R",
        "ans"
      ],
      [
        "a",
        "ut"
      ],
      [
        "h",
        "un"
      ],
      [
        "r",
        "r"
      ],
      [
        "is",
        "estä"
      ],
      [
        "an",
        "to"
      ],
      [
        "si",
        "vät"
      ],
      [
        "ka",
        "hd"
      ],
      [
        "ti",
        "laa"
      ],
      [
        "sa",
        "vu"
      ],
      [
        "it",
        "tu"
      ],
      [
        "tta",
        "maan"
      ],
      [
        "un",
        "o"
      ],
      [
        "lo",
        "ka"
      ],
      [
        "na",
        "ut"
      ],
      [
        "ni",
        "me"
      ],
      [
        "val",
        "mi"
      ],
      [
        "van",
        "ha"
      ],
      [
        "hän",
        "tä"
      ],
      [
        "ole",
        "mme"
      ],
      [
        "tää",
        "llä"
      ],
      [
        "no",
        "lla"
      ],
      [
        "kse",
        "lle"
      ],
      [
        "kse",
        "llä"
      ],
      [
        "var",
        "ten"
      ],
      [
        "laa",
        "ti"
      ],
      [
        "työ",
        "ttö"
      ],
      [
        "järj",
        "estä"
      ],
      [
        "je",
        "k"
      ],
      [
        "tettu",
        "a"
      ],
      [
        "yle",
        "ensä"
      ],
      [
        "Nä",
        "in"
      ],
      [
        "olle",
        "et"
      ],
      [
        "vuod",
        "esta"
      ],
      [
        "edell",
        "yty"
      ],
      [
        "kuning",
        "as"
      ],
      [
        "Pohjo",
        "is"
      ],
      [
        "J",
        "ä"
      ],
      [
        "M",
        "o"
      ],
      [
        "O",
        "li"
      ],
      [
        "P",
        "or"
      ],
      [
        "h",
        "ol"
      ],
      [
        "o",
        "issa"
      ],
      [
        "p",
        "p"
      ],
      [
        "p",
        "osti"
      ],
      [
        "r",
        "et"
      ],
      [
        "z",
        "z"
      ],
      [
        "ll",
        "isi"
      ],
      [
        "te",
        "is"
      ],
      [
        "ku",
        "ole"
      ],
      [
        "ma",
        "s"
      ],
      [
        "ke",
        "llo"
      ],
      [
        "ki",
        "lle"
      ],
      [
        "ty",
        "h"
      ],
      [
        "ra",
        "por"
      ],
      [
        "le",
        "e"
      ],
      [
        "pi",
        "ha"
      ],
      [
        "al",
        "kaa"
      ],
      [
        "min",
        "kä"
      ],
      [
        "voi",
        "tti"
      ],
      [
        "ky",
        "lä"
      ],
      [
        "suu",
        "re"
      ],
      [
        "huo",
        "l"
      ],
      [
        "hyvä",
        "ä"
      ],
      [
        "ihmis",
        "et"
      ],
      [
        "miel",
        "tä"
      ],
      [
        "toimin",
        "nan"
      ],
      [
        "talou",
        "den"
      ],
      [
        "vaih",
        "to"
      ],
      [
        "joukku",
        "e"
      ],
      [
        "kustan",
        "nu"
      ],
      [
        "Mithrida",
        "tes"
      ],
      [
        "K",
        "ol"
      ],
      [
        "V",
        "oi"
      ],
      [
        "b",
        "y"
      ],
      [
        "j",
        "uus"
      ],
      [
        "m",
        "es"
      ],
      [
        "u",
        "ssa"
      ],
      [
        "is",
        "uus"
      ],
      [
        "an",
        "al"
      ],
      [
        "tä",
        "ysin"
      ],
      [
        "ti",
        "lais"
      ],
      [
        "te",
        "ll"
      ],
      [
        "ma",
        "ks"
      ],
      [
        "ma",
        "ton"
      ],
      [
        "ma",
        "alis"
      ],
      [
        "ki",
        "lo"
      ],
      [
        "er",
        "in"
      ],
      [
        "lu",
        "vun"
      ],
      [
        "ra",
        "te"
      ],
      [
        "pi",
        "an"
      ],
      [
        "lo",
        "u"
      ],
      [
        "ro",
        "u"
      ],
      [
        "hi",
        "u"
      ],
      [
        "esi",
        "ttä"
      ],
      [
        "pan",
        "o"
      ],
      [
        "pal",
        "ja"
      ],
      [
        "alu",
        "e"
      ],
      [
        "jat",
        "ku"
      ],
      [
        "oh",
        "ja"
      ],
      [
        "jos",
        "kus"
      ],
      [
        "tied",
        "o"
      ],
      [
        "tied",
        "ä"
      ],
      [
        "sel",
        "västi"
      ],
      [
        "kaikki",
        "en"
      ],
      [
        "päätö",
        "ksen"
      ],
      [
        "yhti",
        "ön"
      ],
      [
        "miljoon",
        "aa"
      ],
      [
        "sove",
        "lle"
      ],
      [
        "jal",
        "ka"
      ],
      [
        "tou",
        "ko"
      ],
      [
        "6",
        "3"
      ],
      [
        "H",
        "u"
      ],
      [
        "N",
        "a"
      ],
      [
        "T",
        "oi"
      ],
      [
        "T",
        "am"
      ],
      [
        "V",
        "u"
      ],
      [
        "l",
        "yh"
      ],
      [
        "n",
        "etta"
      ],
      [
        "s",
        "ur"
      ],
      [
        "ta",
        "kia"
      ],
      [
        "te",
        "llä"
      ],
      [
        "te",
        "essä"
      ],
      [
        "tu",
        "ksi"
      ],
      [
        "ja",
        "ssa"
      ],
      [
        "ko",
        "lla"
      ],
      [
        "it",
        "in"
      ],
      [
        "la",
        "use"
      ],
      [
        "ty",
        "yty"
      ],
      [
        "vi",
        "iden"
      ],
      [
        "uu",
        "ksia"
      ],
      [
        "pi",
        "det"
      ],
      [
        "na",
        "u"
      ],
      [
        "na",
        "ssa"
      ],
      [
        "men",
        "nä"
      ],
      [
        "os",
        "in"
      ],
      [
        "ai",
        "emmin"
      ],
      [
        "ksen",
        "i"
      ],
      [
        "pää",
        "lle"
      ],
      [
        "ttu",
        "i"
      ],
      [
        "vaa",
        "ra"
      ],
      [
        "hu",
        "hti"
      ],
      [
        "sy",
        "ystä"
      ],
      [
        "tie",
        "tä"
      ],
      [
        "tie",
        "teen"
      ],
      [
        "teh",
        "nyt"
      ],
      [
        "väl",
        "ttä"
      ],
      [
        "pit",
        "kin"
      ],
      [
        "Mi",
        "kä"
      ],
      [
        "liik",
        "ke"
      ],
      [
        "yhd",
        "essä"
      ],
      [
        "kaupun",
        "gin"
      ],
      [
        "rek",
        "iste"
      ],
      [
        "oikeu",
        "den"
      ],
      [
        "vier",
        "ai"
      ],
      [
        "Vä",
        "li"
      ],
      [
        "komite",
        "an"
      ],
      [
        "huoli",
        "matta"
      ],
      [
        "marras",
        "kuuta"
      ],
      [
        "Yhdysvalta",
        "in"
      ],
      [
        "Vu",
        "onna"
      ],
      [
        "2",
        "4"
      ],
      [
        "K",
        "os"
      ],
      [
        "S",
        "it"
      ],
      [
        "T",
        "T"
      ],
      [
        "a",
        "pu"
      ],
      [
        "d",
        "el"
      ],
      [
        "h",
        "ö"
      ],
      [
        "h",
        "on"
      ],
      [
        "i",
        "lo"
      ],
      [
        "l",
        "taan"
      ],
      [
        "n",
        "is"
      ],
      [
        "o",
        "on"
      ],
      [
        "o",
        "maa"
      ],
      [
        "s",
        "ty"
      ],
      [
        "s",
        "isi"
      ],
      [
        "ta",
        "h"
      ],
      [
        "si",
        "ksi"
      ],
      [
        "tu",
        "ksella"
      ],
      [
        "to",
        "si"
      ],
      [
        "ki",
        "e"
      ],
      [
        "ki",
        "an"
      ],
      [
        "ki",
        "eli"
      ],
      [
        "mi",
        "eli"
      ],
      [
        "lu",
        "s"
      ],
      [
        "mä",
        "ttö"
      ],
      [
        "lo",
        "g"
      ],
      [
        "ar",
        "vos"
      ],
      [
        "toi",
        "hin"
      ],
      [
[...]
