{
  "version": "1.0",
  "truncation": null,
  "padding": null,
  "added_tokens": [
    {
      "id": 0,
      "content": "[UNK]",
      "single_word": false,
      "lstrip": false,
      "rstrip": false,
      "normalized": false,
      "special": true
    },
    {
      "id": 1,
      "content": "[PAD]",
      "single_word": false,
      "lstrip": false,
      "rstrip": false,
      "normalized": false,
      "special": true
    },
    {
      "id": 2,
      "content": "[CLS]",
      "single_word": false,
      "lstrip": false,
      "rstrip": false,
      "normalized": false,
      "special": true
    },
    {
      "id": 3,
      "content": "[SEP]",
      "single_word": false,
      "lstrip": false,
      "rstrip": false,
      "normalized": false,
      "special": true
    },
    {
      "id": 4,
      "content": "[MASK]",
      "single_word": false,
      "lstrip": false,
      "rstrip": false,
      "normalized": false,
      "special": true
    }
  ],
  "normalizer": {
    "type": "Sequence",
    "normalizers": [
      {
        "type": "NFKC"
      }
    ]
  },
  "pre_tokenizer": {
    "type": "Whitespace"
  },
  "post_processor": null,
  "decoder": null,
  "model": {
    "type": "BPE",
    "dropout": null,
    "unk_token": "[UNK]",
    "continuing_subword_prefix": null,
    "end_of_word_suffix": null,
    "fuse_unk": false,
    "byte_fallback": false,
    "ignore_merges": false,
    "vocab": {
      "[UNK]": 0,
      "[PAD]": 1,
      "[CLS]": 2,
      "[SEP]": 3,
      "[MASK]": 4,
      "!": 5,
      "\"": 6,
      "'": 7,
      "(": 8,
      ")": 9,
      ",": 10,
      "-": 11,
      ".": 12,
      "/": 13,
      "0": 14,
      "1": 15,
      "2": 16,
      "3": 17,
      "4": 18,
      "5": 19,
      "6": 20,
      "7": 21,
      "8": 22,
      "9": 23,
      ":": 24,
      "?": 25,
      "I": 26,
      "J": 27,
      "N": 28,
      "O": 29,
      "ँ": 30,
      "ं": 31,
      "ः": 32,
      "अ": 33,
      "आ": 34,
      "इ": 35,
      "ई": 36,
      "उ": 37,
      "ऊ": 38,
      "ऋ": 39,
      "ए": 40,
      "ऐ": 41,
      "ऑ": 42,
      "ओ": 43,
      "औ": 44,
      "क": 45,
      "ख": 46,
      "ग": 47,
      "घ": 48,
      "च": 49,
      "छ": 50,
      "ज": 51,
      "झ": 52,
      "ञ": 53,
      "ट": 54,
      "ठ": 55,
      "ड": 56,
      "ढ": 57,
      "ण": 58,
      "त": 59,
      "थ": 60,
      "द": 61,
      "ध": 62,
      "न": 63,
      "प": 64,
      "फ": 65,
      "ब": 66,
      "भ": 67,
      "म": 68,
      "य": 69,
      "र": 70,
      "ऱ": 71,
      "ल": 72,
      "व": 73,
      "श": 74,
      "ष": 75,
      "स": 76,
      "ह": 77,
      "़": 78,
      "ा": 79,
      "ि": 80,
      "ी": 81,
      "ु": 82,
      "ू": 83,
      "ृ": 84,
      "ॅ": 85,
      "े": 86,
      "ै": 87,
      "ॉ": 88,
      "ो": 89,
      "ौ": 90,
      "्": 91,
      "।": 92,
      "०": 93,
      "१": 94,
      "२": 95,
      "३": 96,
      "४": 97,
      "५": 98,
      "६": 99,
      "७": 100,
      "८": 101,
      "९": 102,
      "‍": 103,
      "के": 104,
      "ार": 105,
      "ने": 106,
      "्र": 107,
      "ें": 108,
      "या": 109,
      "ों": 110,
      "है": 111,
      "में": 112,
      "कि": 113,
      "की": 114,
      "को": 115,
      "का": 116,
      "से": 117,
      "कर": 118,
      "ता": 119,
      "स्": 120,
      "ना": 121,
      "र्": 122,
      "हा": 123,
      "रा": 124,
      "वा": 125,
      "ला": 126,
      "पर": 127,
      "्य": 128,
      "ले": 129,
      "क्": 130,
      "प्र": 131,
      "जा": 132,
      "मा": 133,
      "वि": 134,
      "ही": 135,
      "कार": 136,
      "लि": 137,
      "इस": 138,
      "और": 139,
      "दे": 140,
      "त्र": 141,
      "सा": 142,
      "नि": 143,
      "बा": 144,
      "पा": 145,
      "ति": 146,
      "दि": 147,
      "भी": 148,
      "उन": 149,
      "ड़": 150,
      "नी": 151,
      "सं": 152,
      "मु": 153,
      "हो": 154,
      "क्ष": 155,
      "गा": 156,
      "कहा": 157,
      "हु": 158,
      "हैं": 159,
      "मं": 160,
      "ती": 161,
      "ते": 162,
      "ली": 163,
      "सी": 164,
      "लिए": 165,
      "मि": 166,
      "था": 167,
      "वार": 168,
      "त्": 169,
      "सि": 170,
      "हीं": 171,
      "सर": 172,
      "्ह": 173,
      "रि": 174,
      "दा": 175,
      "ंग": 176,
      "्ट": 177,
      "भा": 178,
      "नहीं": 179,
      "मंत्र": 180,
      "उन्ह": 181,
      "दी": 182,
      "राज": 183,
      "यों": 184,
      "सम": 185,
      "देश": 186,
      "एक": 187,
      "द्": 188,
      "री": 189,
      "किया": 190,
      "ोग": 191,
      "ित": 192,
      "रह": 193,
      "मी": 194,
      "सु": 195,
      "गया": 196,
      "ल्": 197,
      "अप": 198,
      "चा": 199,
      "यह": 200,
      "भार": 201,
      "ोंने": 202,
      "धा": 203,
      "उन्होंने": 204,
      "करने": 205,
      "िक": 206,
      "पू": 207,
      "पु": 208,
      "सरकार": 209,
      "मंत्री": 210,
      "ंद": 211,
      "जि": 212,
      "शा": 213,
      "बाद": 214,
      "नों": 215,
      "अध": 216,
      "हि": 217,
      "पी": 218,
      "्या": 219,
      "रो": 220,
      "बी": 221,
      "रू": 222,
      "दो": 223,
      "मे": 224,
      "जी": 225,
      "श्": 226,
      "वे": 227,
      "दिया": 228,
      "ंड": 229,
      "स्ता": 230,
      "कु": 231,
      "बार": 232,
      "रे": 233,
      "ष्ट": 234,
      "ंध": 235,
      "्री": 236,
      "हुए": 237,
      "ओं": 238,
      "चु": 239,
      "तक": 240,
      "मान": 241,
      "गी": 242,
      "खा": 243,
      "इन": 244,
      "अन": 245,
      "थी": 246,
      "वी": 247,
      "चि": 248,
      "लोग": 249,
      "शि": 250,
      "टी": 251,
      "हम": 252,
      "ंच": 253,
      "गई": 254,
      "्रे": 255,
      "सू": 256,
      "सिं": 257,
      "धान": 258,
      "तर": 259,
      "पह": 260,
      "ारी": 261,
      "बता": 262,
      "साथ": 263,
      "ढ़": 264,
      "पार": 265,
      "जन": 266,
      "भारत": 267,
      "गए": 268,
      "सिंह": 269,
      "उस": 270,
      "राज्य": 271,
      "जाए": 272,
      "मिल": 273,
      "क्र": 274,
      "ियों": 275,
      "रहे": 276,
      "चार": 277,
      "आई": 278,
      "तो": 279,
      "गे": 280,
      "टे": 281,
      "किन": 282,
      "बात": 283,
      "कों": 284,
      "लों": 285,
      "माम": 286,
      "एस": 287,
      "मुख": 288,
      "हर": 289,
      "लेकिन": 290,
      "मो": 291,
      "मार": 292,
      "लगा": 293,
      "बर": 294,
      "बि": 295,
      "बताया": 296,
      "लिस": 297,
      "सद": 298,
      "रु": 299,
      "क्षा": 300,
      "पुलिस": 301,
      "िया": 302,
      "स्था": 303,
      "र्ट": 304,
      "वह": 305,
      "पूर्": 306,
      "थे": 307,
      "यो": 308,
      "सक": 309,
      "वर्": 310,
      "स्थ": 311,
      "इसके": 312,
      "बै": 313,
      "शु": 314,
      "क्त": 315,
      "रही": 316,
      "ची": 317,
      "्टी": 318,
      "जब": 319,
      "होने": 320,
      "यु": 321,
      "लोगों": 322,
      "स्ट": 323,
      "बंध": 324,
      "िकार": 325,
      "केंद": 326,
      "जाने": 327,
      "जे": 328,
      "रहा": 329,
      "कोई": 330,
      "पे": 331,
      "अपने": 332,
      "अं": 333,
      "दौ": 334,
      "्रीय": 335,
      "किस्ता": 336,
      "म्": 337,
      "पाकिस्ता": 338,
      "तं": 339,
      "प्": 340,
      "शन": 341,
      "राष्ट": 342,
      "जो": 343,
      "हां": 344,
      "टा": 345,
      "ये": 346,
      "नेता": 347,
      "ड़ा": 348,
      "ंप": 349,
      "लय": 350,
      "बे": 351,
      "पो": 352,
      "वाले": 353,
      "पार्टी": 354,
      "मौ": 355,
      "योग": 356,
      "बना": 357,
      "ंग्रे": 358,
      "कार्य": 359,
      "कुछ": 360,
      "लो": 361,
      "बु": 362,
      "दू": 363,
      "अब": 364,
      "प्रधान": 365,
      "कांग्रे": 366,
      "च्": 367,
      "फी": 368,
      "फि": 369,
      "नाव": 370,
      "द्वार": 371,
      "पहले": 372,
      "्रा": 373,
      "खि": 374,
      "प्रधानमंत्री": 375,
      "सो": 376,
      "ैस": 377,
      "कांग्रेस": 378,
      "जू": 379,
      "बढ़": 380,
      "द्वारा": 381,
      "पि": 382,
      "परि": 383,
      "हुई": 384,
      "ड़ी": 385,
      "प्रति": 386,
      "दर्": 387,
      "टर": 388,
      "उत्": 389,
      "अधिकार": 390,
      "उप": 391,
      "००": 392,
      "भारती": 393,
      "डी": 394,
      "गु": 395,
      "चुनाव": 396,
      "पाकिस्तान": 397,
      "मामले": 398,
      "कह": 399,
      "करा": 400,
      "बैठ": 401,
      "निर्": 402,
      "दु": 403,
      "ौर": 404,
      "हार": 405,
      "उनके": 406,
      "रक्षा": 407,
      "रान": 408,
      "न्": 409,
      "पति": 410,
      "लिया": 411,
      "व्य": 412,
      "दोनों": 413,
      "ष्": 414,
      "तरह": 415,
      "्यक्ष": 416,
      "ब्": 417,
      "अनु": 418,
      "योज": 419,
      "शी": 420,
      "उन्हें": 421,
      "यू": 422,
      "जु": 423,
      "कंप": 424,
      "पहु": 425,
      "अपनी": 426,
      "क्षे": 427,
      "जपा": 428,
      "बीच": 429,
      "आर": 430,
      "किसी": 431,
      "फा": 432,
      "ल्ली": 433,
      "लग": 434,
      "शे": 435,
      "मुख्य": 436,
      "स्त": 437,
      "गो": 438,
      "समय": 439,
      "करते": 440,
      "दिल्ली": 441,
      "धार": 442,
      "मन": 443,
      "अग": 444,
      "आतं": 445,
      "यर": 446,
      "त्रों": 447,
      "ड़े": 448,
      "भाजपा": 449,
      "दौरान": 450,
      "बो": 451,
      "मू": 452,
      "कर्": 453,
      "जिस": 454,
      "देने": 455,
      "पास": 456,
      "जान": 457,
      "रूप": 458,
      "मद": 459,
      "पूर्व": 460,
      "खु": 461,
      "णा": 462,
      "निक": 463,
      "भारतीय": 464,
      "बारे": 465,
      "गठ": 466,
      "अध्यक्ष": 467,
      "कई": 468,
      "ताब": 469,
      "फैस": 470,
      "सभी": 471,
      "तै": 472,
      "केंद्र": 473,
      "बैठक": 474,
      "यार": 475,
      "हिए": 476,
      "ेंगे": 477,
      "चाहिए": 478,
      "लत": 479,
      "्यू": 480,
      "कारण": 481,
      "सभा": 482,
      "वाई": 483,
      "गि": 484,
      "किए": 485,
      "लेकर": 486,
      "तार": 487,
      "जाएगा": 488,
      "वर्ष": 489,
      "खिला": 490,
      "रख": 491,
      "मत": 492,
      "सार": 493,
      "कै": 494,
      "चल": 495,
      "लू": 496,
      "काम": 497,
      "टि": 498,
      "भाग": 499,
      "प्रदेश": 500,
      "हन": 501,
      "मुताब": 502,
      "मुताबिक": 503,
      "छा": 504,
      "रुप": 505,
      "राष्ट्र": 506,
      "कम": 507,
      "नीति": 508,
      "शुरू": 509,
      "कृ": 510,
      "पक्ष": 511,
      "ोड़": 512,
      "र्थ": 513,
      "सुरक्षा": 514,
      "ज्": 515,
      "हत": 516,
      "मै": 517,
      "शामिल": 518,
      "अन्य": 519,
      "डि": 520,
      "संबंध": 521,
      "अमे": 522,
      "आप": 523,
      "वर": 524,
      "युक्त": 525,
      "योजना": 526,
      "इं": 527,
      "डा": 528,
      "त्व": 529,
      "पोर्ट": 530,
      "अमेरि": 531,
      "कारी": 532,
      "मुद्": 533,
      "जार": 534,
      "वाली": 535,
      "चे": 536,
      "कहना": 537,
      "तीन": 538,
      "मीर": 539,
      "निया": 540,
      "एम": 541,
      "भू": 542,
      "ालय": 543,
      "साल": 544,
      "हुआ": 545,
      "पिछ": 546,
      "मह": 547,
      "कोर्ट": 548,
      "वाद": 549,
      "क्षेत्र": 550,
      "महा": 551,
      "द्र": 552,
      "खिलाफ": 553,
      "ठा": 554,
      "उनकी": 555,
      "फ्": 556,
      "टना": 557,
      "पै": 558,
      "वै": 559,
      "विदेश": 560,
      "दिन": 561,
      "दल": 562,
      "मंत्रालय": 563,
      "ृह": 564,
      "देख": 565,
      "कश्": 566,
      "ज़": 567,
      "भे": 568,
      "प्रा": 569,
      "रुपये": 570,
      "अभ": 571,
      "जारी": 572,
      "ओर": 573,
      "सब": 574,
      "करी": 575,
      "द्ध": 576,
      "इससे": 577,
      "र्ड": 578,
      "जवा": 579,
      "ज्ञ": 580,
      "आरो": 581,
      "सदी": 582,
      "प्रस्ता": 583,
      "क्रम": 584,
      "एन": 585,
      "ग्र": 586,
      "घा": 587,
      "पहुंच": 588,
      "यहां": 589,
      "सह": 590,
      "हाल": 591,
      "होगा": 592,
      "सकता": 593,
      "चीत": 594,
      "करना": 595,
      "त्रा": 596,
      "बातचीत": 597,
      "सदस्": 598,
      "इस्": 599,
      "रत": 600,
      "सचि": 601,
      "कश्मीर": 602,
      "सेना": 603,
      "पुर": 604,
      "गल": 605,
      "फो": 606,
      "सै": 607,
      "नेताओं": 608,
      "जरू": 609,
      "पिछले": 610,
      "मांग": 611,
      "बन": 612,
      "वं": 613,
      "नाम": 614,
      "पर्": 615,
      "हाला": 616,
      "पाल": 617,
      "पद": 618,
      "यत": 619,
      "जानकारी": 620,
      "रोध": 621,
      "सूत्रों": 622,
      "आरोप": 623,
      "हाँ": 624,
      "जांच": 625,
      "खे": 626,
      "जय": 627,
      "विचार": 628,
      "रिपोर्ट": 629,
      "आयोग": 630,
      "विश्": 631,
      "यी": 632,
      "स्वा": 633,
      "मुख्यमंत्री": 634,
      "अला": 635,
      "अदा": 636,
      "रात": 637,
      "चाह": 638,
      "जै": 639,
      "यान": 640,
      "शेष": 641,
      "सन": 642,
      "साम": 643,
      "मोहन": 644,
      "जबकि": 645,
      "सचिव": 646,
      "क्स": 647,
      "ंकि": 648,
      "देशों": 649,
      "एं": 650,
      "कान": 651,
      "अधिक": 652,
      "ंब": 653,
      "सौ": 654,
      "बढ़ा": 655,
      "गत": 656,
      "पं": 657,
      "यम": 658,
      "राष्ट्रीय": 659,
      "आज": 660,
      "इला": 661,
      "ट्र": 662,
      "एफ": 663,
      "दर": 664,
      "तैयार": 665,
      "यन": 666,
      "राष्ट्रपति": 667,
      "्यादा": 668,
      "केंद्रीय": 669,
      "प्रस्ताव": 670,
      "घटना": 671,
      "माण": 672,
      "ज्यादा": 673,
      "णी": 674,
      "भाव": 675,
      "ंधी": 676,
      "अलावा": 677,
      "सां": 678,
      "जूद": 679,
      "विशेष": 680,
      "दूसर": 681,
      "मनमोहन": 682,
      "अदालत": 683,
      "रेल": 684,
      "लन": 685,
      "करण": 686,
      "२००": 687,
      "वाल": 688,
      "धन": 689,
      "विभाग": 690,
      "त्या": 691,
      "उठा": 692,
      "१९": 693,
      "ष्ठ": 694,
      "ंक": 695,
      "चना": 696,
      "तथा": 697,
      "फैसला": 698,
      "दार": 699,
      "जर": 700,
      "धि": 701,
      "अधिकारियों": 702,
      "अभी": 703,
      "गर": 704,
      "क्ति": 705,
      "उसके": 706,
      "घो": 707,
      "वज": 708,
      "समा": 709,
      "करे": 710,
      "विधान": 711,
      "दिए": 712,
      "गांधी": 713,
      "मुद्दे": 714,
      "अम": 715,
      "पता": 716,
      "करोड़": 717,
      "मुला": 718,
      "समझ": 719,
      "समर्थ": 720,
      "ंस": 721,
      "तु": 722,
      "राम": 723,
      "्यों": 724,
      "िश": 725,
      "नीय": 726,
      "हालांकि": 727,
      "उसे": 728,
      "दान": 729,
      "गठन": 730,
      "हों": 731,
      "विधा": 732,
      "स्थित": 733,
      "उत्तर": 734,
      "अधिकारी": 735,
      "न्या": 736,
      "बह": 737,
      "काफी": 738,
      "स्व": 739,
      "बिहार": 740,
      "छे": 741,
      "भर": 742,
      "पूरी": 743,
      "फिर": 744,
      "पेश": 745,
      "लोक": 746,
      "फीसदी": 747,
      "न्न": 748,
      "र्र": 749,
      "मीद": 750,
      "अपना": 751,
      "सबसे": 752,
      "डे": 753,
      "तल": 754,
      "वित": 755,
      "राज्यों": 756,
      "पत्र": 757,
      "स्थि": 758,
      "ज्ञा": 759,
      "उम्": 760,
      "यहाँ": 761,
      "ताओं": 762,
      "ंट": 763,
      "डॉ": 764,
      "जाता": 765,
      "इसी": 766,
      "बनाने": 767,
      "उम्मीद": 768,
      "लाख": 769,
      "याचि": 770,
      "संख": 771,
      "कार्यक्रम": 772,
      "तहत": 773,
      "रों": 774,
      "शो": 775,
      "सम्": 776,
      "ंत": 777,
      "बयान": 778,
      "लं": 779,
      "सर्": 780,
      "यात्रा": 781,
      "बोर्ड": 782,
      "कॉ": 783,
      "राजनीति": 784,
      "करीब": 785,
      "स्थिति": 786,
      "डल": 787,
      "ड्": 788,
      "विरोध": 789,
      "क्षण": 790,
      "हिला": 791,
      "मार्": 792,
      "धवार": 793,
      "बाव": 794,
      "ंगे": 795,
      "बुधवार": 796,
      "विश्व": 797,
      "घोष": 798,
      "नौ": 799,
      "महिला": 800,
      "करेंगे": 801,
      "इसमें": 802,
      "च्च": 803,
      "ंव": 804,
      "पत्": 805,
      "वरि": 806,
      "वहां": 807,
      "स्वी": 808,
      "अनुसार": 809,
      "वन": 810,
      "पीए": 811,
      "गिर": 812,
      "खो": 813,
      "जग": 814,
      "तरी": 815,
      "हाई": 816,
      "पूर्ण": 817,
      "अमेरिका": 818,
      "कानू": 819,
      "आतंक": 820,
      "आए": 821,
      "हजार": 822,
      "याद": 823,
      "कास": 824,
      "मंगल": 825,
      "वरिष्ठ": 826,
      "बहु": 827,
      "लने": 828,
      "वार्": 829,
      "सकते": 830,
      "कंपनी": 831,
      "याचिका": 832,
      "क्यों": 833,
      "होगी": 834,
      "सीमा": 835,
      "रिया": 836,
      "जाएगी": 837,
      "ंगा": 838,
      "टन": 839,
      "नार": 840,
      "प्त": 841,
      "दर्ज": 842,
      "अलग": 843,
      "संयुक्त": 844,
      "खंड": 845,
      "गौर": 846,
      "सकती": 847,
      "इसे": 848,
      "लाल": 849,
      "क्रिया": 850,
      "मंगलवार": 851,
      "चला": 852,
      "बंद": 853,
      "रण": 854,
      "कुमार": 855,
      "चित": 856,
      "शनि": 857,
      "वास": 858,
      "लेने": 859,
      "त्म": 860,
      "जिन": 861,
      "जता": 862,
      "प्रमुख": 863,
      "विकास": 864,
      "मुंब": 865,
      "रोक": 866,
      "फ़": 867,
      "समि": 868,
      "र्जी": 869,
      "व्यव": 870,
      "मुंबई": 871,
      "लै": 872,
      "व्या": 873,
      "ार्": 874,
      "पांच": 875,
      "स्थान": 876,
      "नियों": 877,
      "सोम": 878,
      "अव": 879,
      "आने": 880,
      "कू": 881,
      "जें": 882,
      "तृ": 883,
      "कियों": 884,
      "झा": 885,
      "सके": 886,
      "कोशि": 887,
      "क्ता": 888,
      "गांव": 889,
      "कोशिश": 890,
      "ंति": 891,
      "वाणी": 892,
      "नई": 893,
      "लाह": 894,
      "जाना": 895,
      "माल": 896,
      "इसका": 897,
      "त्त": 898,
      "समिति": 899,
      "यल": 900,
      "सवाल": 901,
      "यूपीए": 902,
      "जरूरत": 903,
      "सांसद": 904,
      "वजह": 905,
      "ध्या": 906,
      "सिल": 907,
      "प्ता": 908,
      "मदद": 909,
      "भूमि": 910,
      "शनिवार": 911,
      "ंचा": 912,
      "उनका": 913,
      "जीत": 914,
      "चर्": 915,
      "बद": 916,
      "सत": 917,
      "स्टे": 918,
      "पूरा": 919,
      "इंड": 920,
      "एल": 921,
      "द्य": 922,
      "टीम": 923,
      "फिल्": 924,
      "पड़": 925,
      "श्र": 926,
      "काल": 927,
      "दियों": 928,
      "सामने": 929,
      "सोमवार": 930,
      "जरि": 931,
      "मही": 932,
      "रखा": 933,
      "शहर": 934,
      "स्पति": 935,
      "दूसरे": 936,
      "आड": 937,
      "हरा": 938,
      "वादी": 939,
      "कारों": 940,
      "सोनिया": 941,
      "फैसले": 942,
      "समर्थन": 943,
      "आडवाणी": 944,
      "ऐसा": 945,
      "बू": 946,
      "बृह": 947,
      "हिस्": 948,
      "बृहस्पति": 949,
      "क़": 950,
      "ब्र": 951,
      "कात": 952,
      "बृहस्पतिवार": 953,
      "ऐसे": 954,
      "शं": 955,
      "राव": 956,
      "प्रे": 957,
      "विपक्ष": 958,
      "सूचना": 959,
      "भावना": 960,
      "विधानसभा": 961,
      "घोषणा": 962,
      "गृह": 963,
      "चौ": 964,
      "जम्": 965,
      "थि": 966,
      "वाप": 967,
      "प्री": 968,
      "अगर": 969,
      "जवाब": 970,
      "व्यवस्था": 971,
      "अफ": 972,
      "टल": 973,
      "बजे": 974,
      "काश": 975,
      "स्या": 976,
      "प्रया": 977,
      "जम्मू": 978,
      "वो": 979,
      "वरी": 980,
      "नेतृ": 981,
      "र्फ": 982,
      "वेश": 983,
      "अमेरिकी": 984,
      "अभि": 985,
      "मुलाकात": 986,
      "बहुत": 987,
      "नेतृत्व": 988,
      "भि": 989,
      "देते": 990,
      "बारिश": 991,
      "शुक्र": 992,
      "यक": 993,
      "श्री": 994,
      "वान": 995,
      "प्रभा": 996,
      "समस्या": 997,
      "सहयोग": 998,
      "एवं": 999,
      "कट": 1000,
      "खरी": 1001,
      "नट": 1002,
      "बल": 1003,
      "बस": 1004,
      "सीट": 1005,
      "अगले": 1006,
      "प्रयास": 1007,
      "आधार": 1008,
      "इरा": 1009,
      "मिली": 1010,
      "सुन": 1011,
      "ल्प": 1012,
      "जनता": 1013,
      "अंतर": 1014,
      "परिवार": 1015,
      "संख्या": 1016,
      "एजें": 1017,
      "ग्रा": 1018,
      "धी": 1019,
      "पक": 1020,
      "क्या": 1021,
      "संघ": 1022,
      "मामला": 1023,
      "मौजूद": 1024,
      "गिरफ्": 1025,
      "ठी": 1026,
      "फे": 1027,
      "मस": 1028,
      "यं": 1029,
      "लड़": 1030,
      "हित": 1031,
      "लाई": 1032,
      "मंडल": 1033,
      "उल्": 1034,
      "रवि": 1035,
      "लालू": 1036,
      "इसकी": 1037,
      "शासन": 1038,
      "बंधन": 1039,
      "फिल्म": 1040,
      "आगे": 1041,
      "लगाया": 1042,
      "राजनीतिक": 1043,
      "शुक्रवार": 1044,
      "गं": 1045,
      "टक": 1046,
      "नजर": 1047,
      "बड़ी": 1048,
      "वहीं": 1049,
      "प्रक्रिया": 1050,
      "राजग": 1051,
      "जिले": 1052,
      "सदस्य": 1053,
      "कानून": 1054,
      "यादव": 1055,
      "ट्रे": 1056,
      "यदि": 1057,
      "शर्र": 1058,
      "र्म": 1059,
      "मुशर्र": 1060,
      "ंदर": 1061,
      "अंत": 1062,
      "क्योंकि": 1063,
      "हटा": 1064,
      "केट": 1065,
      "सुबह": 1066,
      "मिलने": 1067,
      "तलब": 1068,
      "गू": 1069,
      "घर": 1070,
      "२०": 1071,
      "क्टर": 1072,
      "कार्र": 1073,
      "संसद": 1074,
      "मिले": 1075,
      "दूर": 1076,
      "दर्शन": 1077,
      "मुशर्रफ": 1078,
      "तों": 1079,
      "दों": 1080,
      "पानी": 1081,
      "कराने": 1082,
      "व्यक्ति": 1083,
      "कार्रवाई": 1084,
      "आदेश": 1085,
      "कद": 1086,
      "रें": 1087,
      "सान": 1088,
      "सीबी": 1089,
      "मिक": 1090,
      "त्ता": 1091,
      "चुके": 1092,
      "उसने": 1093,
      "मारे": 1094,
      "ट्रो": 1095,
      "समझौ": 1096,
      "रविवार": 1097,
      "दारी": 1098,
      "पश्": 1099,
      "पड़ा": 1100,
      "सें": 1101,
      "हत्या": 1102,
      "ीय": 1103,
      "प्रकाश": 1104,
      "निदेश": 1105,
      "वार्ता": 1106,
      "जरिए": 1107,
      "अच्": 1108,
      "पट": 1109,
      "भग": 1110,
      "वक्ता": 1111,
      "वाज": 1112,
      "मंदि": 1113,
      "्यालय": 1114,
      "जैसे": 1115,
      "सम्मे": 1116,
      "गै": 1117,
      "धिकार": 1118,
      "हू": 1119,
      "जिसमें": 1120,
      "चर्चा": 1121,
      "नो": 1122,
      "लब्": 1123,
      "विक": 1124,
      "आतंकी": 1125,
      "सम्मेलन": 1126,
      "IN": 1127,
      "JO": 1128,
      "मण": 1129,
      "हल": 1130,
      "१०": 1131,
      "समे": 1132,
      "गौरतलब": 1133,
      "JOIN": 1134,
      "तौर": 1135,
      "नाग": 1136,
      "वाह": 1137,
      "दिखा": 1138,
      "तेमाल": 1139,
      "सुप्री": 1140,
      "सरकारी": 1141,
      "उपलब्": 1142,
      "रखने": 1143,
      "इस्तेमाल": 1144,
      "अंतर्रा": 1145,
      "कमी": 1146,
      "दन": 1147,
      "रल": 1148,
      "शर्": 1149,
      "लेख": 1150,
      "माना": 1151,
      "संभावना": 1152,
      "पीठ": 1153,
      "पर्य": 1154,
      "रेलवे": 1155,
      "लैंड": 1156,
      "पश्चि": 1157,
      "कपा": 1158,
      "ग्": 1159,
      "गढ़": 1160,
      "जल्": 1161,
      "दलों": 1162,
      "भो": 1163,
      "स्तर": 1164,
      "विस्": 1165,
      "बाहर": 1166,
      "ष्ट्रीय": 1167,
      "मैं": 1168,
      "महत्व": 1169,
      "अभिया": 1170,
      "प्रभावित": 1171,
      "समेत": 1172,
      "छोड़": 1173,
      "ध्य": 1174,
      "फर": 1175,
      "वाला": 1176,
      "परमाण": 1177,
      "प्रो": 1178,
      "संस्था": 1179,
      "सैन": 1180,
      "चाहते": 1181,
      "परमाणु": 1182,
      "छह": 1183,
      "त्य": 1184,
      "नए": 1185,
      "वल": 1186,
      "कां": 1187,
      "हाथ": 1188,
      "माह": 1189,
      "क्रि": 1190,
      "लोकसभा": 1191,
      "अंतर्राष्ट्रीय": 1192,
      "कत": 1193,
      "ख्": 1194,
      "जों": 1195,
      "जहां": 1196,
      "ुक": 1197,
      "ारे": 1198,
      "इसलिए": 1199,
      "शांति": 1200,
      "कुल": 1201,
      "उसकी": 1202,
      "म्मे": 1203,
      "निर्देश": 1204,
      "आतंकियों": 1205,
      "भूमिका": 1206,
      "महीने": 1207,
      "भिन्न": 1208,
      "अहम": 1209,
      "तम": 1210,
      "तय": 1211,
      "सल": 1212,
      "सेवा": 1213,
      "विवाद": 1214,
      "पूरे": 1215,
      "उपलब्ध": 1216,
      "इट": 1217,
      "धु": 1218,
      "सहम": 1219,
      "भारी": 1220,
      "पत्रकारों": 1221,
      "अभियान": 1222,
      "ंटे": 1223,
      "फल": 1224,
      "राध": 1225,
      "संगठन": 1226,
      "धानी": 1227,
      "पाकिस्तानी": 1228,
      "जोर": 1229,
      "मूल": 1230,
      "ग्रह": 1231,
      "मंदिर": 1232,
      "आया": 1233,
      "डिया": 1234,
      "न्यू": 1235,
      "समु": 1236,
      "दिनों": 1237,
      "सुना": 1238,
      "शिव": 1239,
      "कंपनियों": 1240,
      "सदस्यों": 1241,
      "कला": 1242,
      "बचा": 1243,
      "विभिन्न": 1244,
      "कृति": 1245,
      "घु": 1246,
      "जल": 1247,
      "नेट": 1248,
      "कीमत": 1249,
      "करार": 1250,
      "नाथ": 1251,
      "विष": 1252,
      "भाई": 1253,
      "जिम्मे": 1254,
      "स्टि": 1255,
      "उत्पा": 1256,
      "भेज": 1257,
      "हाईकोर्ट": 1258,
      "वापस": 1259,
      "सुनवाई": 1260,
      "ग्री": 1261,
      "छो": 1262,
      "िज": 1263,
      "१५": 1264,
      "वादियों": 1265,
      "होता": 1266,
      "मानना": 1267,
      "मौके": 1268,
      "बनाया": 1269,
      "जून": 1270,
      "योजित": 1271,
      "जल्द": 1272,
      "बड़े": 1273,
      "परी": 1274,
      "प्रवक्ता": 1275,
      "तिम": 1276,
      "भीर": 1277,
      "मुस्": 1278,
      "दावा": 1279,
      "राजधानी": 1280,
      "लगाने": 1281,
      "स्थ्य": 1282,
      "अंतिम": 1283,
      "फोट": 1284,
      "स्वीकार": 1285,
      "गंभीर": 1286,
      "नगर": 1287,
      "फ्र": 1288,
      "राय": 1289,
      "रिक": 1290,
      "गिरफ्तार": 1291,
      "सुप्रीम": 1292,
      "एच": 1293,
      "खबर": 1294,
      "तन": 1295,
      "१२": 1296,
      "लाने": 1297,
      "जाम": 1298,
      "सात": 1299,
      "बिज": 1300,
      "बेह": 1301,
      "निर्माण": 1302,
      "पहुंचा": 1303,
      "लगभग": 1304,
      "स्वास्थ्य": 1305,
      "बढ़ाने": 1306,
      "गैर": 1307,
      "अल": 1308,
      "आयोजित": 1309,
      "इल": 1310,
      "धे": 1311,
      "षण": 1312,
      "ैल": 1313,
      "स्प": 1314,
      "लागू": 1315,
      "निका": 1316,
      "ंद्र": 1317,
      "पहली": 1318,
      "राज्यपाल": 1319,
      "ष्ण": 1320,
      "खुद": 1321,
      "ध्यान": 1322,
      "ंबर": 1323,
      "हथि": 1324,
      "देना": 1325,
      "साफ": 1326,
      "निधि": 1327,
      "मंत्रियों": 1328,
      "१९९": 1329,
      "हथियार": 1330,
      "उमा": 1331,
      "कल": 1332,
      "भव": 1333,
      "वित्त": 1334,
      "होती": 1335,
      "क्षित": 1336,
      "रहने": 1337,
      "मीडिया": 1338,
      "हमले": 1339,
      "मौसम": 1340,
      "खू": 1341,
      "टिक": 1342,
      "बदल": 1343,
      "लु": 1344,
      "वक्त": 1345,
      "सलाह": 1346,
      "राहत": 1347,
      "पेयी": 1348,
      "महासचिव": 1349,
      "न्याय": 1350,
      "वाजपेयी": 1351,
      "आग": 1352,
      "बच्च": 1353,
      "मना": 1354,
      "वकी": 1355,
      "रानी": 1356,
      "परे": 1357,
      "लिम": 1358,
      "दाय": 1359,
      "चान": 1360,
      "ंडी": 1361,
      "हम्": 1362,
      "पंजा": 1363,
      "बावजूद": 1364,
      "कदम": 1365,
      "तला": 1366,
      "लौ": 1367,
      "क्ट": 1368,
      "निवेश": 1369,
      "मिला": 1370,
      "मीटर": 1371,
      "खान": 1372,
      "मोहम्": 1373,
      "कर्म": 1374,
      "टिल": 1375,
      "आम": 1376,
      "गति": 1377,
      "ील": 1378,
      "ृत": 1379,
      "इनमें": 1380,
      "इस्ती": 1381,
      "द्योग": 1382,
      "सीबीआई": 1383,
      "महत्वपूर्ण": 1384,
      "मुस्लिम": 1385,
      "स्पष्ट": 1386,
      "मोहम्मद": 1387,
      "खार": 1388,
      "जस्टि": 1389,
      "तब": 1390,
      "दबाव": 1391,
      "ौल": 1392,
      "मीण": 1393,
      "चीन": 1394,
      "हारा": 1395,
      "देखते": 1396,
      "जताई": 1397,
      "ग्रामीण": 1398,
      "बिजली": 1399,
      "जस्टिस": 1400,
      "अति": 1401,
      "आर्थ": 1402,
      "एयर": 1403,
      "खी": 1404,
      "चै": 1405,
      "बज": 1406,
      "षि": 1407,
      "रिश्": 1408,
      "शाम": 1409,
      "अधि": 1410,
      "शिका": 1411,
      "बैंक": 1412,
      "तंत्र": 1413,
      "गुज": 1414,
      "होंगे": 1415,
      "जगह": 1416,
      "पंजाब": 1417,
      "अप्र": 1418,
      "गैस": 1419,
      "मजब": 1420,
      "ारो": 1421,
      "बाजार": 1422,
      "राजद": 1423,
      "वेज": 1424,
      "थीं": 1425,
      "दुनिया": 1426,
      "प्रेस": 1427,
      "उल्लेख": 1428,
      "मजबू": 1429,
      "घंटे": 1430,
      "जिक": 1431,
      "पड़े": 1432,
      "मध्य": 1433,
      "कार्यालय": 1434,
      "समू": 1435,
      "मौत": 1436,
      "तैना": 1437,
      "मैच": 1438,
      "जरूरी": 1439,
      "इलाकों": 1440,
      "नारा": 1441,
      "प्ताह": 1442,
      "आर्थिक": 1443,
      "अर्": 1444,
      "उपा": 1445,
      "तारी": 1446,
      "धर": 1447,
      "पन": 1448,
      "बरा": 1449,
      "हमें": 1450,
      "ारा": 1451,
      "जाती": 1452,
      "विज्ञा": 1453,
      "सदन": 1454,
      "बनाए": 1455,
      "अब्": 1456,
      "गठबंधन": 1457,
      "अंतरि": 1458,
      "गुजरात": 1459,
      "सत्ता": 1460,
      "त्री": 1461,
      "साद": 1462,
      "पाक": 1463,
      "सुर": 1464,
      "हिरा": 1465,
      "हमला": 1466,
      "मार्ग": 1467,
      "खरीद": 1468,
      "हूं": 1469,
      "तरा": 1470,
      "फै": 1471,
      "महारा": 1472,
      "लगे": 1473,
      "लहाल": 1474,
      "वृ": 1475,
      "श्य": 1476,
      "हरिया": 1477,
      "ेंस": 1478,
      "दिसं": 1479,
      "चुका": 1480,
      "स्थानीय": 1481,
      "जेल": 1482,
      "क्षेत्रों": 1483,
      "पासवान": 1484,
      "कृष्ण": 1485,
      "घायल": 1486,
      "यंत्र": 1487,
      "निदेशक": 1488,
      "दिसंबर": 1489,
      "00": 1490,
      "आय": 1491,
      "डर": 1492,
      "धित": 1493,
      "हवाई": 1494,
      "३०": 1495,
      "विमान": 1496,
      "लिक": 1497,
      "सिक": 1498,
      "मान्य": 1499,
      "कृषि": 1500,
      "करेगी": 1501,
      "आतंकवाद": 1502,
      "शिकायत": 1503,
      "एक्स": 1504,
      "जम": 1505,
      "मर": 1506,
      "सही": 1507,
      "२५": 1508,
      "काली": 1509,
      "स्कू": 1510,
      "र्स": 1511,
      "हासिल": 1512,
      "निजी": 1513,
      "क्षि": 1514,
      "मंत्रि": 1515,
      "तकनी": 1516,
      "जिससे": 1517,
      "महल": 1518,
      "इलाके": 1519,
      "इराक": 1520,
      "मसले": 1521,
      "विस्फोट": 1522,
      "बच्चों": 1523,
      "देर": 1524,
      "पूछ": 1525,
      "जिला": 1526,
      "चुकी": 1527,
      "लगातार": 1528,
      "फिलहाल": 1529,
      "स्टेशन": 1530,
      "सहमति": 1531,
      "खूब": 1532,
      "उच्च": 1533,
      "ऑफ": 1534,
      "गम": 1535,
      "जमा": 1536,
      "पथ": 1537,
      "किलो": 1538,
      "प्रदर्शन": 1539,
      "माकपा": 1540,
      "देव": 1541,
      "तिहा": 1542,
      "्हें": 1543,
      "सुविधा": 1544,
      "दुल": 1545,
      "संबंधित": 1546,
      "दूसरी": 1547,
      "इंडिया": 1548,
      "नटवर": 1549,
      "टो": 1550,
      "ढा": 1551,
      "दक्षि": 1552,
      "सत्र": 1553,
      "हे": 1554,
      "वाम": 1555,
      "वालों": 1556,
      "जाय": 1557,
      "ड़ों": 1558,
      "सिर्फ": 1559,
      "दीन": 1560,
      "समारो": 1561,
      "द्या": 1562,
      "हिं": 1563,
      "शुरु": 1564,
      "पेट्रो": 1565,
      "बुश": 1566,
      "विधाय": 1567,
      "खारिज": 1568,
      "अप्रैल": 1569,
      "हरियाणा": 1570,
      "दस": 1571,
      "पल": 1572,
      "फार": 1573,
      "मता": 1574,
      "यां": 1575,
      "प्रसाद": 1576,
      "कार्": 1577,
      "नियंत्र": 1578,
      "होना": 1579,
      "अपराध": 1580,
      "बारा": 1581,
      "इनकार": 1582,
      "धारा": 1583,
      "देखने": 1584,
      "खंडपीठ": 1585,
      "हिस्सा": 1586,
      "अर": 1587,
      "अनि": 1588,
      "चने": 1589,
      "नती": 1590,
      "नक्स": 1591,
      "बने": 1592,
      "बड़ा": 1593,
      "पाटिल": 1594,
      "अमर": 1595,
      "समझौते": 1596,
      "सुनामी": 1597,
      "विधायकों": 1598,
      "अड्": 1599,
      "डो": 1600,
      "धर्म": 1601,
      "मई": 1602,
      "सप्ताह": 1603,
      "ेंद्र": 1604,
      "दिव": 1605,
      "मंजू": 1606,
      "समी": 1607,
      "पीछे": 1608,
      "जनवरी": 1609,
      "उसका": 1610,
      "जाएंगे": 1611,
      "योजन": 1612,
      "परियोजना": 1613,
      "प्रतिनिधि": 1614,
      "निर्ण": 1615,
      "चलते": 1616,
      "पहुंचे": 1617,
      "विशेषज्ञ": 1618,
      "त्मक": 1619,
      "घुस": 1620,
      "बजट": 1621,
      "शुरुआ": 1622,
      "उद्": 1623,
      "उड़ा": 1624,
      "कभी": 1625,
      "खर्": 1626,
      "झे": 1627,
      "तत्": 1628,
      "बच्": 1629,
      "ूबर": 1630,
      "करके": 1631,
      "पाया": 1632,
      "ष्टि": 1633,
      "भेजा": 1634,
      "न्याया": 1635,
      "पत्ति": 1636,
      "मणि": 1637,
      "मंत्रिमंडल": 1638,
      "खूबसू": 1639,
      "समारोह": 1640,
      "अस्": 1641,
      "आव": 1642,
      "ऐसी": 1643,
      "यदा": 1644,
      "लॉ": 1645,
      "र्ष": 1646,
      "प्रशासन": 1647,
      "तेल": 1648,
      "ट्रेन": 1649,
      "उल्लेखनीय": 1650,
      "तैनात": 1651,
      "निर्णय": 1652,
      "बर्": 1653,
      "वत": 1654,
      "हरी": 1655,
      "१४": 1656,
      "ताछ": 1657,
      "ताप": 1658,
      "स्टी": 1659,
      "लाइन": 1660,
      "विजय": 1661,
      "लिंग": 1662,
      "अपील": 1663,
      "खास": 1664,
      "सूची": 1665,
      "लगाए": 1666,
      "परिष": 1667,
      "संबंधी": 1668,
      "चाहती": 1669,
      "करेगा": 1670,
      "शर्मा": 1671,
      "समूह": 1672,
      "अय": 1673,
      "आश्": 1674,
      "बम": 1675,
      "मति": 1676,
      "वें": 1677,
      "सड़": 1678,
      "सफल": 1679,
      "५०": 1680,
      "करें": 1681,
      "र्ज": 1682,
      "र्श": 1683,
      "बाजी": 1684,
      "संपत्ति": 1685,
      "हिंद": 1686,
      "ियां": 1687,
      "स्थाप": 1688,
      "मार्च": 1689,
      "व्यापार": 1690,
      "वकील": 1691,
      "पूछताछ": 1692,
      "परिषद": 1693,
      "अंदर": 1694,
      "गलत": 1695,
      "झार": 1696,
      "डु": 1697,
      "११": 1698,
      "लाभ": 1699,
      "लाया": 1700,
      "विद्या": 1701,
      "्याज": 1702,
      "चुनौ": 1703,
      "पहचान": 1704,
      "एसएस": 1705,
      "खिल": 1706,
      "शेख": 1707,
      "टिस": 1708,
      "उत्पादन": 1709,
      "दक्षिण": 1710,
      "नियंत्रण": 1711,
      "आं": 1712,
      "खत्म": 1713,
      "चो": 1714,
      "चंद्र": 1715,
      "छी": 1716,
      "जॉ": 1717,
      "डू": 1718,
      "रै": 1719,
      "सरा": 1720,
      "वाही": 1721,
      "लाय": 1722,
      "साधन": 1723,
      "निशा": 1724,
      "तेज": 1725,
      "त्ति": 1726,
      "शिया": 1727,
      "हरण": 1728,
      "दौरे": 1729,
      "जोशी": 1730,
      "०००": 1731,
      "डाल": 1732,
      "भूकंप": 1733,
      "द्धि": 1734,
      "सहित": 1735,
      "पत्नी": 1736,
      "असम": 1737,
      "इत": 1738,
      "ट्ट": 1739,
      "नर": 1740,
      "सजा": 1741,
      "ियत": 1742,
      "ताकि": 1743,
      "र्जा": 1744,
      "राशि": 1745,
      "लान": 1746,
      "देवी": 1747,
      "हुर्र": 1748,
      "द्धा": 1749,
      "शाह": 1750,
      "शनल": 1751,
      "कर्ताओं": 1752,
      "फोन": 1753,
      "रोकने": 1754,
      "कृतिक": 1755,
      "खर्च": 1756,
      "हुर्रियत": 1757,
      "ट्": 1758,
      "बंग": 1759,
      "भु": 1760,
      "्यर": 1761,
      "प्रबंध": 1762,
      "विस्त": 1763,
      "मित": 1764,
      "मियों": 1765,
      "रिक्त": 1766,
      "ष्ट्र": 1767,
      "मानसू": 1768,
      "चिं": 1769,
      "शिक्षा": 1770,
      "मिलना": 1771,
      "दर्श": 1772,
      "कराया": 1773,
      "टिंग": 1774,
      "प्राप्त": 1775,
      "डॉक्टर": 1776,
      "ार्थ": 1777,
      "ब्रि": 1778,
      "महाराष्ट्र": 1779,
      "चुनौती": 1780,
      "लायंस": 1781,
      "ब्याज": 1782,
      "मक": 1783,
      "यही": 1784,
      "सहा": 1785,
      "हरे": 1786,
      "१६": 1787,
      "र्य": 1788,
      "माओ": 1789,
      "संवाद": 1790,
      "त्ती": 1791,
      "ल्ड": 1792,
      "बताते": 1793,
      "इंत": 1794,
      "इंटर": 1795,
      "नागरिक": 1796,
      "स्कूल": 1797,
      "कमे": 1798,
      "दरा": 1799,
      "फॉ": 1800,
      "लर": 1801,
      "लगी": 1802,
      "हाद": 1803,
      "मानों": 1804,
      "कारा": 1805,
      "लिख": 1806,
      "देखा": 1807,
      "सामान्य": 1808,
      "तेजी": 1809,
      "रिलायंस": 1810,
      "पूछे": 1811,
      "पुरा": 1812,
      "मानव": 1813,
      "जनरल": 1814,
      "मामलों": 1815,
      "उपकरण": 1816,
      "दुर्": 1817,
      "पहुँ": 1818,
      "आरक्षण": 1819,
      "जिसके": 1820,
      "स्वागत": 1821,
      "सौं": 1822,
      "एजेंसी": 1823,
      "संस्थानों": 1824,
      "क्रिकेट": 1825,
      "अस्पता": 1826,
      "अय्यर": 1827,
      "झारखंड": 1828,
      "असर": 1829,
      "आस": 1830,
      "उद्योग": 1831,
      "गें": 1832,
      "गरी": 1833,
      "नुक": 1834,
      "फिया": 1835,
      "बत": 1836,
      "केवल": 1837,
      "किसा": 1838,
      "र्क": 1839,
      "माने": 1840,
      "नियम": 1841,
      "पाई": 1842,
      "सियों": 1843,
      "सितं": 1844,
      "भाष": 1845,
      "सुधार": 1846,
      "पुन": 1847,
      "दोपह": 1848,
      "जुड़े": 1849,
      "जुलाई": 1850,
      "डिग्री": 1851,
      "सौंप": 1852,
      "तरीके": 1853,
      "कांफ्र": 1854,
      "जिम्मेदार": 1855,
      "इस्तीफा": 1856,
      "मजबूत": 1857,
      "मानसून": 1858,
      "नुकसान": 1859,
      "किसानों": 1860,
      "सितंबर": 1861,
      "दोपहर": 1862,
      "छु": 1863,
      "नल": 1864,
      "नतम": 1865,
      "पौ": 1866,
      "बहर": 1867,
      "मद्": 1868,
      "लित": 1869,
      "संबो": 1870,
      "संसदी": 1871,
      "संसाधन": 1872,
      "होते": 1873,
      "राजस्थान": 1874,
      "वीं": 1875,
      "रुख": 1876,
      "युव": 1877,
      "अनुमति": 1878,
      "गोली": 1879,
      "मुद्दों": 1880,
      "जवानों": 1881,
      "पंचा": 1882,
      "आतंकवादी": 1883,
      "पश्चिम": 1884,
      "पश्चिमी": 1885,
      "सैन्य": 1886,
      "न्यूनतम": 1887,
      "अतिरिक्त": 1888,
      "जमकर": 1889,
      "किलोमीटर": 1890,
      "बहरहाल": 1891,
      "मद्दे": 1892,
      "संसदीय": 1893,
      "आठ": 1894,
      "इजा": 1895,
      "यता": 1896,
      "रवा": 1897,
      "लक्ष": 1898,
      "१८": 1899,
      "मेंट": 1900,
      "काब": 1901,
      "स्कार": 1902,
      "नाटक": 1903,
      "मांड": 1904,
      "मुं": 1905,
      "दाताओं": 1906,
      "ंग्": 1907,
      "ल्स": 1908,
      "बिना": 1909,
      "छात्रों": 1910,
      "पैदा": 1911,
      "वैज्ञा": 1912,
      "समाधान": 1913,
      "सांसदों": 1914,
      "वृद्धि": 1915,
      "कालीन": 1916,
      "ंदी": 1917,
      "अल्प": 1918,
      "आंक": 1919,
      "ऊपर": 1920,
      "ऊर्जा": 1921,
      "टै": 1922,
      "टों": 1923,
      "धू": 1924,
      "नवं": 1925,
      "ब्रा": 1926,
      "बंगा": 1927,
      "हवा": 1928,
      "२१": 1929,
      "केत": 1930,
      "करता": 1931,
      "ताल": 1932,
      "राब": 1933,
      "वायु": 1934,
      "साब": 1935,
      "संजय": 1936,
      "संविधान": 1937,
      "संकेत": 1938,
      "मिनट": 1939,
      "सित": 1940,
      "ंगी": 1941,
      "जिस्ट": 1942,
      "पीड़": 1943,
      "रोजग": 1944,
      "आईएम": 1945,
      "पूर्ति": 1946,
      "व्यक्त": 1947,
      "कंप्यू": 1948,
      "मतदान": 1949,
      "विदेशी": 1950,
      "विश्वास": 1951,
      "ठीक": 1952,
      "नोटिस": 1953,
      "अस्पताल": 1954,
      "नवंबर": 1955,
      "अक्त": 1956,
      "चरण": 1957,
      "तस्वी": 1958,
      "धरी": 1959,
      "पड़ी": 1960,
      "फु": 1961,
      "मॉ": 1962,
      "शत": 1963,
      "नेपाल": 1964,
      "वामद": 1965,
      "प्रि": 1966,
      "जाते": 1967,
      "पाने": 1968,
      "संभव": 1969,
      "होकर": 1970,
      "दायर": 1971,
      "सुझा": 1972,
      "जिसे": 1973,
      "दोबारा": 1974,
      "श्चित": 1975,
      "हमारे": 1976,
      "चार्य": 1977,
      "खुला": 1978,
      "रखे": 1979,
      "खेल": 1980,
      "संख्य": 1981,
      "विरोधी": 1982,
      "कलाम": 1983,
      "लौट": 1984,
      "अंतरिक्ष": 1985,
      "बच्चे": 1986,
      "संबोधित": 1987,
      "बंगाल": 1988,
      "अक्तूबर": 1989,
      "आदि": 1990,
      "आगा": 1991,
      "आशं": 1992,
      "उजा": 1993,
      "कड़ी": 1994,
      "चले": 1995,
      "बॉ": 1996,
      "भविष": 1997,
      "मारी": 1998,
      "्मिक": 1999,
      "करनी": 2000,
      "निपट": 2001,
      "निगम": 2002,
      "बाल": 2003,
      "उनसे": 2004,
      "हुसैन": 2005,
      "सीपी": 2006,
      "उससे": 2007,
      "टेड": 2008,
      "न्हा": 2009,
      "धार्मिक": 2010,
      "सार्": 2011,
      "महाजन": 2012,
      "स्वामी": 2013,
      "२००४": 2014,
      "हटाने": 2015,
      "अच्छी": 2016,
      "पर्यटन": 2017,
      "बचाव": 2018,
      "एक्सप्रेस": 2019,
      "कमेटी": 2020,
      "कांफ्रेंस": 2021,
      "आशंका": 2022,
      "भविष्य": 2023,
      "ंदा": 2024,
      "कं": 2025,
      "धियों": 2026,
      "भरो": 2027,
      "यद": 2028,
      "यारी": 2029,
      "लंब": 2030,
      "िका": 2031,
      "नेशनल": 2032,
      "करती": 2033,
      "देकर": 2034,
      "भीड़": 2035,
      "संगठ": 2036,
      "क्षमता": 2037,
      "सरों": 2038,
      "दाम": 2039,
      "मीन": 2040,
      "राज्यसभा": 2041,
      "मुखर्जी": 2042,
      "मोदी": 2043,
      "युद्ध": 2044,
      "दौर": 2045,
      "मनो": 2046,
      "खुफिया": 2047,
      "आपत्ति": 2048,
      "पैठ": 2049,
      "प्रस्तावित": 2050,
      "उठाया": 2051,
      "खूबसूरत": 2052,
      "चिंता": 2053,
      "अल्पसंख्य": 2054,
      "आंध": 2055,
      "ख्या": 2056,
      "दवा": 2057,
      "पॉ": 2058,
      "भवन": 2059,
      "हस्ता": 2060,
      "१३": 2061,
      "१७": 2062,
      "स्पी": 2063,
      "वासी": 2064,
      "प्रत्य": 2065,
      "लियम": 2066,
      "त्रियों": 2067,
      "क्षक": 2068,
      "सिन्हा": 2069,
      "राजी": 2070,
      "द्वी": 2071,
      "टेल": 2072,
      "कराए": 2073,
      "महिलाओं": 2074,
      "बदला": 2075,
      "धीश": 2076,
      "अहमद": 2077,
      "बेहद": 2078,
      "टिकट": 2079,
      "अब्दुल": 2080,
      "श्यक": 2081,
      "शुरुआत": 2082,
      "तापमान": 2083,
      "विद्यालय": 2084,
      "रवाना": 2085,
      "इतिहा": 2086,
      "तमिलना": 2087,
      "पण": 2088,
      "भ्र": 2089,
      "मर्श": 2090,
      "रन": 2091,
      "हॉ": 2092,
      "हारी": 2093,
      "विमर्श": 2094,
      "निकों": 2095,
      "पाए": 2096,
      "दिशा": 2097,
      "संपर्": 2098,
      "मुझे": 2099,
      "मुकाब": 2100,
      "होनी": 2101,
      "होटल": 2102,
      "जीवन": 2103,
      "चुना": 2104,
      "आईआर": 2105,
      "चीनी": 2106,
      "अंबा": 2107,
      "मौका": 2108,
      "चुनावों": 2109,
      "अगस्त": 2110,
      "घुसपैठ": 2111,
      "सड़क": 2112,
      "कंप्यूटर": 2113,
      "आंध्र": 2114,
      "इतिहास": 2115,
      "तमिलनाडु": 2116,
      "आयोजन": 2117,
      "आपूर्ति": 2118,
      "चली": 2119,
      "छू": 2120,
      "जमान": 2121,
      "ट्टी": 2122,
      "तू": 2123,
      "तमाम": 2124,
      "दृ": 2125,
      "नंद": 2126,
      "पढ़": 2127,
      "फू": 2128,
      "बल्": 2129,
      "ब्यू": 2130,
      "लड़ा": 2131,
      "ह्": 2132,
      "हफ्": 2133,
      "ियन": 2134,
      "कित्": 2135,
      "कांड": 2136,
      "्यो": 2137,
      "प्रबंधन": 2138,
      "सामा": 2139,
      "संशो": 2140,
      "सीसी": 2141,
      "सिर": 2142,
      "सुल": 2143,
      "पुष्टि": 2144,
      "बीएस": 2145,
      "मेल": 2146,
      "बारी": 2147,
      "वीर": 2148,
      "चिकित्": 2149,
      "स्थानों": 2150,
      "दूरी": 2151,
      "जुन": 2152,
      "तैयारी": 2153,
      "योजनाओं": 2154,
      "उठाए": 2155,
      "माहौल": 2156,
      "मूल्य": 2157,
      "बेहतर": 2158,
      "हथियारों": 2159,
      "तलाश": 2160,
      "बरामद": 2161,
      "हिंसा": 2162,
      "पेट्रोलियम": 2163,
      "आवश्यक": 2164,
      "संगठनों": 2165,
      "संपर्क": 2166,
      "दस्ता": 2167,
      "धमा": 2168,
      "ध्यक्ष": 2169,
      "नंबर": 2170,
      "लना": 2171,
      "ौती": 2172,
      "४०": 2173,
      "नें": 2174,
      "कित": 2175,
      "नाय": 2176,
      "र्ति": 2177,
      "प्रभाव": 2178,
      "लिका": 2179,
      "पान": 2180,
      "दास": 2181,
      "समक्ष": 2182,
      "शिवि": 2183,
      "चारियों": 2184,
      "टेस्ट": 2185,
      "स्थल": 2186,
      "कार्यवाही": 2187,
      "च्चा": 2188,
      "उत्तरी": 2189,
      "निर्धार": 2190,
      "शेयर": 2191,
      "इस्ला": 2192,
      "लंका": 2193,
      "सर्वे": 2194,
      "सिलसि": 2195,
      "श्रद्धा": 2196,
      "हिस्से": 2197,
      "फरवरी": 2198,
      "परीक्षा": 2199,
      "सलाहकार": 2200,
      "कर्मचारियों": 2201,
      "मंजूरी": 2202,
      "न्यायाधीश": 2203,
      "जॉर्ज": 2204,
      "पुनर्": 2205,
      "मद्देनजर": 2206,
      "रोजगार": 2207,
      "सुझाव": 2208,
      "आयुक्त": 2209,
      "एशिया": 2210,
      "कही": 2211,
      "ग्रे": 2212,
      "टकों": 2213,
      "दंबर": 2214,
      "नया": 2215,
      "पटना": 2216,
      "बनी": 2217,
      "शौ": 2218,
      "शक्ति": 2219,
      "सपा": 2220,
      "समान": 2221,
      "यात्रियों": 2222,
      "स्की": 2223,
      "वाया": 2224,
      "लादेश": 2225,
      "प्रणा": 2226,
      "प्रदान": 2227,
      "त्रि": 2228,
      "ड़ने": 2229,
      "दाखिल": 2230,
      "पीएफ": 2231,
      "दोष": 2232,
      "चिदंबर": 2233,
      "पार्ट": 2234,
      "बिनेट": 2235,
      "स्थग": 2236,
      "उपभो": 2237,
      "यूनि": 2238,
      "मूर्ति": 2239,
      "कर्ता": 2240,
      "चलने": 2241,
      "पहुंचने": 2242,
      "विधायक": 2243,
      "उम्मीदवार": 2244,
      "रेंद्र": 2245,
      "रिश्ते": 2246,
      "नाराज": 2247,
      "अर्जुन": 2248,
      "आयकर": 2249,
      "अरब": 2250,
      "सहायता": 2251,
      "अली": 2252,
      "आउ": 2253,
      "धम": 2254,
      "नु": 2255,
      "नदी": 2256,
      "बौ": 2257,
      "शक": 2258,
      "शव": 2259,
      "सौर": 2260,
      "२३": 2261,
      "२८": 2262,
      "वासन": 2263,
      "जाति": 2264,
      "विधे": 2265,
      "लियों": 2266,
      "साइ": 2267,
      "सिफार": 2268,
      "दाबाद": 2269,
      "हमारी": 2270,
      "कर्नाटक": 2271,
      "रखते": 2272,
      "कैबिनेट": 2273,
      "वैध": 2274,
      "प्राव": 2275,
      "हालात": 2276,
      "सामना": 2277,
      "१९८": 2278,
      "शोक": 2279,
      "इंडियन": 2280,
      "चौधरी": 2281,
      "सीटों": 2282,
      "समीक्षा": 2283,
      "प्रणाली": 2284,
      "विधेयक": 2285,
      "उठ": 2286,
      "उसी": 2287,
      "घरों": 2288,
      "चू": 2289,
      "छि": 2290,
      "दमी": 2291,
      "फ्रा": 2292,
      "बच": 2293,
      "लें": 2294,
      "वनी": 2295,
      "शू": 2296,
      "सों": 2297,
      "३१": 2298,
      "यात": 2299,
      "हान": 2300,
      "लेट": 2301,
      "प्रवेश": 2302,
      "लिमि": 2303,
      "निश्चित": 2304,
      "सीय": 2305,
      "अन्": 2306,
      "शिक्षण": 2307,
      "क्रा": 2308,
      "रहेगा": 2309,
      "एसपी": 2310,
      "बिल": 2311,
      "दौरा": 2312,
      "टाने": 2313,
      "गुरु": 2314,
      "अध्यक्षता": 2315,
      "मुद्दा": 2316,
      "चाहता": 2317,
      "समाप्त": 2318,
      "तुर": 2319,
      "विश्वविद्यालय": 2320,
      "व्यापक": 2321,
      "क़ा": 2322,
      "वोट": 2323,
      "श्रीलंका": 2324,
      "हिरासत": 2325,
      "आश्वासन": 2326,
      "भरोसा": 2327,
      "सामाजिक": 2328,
      "सिफारिश": 2329,
      "खन": 2330,
      "गर्": 2331,
      "घरे": 2332,
      "चर": 2333,
      "टू": 2334,
      "ठहरा": 2335,
      "दस्त": 2336,
      "फार्": 2337,
      "बर्फ": 2338,
      "मज": 2339,
      "२४": 2340,
      "६०": 2341,
      "हैदरा": 2342,
      "स्ते": 2343,
      "लेते": 2344,
      "प्रकार": 2345,
      "साह": 2346,
      "निष्": 2347,
      "तिब्": 2348,
      "नीचे": 2349,
      "गाँ": 2350,
      "तीनों": 2351,
      "दाता": 2352,
      "ल्या": 2353,
      "जिलों": 2354,
      "श्न": 2355,
      "ंडे": 2356,
      "इन्": 2357,
      "ंची": 2358,
      "तरफ": 2359,
      "मिलकर": 2360,
      "चारिक": 2361,
      "टेली": 2362,
      "वहार": 2363,
      "वर्त": 2364,
      "कहते": 2365,
      "निकल": 2366,
      "कैसे": 2367,
      "बढ़ावा": 2368,
      "विकल्प": 2369,
      "दिखाई": 2370,
      "धुनिक": 2371,
      "शिवराज": 2372,
      "अड्डे": 2373,
      "दिवसीय": 2374,
      "विशेषज्ञों": 2375,
      "पंचायत": 2376,
      "वैज्ञानिक": 2377,
      "पीड़ित": 2378,
      "निपटने": 2379,
      "लंबित": 2380,
      "द्वीप": 2381,
      "बदलाव": 2382,
      "चिदंबरम": 2383,
      "बौद्ध": 2384,
      "लिमिटेड": 2385,
      "हैदराबाद": 2386,
      "अजी": 2387,
      "इम": 2388,
      "एंड": 2389,
      "गयी": 2390,
      "घन": 2391,
      "जद": 2392,
      "जित": 2393,
      "मल": 2394,
      "्वी": 2395,
      "२६": 2396,
      "कोल": 2397,
      "तान": 2398,
      "हालत": 2399,
      "प्रत्या": 2400,
      "साध": 2401,
      "ड़ियों": 2402,
      "तीसर": 2403,
      "लील": 2404,
      "ल्ला": 2405,
      "िकल": 2406,
      "स्तान": 2407,
      "रेखा": 2408,
      "पहल": 2409,
      "टेन": 2410,
      "प्ला": 2411,
      "मौजू": 2412,
      "च्छ": 2413,
      "पिता": 2414,
      "उपयोग": 2415,
      "शील": 2416,
      "आरएसएस": 2417,
      "पक्षों": 2418,
      "घाटी": 2419,
      "बनने": 2420,
      "आरोपों": 2421,
      "एफबी": 2422,
      "स्वतंत्र": 2423,
      "ड्डी": 2424,
      "रणनीति": 2425,
      "बदले": 2426,
      "अफसरों": 2427,
      "सहयोगी": 2428,
      "जिम्मेदारी": 2429,
      "सुरक्षित": 2430,
      "तकनीक": 2431,
      "अनिल": 2432,
      "तत्काल": 2433,
      "साबित": 2434,
      "जमानत": 2435,
      "हफ्ते": 2436,
      "नायडू": 2437,
      "आउट": 2438,
      "तुरंत": 2439,
      "गाँव": 2440,
      "वर्तमान": 2441,
      "ंज": 2442,
      "अंड": 2443,
      "आखि": 2444,
      "आनंद": 2445,
      "कौ": 2446,
      "कप्ता": 2447,
      "चंडी": 2448,
      "दें": 2449,
      "बद्ध": 2450,
      "यण": 2451,
      "ेक": 2452,
      "केश": 2453,
      "केरल": 2454,
      "ताज": 2455,
      "नामा": 2456,
      "प्रमो": 2457,
      "जानी": 2458,
      "जाहिरा": 2459,
      "मां": 2460,
      "बांग्": 2461,
      "क्षर": 2462,
      "द्विपक्ष": 2463,
      "अपहरण": 2464,
      "हिमा": 2465,
      "हमने": 2466,
      "बिहारी": 2467,
      "पूर्वी": 2468,
      "वर्ग": 2469,
      "बढ़ो": 2470,
      "प्रतिशत": 2471,
      "कराई": 2472,
      "रखी": 2473,
      "डिजा": 2474,
      "जवान": 2475,
      "पंथी": 2476,
      "स्वयं": 2477,
      "वापसी": 2478,
      "अच्छा": 2479,
      "समुद्र": 2480,
      "निशाना": 2481,
      "विस्तार": 2482,
      "आगामी": 2483,
      "उजाला": 2484,
      "भ्रष्ट": 2485,
      "मुकाबले": 2486,
      "अंबानी": 2487,
      "ब्यूरो": 2488,
      "मौजूदा": 2489,
      "द्विपक्षीय": 2490,
      "असल": 2491,
      "अवैध": 2492,
      "इश": 2493,
      "कमान": 2494,
      "खड़ा": 2495,
      "खराब": 2496,
      "जंग": 2497,
      "डब्": 2498,
      "थो": 2499,
      "दंड": 2500,
      "पृ": 2501,
      "पचारिक": 2502,
      "बहि": 2503,
      "बलों": 2504,
      "मों": 2505,
      "किस": 2506,
      "स्त्र": 2507,
      "राहु": 2508,
      "साझा": 2509,
      "निय": 2510,
      "निर": 2511,
      "भीतर": 2512,
      "संदेश": 2513,
      "संस्थान": 2514,
      "त्कार": 2515,
      "रिंग": 2516,
      "्टर": 2517,
      "द्द": 2518,
      "रहते": 2519,
      "मेड": 2520,
      "एसआई": 2521,
      "वर्तन": 2522,
      "टिथी": 2523,
      "आपसी": 2524,
      "ज़ा": 2525,
      "सैनिक": 2526,
      "पर्या": 2527,
      "घोषित": 2528,
      "कानूनी": 2529,
      "लालकृष्ण": 2530,
      "अफ्री": 2531,
      "कटौती": 2532,
      "मिलेगा": 2533,
      "भेजने": 2534,
      "गंभीरता": 2535,
      "प्रबंधक": 2536,
      "कारात्मक": 2537,
      "भाषा": 2538,
      "स्थगित": 2539,
      "अन्ना": 2540,
      "चंडीगढ़": 2541,
      "बांग्लादेश": 2542,
      "राहुल": 2543,
      "अरु": 2544,
      "अटल": 2545,
      "आते": 2546,
      "आवास": 2547,
      "उचित": 2548,
      "कथ": 2549,
      "कमांड": 2550,
      "खत": 2551,
      "गार": 2552,
      "टॉ": 2553,
      "धिक": 2554,
      "बहा": 2555,
      "प्रचार": 2556,
      "ंगों": 2557,
      "रहती": 2558,
      "ंदो": 2559,
      "शादी": 2560,
      "तरण": 2561,
      "प्रतिबंध": 2562,
      "व्यवहार": 2563,
      "अनुरोध": 2564,
      "फान": 2565,
      "कर्मियों": 2566,
      "वर्षीय": 2567,
      "द्रवि": 2568,
      "प्राकृतिक": 2569,
      "सदस्यी": 2570,
      "वजनिक": 2571,
      "स्वरूप": 2572,
      "जिन्हें": 2573,
      "अवसर": 2574,
      "लाहौर": 2575,
      "समुदाय": 2576,
      "परेशा": 2577,
      "माओवादियों": 2578,
      "सार्वजनिक": 2579,
      "हस्ताक्षर": 2580,
      "सिलसिले": 2581,
      "प्रमोद": 2582,
      "डिजाइन": 2583,
      "मेडिकल": 2584,
      "कथित": 2585,
      "सदस्यीय": 2586,
      "आलो": 2587,
      "आधिकार": 2588,
      "आंदो": 2589,
      "इमार": 2590,
      "ईरान": 2591,
      "उतर": 2592,
      "उग्र": 2593,
      "खतरा": 2594,
      "घ्र": 2595,
      "जज": 2596,
      "झट": 2597,
      "पन्न": 2598,
      "बसा": 2599,
      "म्यू": 2600,
      "रॉ": 2601,
      "शरी": 2602,
      "शपथ": 2603,
      "सका": 2604,
      "२२": 2605,
      "२९": 2606,
      "लास": 2607,
      "प्रसार": 2608,
      "माश": 2609,
      "संभा": 2610,
      "गाड़ी": 2611,
      "सिए": 2612,
      "दाद": 2613,
      "जिद": 2614,
      "अध्य": 2615,
      "पीसी": 2616,
      "इन्हें": 2617,
      "पार्": 2618,
      "मुख्यालय": 2619,
      "जोड़": 2620,
      "बेटी": 2621,
      "कार्यकर्ताओं": 2622,
      "उत्तरा": 2623,
      "डीए": 2624,
      "न्ना": 2625,
      "ष्कार": 2626,
      "शीघ्र": 2627,
      "लगता": 2628,
      "कर्मी": 2629,
      "गिल": 2630,
      "संबंधों": 2631,
      "प्राथ": 2632,
      "पहुंची": 2633,
      "जैसी": 2634,
      "घटनाओं": 2635,
      "२००५": 2636,
      "अमल": 2637,
      "चलाने": 2638,
      "बदमाश": 2639,
      "समझौता": 2640,
      "पर्यटकों": 2641,
      "विषय": 2642,
      "विज्ञान": 2643,
      "संवाददाताओं": 2644,
      "गेंद": 2645,
      "वामदलों": 2646,
      "पार्टियों": 2647,
      "आधिकारिक": 2648,
      "ऊद": 2649,
      "ऐलान": 2650,
      "कल्या": 2651,
      "ख़": 2652,
      "गौ": 2653,
      "गवाह": 2654,
      "देंगे": 2655,
      "नव": 2656,
      "नॉ": 2657,
      "पहा": 2658,
      "रजिस्ट": 2659,
      "लहर": 2660,
      "सवार": 2661,
      "िता": 2662,
      "किल": 2663,
      "स्क": 2664,
      "परंप": 2665,
      "क्शन": 2666,
      "साहित": 2667,
      "पाठ": 2668,
      "संग्र": 2669,
      "दाऊद": 2670,
      "भाकपा": 2671,
      "दीप": 2672,
      "राजमार्ग": 2673,
      "द्दीन": 2674,
      "रहता": 2675,
      "रहेंगे": 2676,
      "पुत्र": 2677,
      "रोह": 2678,
      "मेर": 2679,
      "वेदन": 2680,
      "ंचल": 2681,
      "एसो": 2682,
      "परिणा": 2683,
      "कराचार्य": 2684,
      "शीर्ष": 2685,
      "अग्र": 2686,
      "आपदा": 2687,
      "चेता": 2688,
      "विचारधारा": 2689,
      "सामग्री": 2690,
      "२००३": 2691,
      "समाज": 2692,
      "डॉलर": 2693,
      "लंबी": 2694,
      "सर्व": 2695,
      "आतंकवादियों": 2696,
      "शहरों": 2697,
      "शंकराचार्य": 2698,
      "विपक्षी": 2699,
      "अभियुक्त": 2700,
      "मैंने": 2701,
      "छोटे": 2702,
      "डॉक्टरों": 2703,
      "ब्रिटेन": 2704,
      "गरीब": 2705,
      "खुलासा": 2706,
      "संशोधन": 2707,
      "निर्धारित": 2708,
      "प्रावधान": 2709,
      "घरेलू": 2710,
      "अजीज": 2711,
      "पृथ": 2712,
      "बहिष्कार": 2713,
      "आलोचना": 2714,
      "आंदोलन": 2715,
      "कल्याण": 2716,
      "परंपरा": 2717,
      "ंत्र": 2718,
      "उतार": 2719,
      "उच्चा": 2720,
      "जहाँ": 2721,
      "ठे": 2722,
      "पें": 2723,
      "फ्ट": 2724,
      "बंदी": 2725,
      "लयों": 2726,
      "किसान": 2727,
      "हाबाद": 2728,
      "लानी": 2729,
      "परवेज": 2730,
      "जापान": 2731,
      "मालू": 2732,
      "लिखा": 2733,
      "देगा": 2734,
      "निभा": 2735,
      "मुसल": 2736,
      "मिशन": 2737,
      "सिंग": 2738,
      "ंगु": 2739,
      "पीएस": 2740,
      "रेट": 2741,
      "रेड्डी": 2742,
      "सूस": 2743,
      "तोड़": 2744,
      "लगाई": 2745,
      "स्थायी": 2746,
      "दूसरा": 2747,
      "बढ़ने": 2748,
      "यूरो": 2749,
      "फाय": 2750,
      "गिरा": 2751,
      "कृत": 2752,
      "मैन": 2753,
      "वरण": 2754,
      "इंस": 2755,
      "सैनिकों": 2756,
      "वंत": 2757,
      "खोलने": 2758,
      "नारे": 2759,
      "जिनमें": 2760,
      "अवधि": 2761,
      "श्रीनगर": 2762,
      "आधारित": 2763,
      "पकड़": 2764,
      "हलफ": 2765,
      "पड़ेगा": 2766,
      "नारायण": 2767,
      "तकनीकी": 2768,
      "हिंदू": 2769,
      "हादसे": 2770,
      "छूट": 2771,
      "सुलझा": 2772,
      "उपभोक्ता": 2773,
      "अध्ययन": 2774,
      "अने": 2775,
      "उल": 2776,
      "औपचारिक": 2777,
      "गड़": 2778,
      "जत": 2779,
      "मश": 2780,
      "मृ": 2781,
      "मस्": 2782,
      "रद्द": 2783,
      "श्रे": 2784,
      "ाचार": 2785,
      "ुओं": 2786,
      "कोष": 2787,
      "काउ": 2788,
      "र्वे": 2789,
      "लाना": 2790,
      "लेज": 2791,
      "प्रगति": 2792,
      "मात्रा": 2793,
      "लिहा": 2794,
      "सालों": 2795,
      "नियुक्त": 2796,
      "निवासी": 2797,
      "मुश्": 2798,
      "ल्कर": 2799,
      "रेश": 2800,
      "टीवी": 2801,
      "गेहूं": 2802,
      "स्टार": 2803,
      "अंजाम": 2804,
      "परिवर्तन": 2805,
      "दुका": 2806,
      "जुट": 2807,
      "कर्ष": 2808,
      "पासपोर्ट": 2809,
      "खुश": 2810,
      "गठित": 2811,
      "आपराध": 2812,
      "नियां": 2813,
      "महसूस": 2814,
      "एनसीपी": 2815,
      "पुरस्कार": 2816,
      "मांगी": 2817,
      "इलाहाबाद": 2818,
      "दरअसल": 2819,
      "अमरी": 2820,
      "मुलायम": 2821,
      "समझा": 2822,
      "बहस": 2823,
      "महीनों": 2824,
      "बसपा": 2825,
      "प्रयासों": 2826,
      "संघर्ष": 2827,
      "गिरफ्तारी": 2828,
      "प्रकाशित": 2829,
      "आगरा": 2830,
      "कार्ड": 2831,
      "उद्देश": 2832,
      "स्टील": 2833,
      "सफलता": 2834,
      "प्रत्याशी": 2835,
      "बढ़ोतरी": 2836,
      "प्राथमिक": 2837,
      "मालूम": 2838,
      "आपराधिक": 2839,
      "200": 2840,
      "ँच": 2841,
      "ंभ": 2842,
      "अयो": 2843,
      "ऑपरे": 2844,
      "खर": 2845,
      "गार्": 2846,
      "चयन": 2847,
      "जबर": 2848,
      "ट्यू": 2849,
      "तस्": 2850,
      "धो": 2851,
      "नज": 2852,
      "नज़": 2853,
      "पसं": 2854,
      "पित": 2855,
      "पटेल": 2856,
      "फंड": 2857,
      "बगैर": 2858,
      "रंग": 2859,
      "लेंगे": 2860,
      "वही": 2861,
      "शब्": 2862,
      "िणी": 2863,
      "यात्री": 2864,
      "हैया": 2865,
      "काता": 2866,
      "कायम": 2867,
      "स्‍": 2868,
      "हालय": 2869,
      "लाए": 2870,
      "्यार": 2871,
      "जाद": 2872,
      "जाकर": 2873,
      "माता": 2874,
      "विभा": 2875,
      "वित्ती": 2876,
      "कारिणी": 2877,
      "देरी": 2878,
      "निंग": 2879,
      "नियर": 2880,
      "बाकी": 2881,
      "मुहैया": 2882,
      "क्षकों": 2883,
      "सीडी": 2884,
      "समर्": 2885,
      "सुनी": 2886,
      "सुनिश्चित": 2887,
      "अपह": 2888,
      "पूर": 2889,
      "अधी": 2890,
      "शिकार": 2891,
      "पहला": 2892,
      "जनक": 2893,
      "जन्": 2894,
      "आईआईएम": 2895,
      "लगाव": 2896,
      "युवा": 2897,
      "स्टर": 2898,
      "बेस": 2899,
      "कार्यकारिणी": 2900,
      "आरपीएफ": 2901,
      "कैदियों": 2902,
      "छात्र": 2903,
      "क्षेत्रीय": 2904,
      "वैसे": 2905,
      "नामक": 2906,
      "समर्थकों": 2907,
      "शंकर": 2908,
      "एजेंसियों": 2909,
      "लड़कियों": 2910,
      "गतिवि": 2911,
      "चैपल": 2912,
      "जिक्र": 2913,
      "स्थापित": 2914,
      "राजीव": 2915,
      "शिविर": 2916,
      "दोषी": 2917,
      "धमकी": 2918,
      "तिब्बत": 2919,
      "कोलकाता": 2920,
      "हिमाचल": 2921,
      "संग्रहालय": 2922,
      "एसोसिए": 2923,
      "अनेक": 2924,
      "अयोध्या": 2925,
      "वित्तीय": 2926,
      "आमंत्र": 2927,
      "क्रे": 2928,
      "कल्प": 2929,
      "चारी": 2930,
      "जमीन": 2931,
      "ट्रा": 2932,
      "ठभे": 2933,
      "नक": 2934,
      "नय": 2935,
      "फर्जी": 2936,
      "भंड": 2937,
      "लक": 2938,
      "वस्त": 2939,
      "सारी": 2940,
      "हक": 2941,
      "हड़": 2942,
      "केन्": 2943,
      "किले": 2944,
      "स्को": 2945,
      "वाण": 2946,
      "क्ल": 2947,
      "प्रण": 2948,
      "साइल": 2949,
      "निरा": 2950,
      "संर": 2951,
      "मुना": 2952,
      "मुठभे": 2953,
      "मंच": 2954,
      "मिसाइल": 2955,
      "शाही": 2956,
      "शांत": 2957,
      "बीर": 2958,
      "बताई": 2959,
      "आईटी": 2960,
      "बातें": 2961,
      "स्ट्री": 2962,
      "टाल": 2963,
      "लोर": 2964,
      "च्छा": 2965,
      "प्रतिक्रिया": 2966,
      "दर्जन": 2967,
      "गुप्ता": 2968,
      "न्व": 2969,
      "ब्दी": 2970,
      "जुटे": 2971,
      "फायदा": 2972,
      "वर्षो": 2973,
      "कैया": 2974,
      "डिंग": 2975,
      "भेद": 2976,
      "जैन": 2977,
      "अधिकृत": 2978,
      "उठाने": 2979,
      "शोध": 2980,
      "सम्मान": 2981,
      "वोल्कर": 2982,
      "धिकारी": 2983,
      "छोड़कर": 2984,
      "ख्त": 2985,
      "कीमतों": 2986,
      "पहुंचाने": 2987,
      "बदलने": 2988,
      "अंतरिम": 2989,
      "वेंकैया": 2990,
      "शेखर": 2991,
      "इंतजार": 2992,
      "उपकरणों": 2993,
      "सौंपी": 2994,
      "वायुसेना": 2995,
      "अल्पसंख्यक": 2996,
      "चुनावी": 2997,
      "चिकित्सा": 2998,
      "आखिर": 2999,
      "भ्रष्टाचार": 3000,
      "चेतावनी": 3001,
      "मुठभेड़": 3002,
      "अट": 3003,
      "आकर": 3004,
      "आयु": 3005,
      "आत्म": 3006,
      "कसू": 3007,
      "चट": 3008,
      "छवि": 3009,
      "जनों": 3010,
      "टने": 3011,
      "ड्रा": 3012,
      "तः": 3013,
      "पारी": 3014,
      "लंद": 3015,
      "लखन": 3016,
      "सब्": 3017,
      "हमे": 3018,
      "१००": 3019,
      "स्पे": 3020,
      "नागा": 3021,
      "हाउस": 3022,
      "राना": 3023,
      "राजा": 3024,
      "वाधिक": 3025,
      "लेना": 3026,
      "लेक्": 3027,
      "प्रभारी": 3028,
      "प्रश्न": 3029,
      "विनिवेश": 3030,
      "निधन": 3031,
      "पात": 3032,
      "दिग्": 3033,
      "उन्": 3034,
      "सीएम": 3035,
      "दावे": 3036,
      "ल्क": 3037,
      "जिश": 3038,
      "अनारा": 3039,
      "सूर्य": 3040,
      "रहेगी": 3041,
      "आईजी": 3042,
      "जेट": 3043,
      "बनाई": 3044,
      "दुख": 3045,
      "खुशी": 3046,
      "निकले": 3047,
      "तारा": 3048,
      "कामया": 3049,
      "खिलाफ़": 3050,
      "पैसा": 3051,
      "आरोपी": 3052,
      "घाटन": 3053,
      "खेलने": 3054,
      "२००२": 3055,
      "सर्वाधिक": 3056,
      "जताते": 3057,
      "लड़की": 3058,
      "शर्त": 3059,
      "छोड़ने": 3060,
      "सहमत": 3061,
      "न्यायमूर्ति": 3062,
      "ग्रामीणों": 3063,
      "हमलावर": 3064,
      "पथराव": 3065,
      "मणिपुर": 3066,
      "स्थापना": 3067,
      "आसपास": 3068,
      "फुट": 3069,
      "दस्तावेज": 3070,
      "फ्रांस": 3071,
      "तीसरे": 3072,
      "द्रविड़": 3073,
      "उत्तरांचल": 3074,
      "लिहाजा": 3075,
      "एसोसिएशन": 3076,
      "हमेशा": 3077,
      "अख": 3078,
      "अलगाव": 3079,
      "आदमी": 3080,
      "उदा": 3081,
      "कब्र": 3082,
      "गण": 3083,
      "गमा": 3084,
      "चन": 3085,
      "तबा": 3086,
      "नरेंद्र": 3087,
      "पवार": 3088,
      "बिक": 3089,
      "बजीत": 3090,
      "भंग": 3091,
      "व्": 3092,
      "सश": 3093,
      "सकी": 3094,
      "सक्रि": 3095,
      "सकारात्मक": 3096,
      "हवाले": 3097,
      "ुत": 3098,
      "३५": 3099,
      "३७": 3100,
      "९०": 3101,
      "काबू": 3102,
      "सेल": 3103,
      "नाज": 3104,
      "वाड़ा": 3105,
      "वास्त": 3106,
      "वाहन": 3107,
      "लाइट": 3108,
      "क्का": 3109,
      "प्रशिक्षण": 3110,
      "मात्र": 3111,
      "विद्य": 3112,
      "निकाल": 3113,
      "बाला": 3114,
      "संचार": 3115,
      "गांगु": 3116,
      "सिटी": 3117,
      "सरबजीत": 3118,
      "रिकों": 3119,
      "राजदू": 3120,
      "रीय": 3121,
      "पूछा": 3122,
      "पुरानी": 3123,
      "बीमारी": 3124,
      "मेह": 3125,
      "ंधे": 3126,
      "लगाते": 3127,
      "अंक": 3128,
      "अंदा": 3129,
      "पोस्ट": 3130,
      "परिसर": 3131,
      "निर्वा": 3132,
      "कंपनियां": 3133,
      "स्तरीय": 3134,
      "भाग्य": 3135,
      "डाला": 3136,
      "एनएस": 3137,
      "पदार्थ": 3138,
      "एफआईआर": 3139,
      "दरवा": 3140,
      "तुलना": 3141,
      "लंघन": 3142,
      "श्रम": 3143,
      "समस्याओं": 3144,
      "मौजूदगी": 3145,
      "फेर": 3146,
      "उल्लंघन": 3147,
      "नागरिकों": 3148,
      "परीक्षण": 3149,
      "खींच": 3150,
      "विज्ञानियों": 3151,
      "नक्सलियों": 3152,
      "इतना": 3153,
      "दर्शकों": 3154,
      "आंकड़ों": 3155,
      "प्रत्येक": 3156,
      "पीड़ितों": 3157,
      "कप्तान": 3158,
      "पर्याप्त": 3159,
      "मस्जिद": 3160,
      "तस्करी": 3161,
      "गतिविधियों": 3162,
      "चटर्जी": 3163,
      "अखबार": 3164,
      "गांगुली": 3165,
      "30": 3166,
      "अथ": 3167,
      "अत्या": 3168,
      "अचान": 3169,
      "ऊंचा": 3170,
      "एड": 3171,
      "औसत": 3172,
      "खों": 3173,
      "खड़े": 3174,
      "गंगा": 3175,
      "चढ़": 3176,
      "थर": 3177,
      "धर्": 3178,
      "नमू": 3179,
      "फौ": 3180,
      "फर्": 3181,
      "बजाय": 3182,
      "मठ": 3183,
      "लश्": 3184,
      "वक्": 3185,
      "शर": 3186,
      "शै": 3187,
      "शता": 3188,
      "सले": 3189,
      "ॉक": 3190,
      "२७": 3191,
      "७५": 3192,
      "८०": 3193,
      "ेंट": 3194,
      "सेल्": 3195,
      "तावास": 3196,
      "रास्ता": 3197,
      "वाने": 3198,
      "लाम": 3199,
      "प्रती": 3200,
      "प्रकरण": 3201,
      "मालिक": 3202,
      "विलास": 3203,
      "कारगिल": 3204,
      "नियु": 3205,
      "बाढ़": 3206,
      "बाइल": 3207,
      "पालिका": 3208,
      "दिल": 3209,
      "उनमें": 3210,
      "मुकेश": 3211,
      "सीआई": 3212,
      "थाने": 3213,
      "त्तर": 3214,
      "सिय": 3215,
      "रिहाई": 3216,
      "दीवार": 3217,
      "द्घ": 3218,
      "धानिक": 3219,
      "अध्या": 3220,
      "हिम": 3221,
      "वेबसा": 3222,
      "रेशन": 3223,
      "मानते": 3224,
      "खाते": 3225,
      "खाली": 3226,
      "इनकी": 3227,
      "सूचित": 3228,
      "टेप": 3229,
      "मोबाइल": 3230,
      "बैं": 3231,
      "प्लेट": 3232,
      "बेचने": 3233,
      "कार्यकाल": 3234,
      "दूतावास": 3235,
      "परिजनों": 3236,
      "लगने": 3237,
      "खुले": 3238,
      "खुराना": 3239,
      "्यूटी": 3240,
      "मैदान": 3241,
      "महानिदेशक": 3242,
      "पैसे": 3243,
      "वैधानिक": 3244,
      "भेजे": 3245,
      "जरूर": 3246,
      "ज्यादातर": 3247,
      "अमृत": 3248,
      "ड्स": 3249,
      "फ़ी": 3250,
      "अवगत": 3251,
      "गांवों": 3252,
      "जरिये": 3253,
      "गृहमंत्री": 3254,
      "रेंसिक": 3255,
      "सेंटर": 3256,
      "अच्छे": 3257,
      "हाथों": 3258,
      "निकाला": 3259,
      "तलाशी": 3260,
      "कर्मचारी": 3261,
      "इस्तीफे": 3262,
      "अधिकां": 3263,
      "उपाध्यक्ष": 3264,
      "सुविधाओं": 3265,
      "वामपंथी": 3266,
      "प्रतिनिधिमंडल": 3267,
      "इंतजाम": 3268,
      "पुराने": 3269,
      "इजाजत": 3270,
      "लक्ष्": 3271,
      "लक्ष्य": 3272,
      "मुंशी": 3273,
      "श्रद्धालु": 3274,
      "शौकत": 3275,
      "बर्फबारी": 3276,
      "ताजमहल": 3277,
      "पृथ्वी": 3278,
      "ंत्रिक": 3279,
      "फायरिंग": 3280,
      "उद्देश्य": 3281,
      "जन्म": 3282,
      "लखनऊ": 3283,
      "राजदूत": 3284,
      "अचानक": 3285,
      "लश्कर": 3286,
      "नियुक्ति": 3287,
      "वेबसाइट": 3288,
      "15": 3289,
      "अशोक": 3290,
      "आबा": 3291,
      "आधुनिक": 3292,
      "कड़ों": 3293,
      "घे": 3294,
      "जर्": 3295,
      "टकर": 3296,
      "डों": 3297,
      "तथ": 3298,
      "थम": 3299,
      "थल": 3300,
      "नै": 3301,
      "पत": 3302,
      "पंच": 3303,
      "फरी": 3304,
      "ब्रे": 3305,
      "मरा": 3306,
      "मकान": 3307,
      "वहाँ": 3308,
      "्ज": 3309,
      "किला": 3310,
      "कोबार": 3311,
      "कायदा": 3312,
      "तालि": 3313,
      "स्कृतिक": 3314,
      "वाइ": 3315,
      "वाधिकार": 3316,
      "लाइ": 3317,
      "प्रयोग": 3318,
      "देन": 3319,
      "साय": 3320,
      "साजिश": 3321,
      "निकोबार": 3322,
      "संतु": 3323,
      "संकट": 3324,
      "संवैधानिक": 3325,
      "मुक्त": 3326,
      "गाह": 3327,
      "तीश": 3328,
      "सीन": 3329,
      "मिर": 3330,
      "मित्": 3331,
      "मिमी": 3332,
      "सिया": 3333,
      "सियां": 3334,
      "रित": 3335,
      "रिकॉ": 3336,
      "सुंदर": 3337,
      "चाई": 3338,
      "दोहरा": 3339,
      "श्वर": 3340,
      "मानवाधिकार": 3341,
      "खास्त": 3342,
      "पारित": 3343,
      "जाएं": 3344,
      "मिलते": 3345,
      "किनारे": 3346,
      "म्स": 3347,
      "पोप": 3348,
      "कांग्रेसी": 3349,
      "लियां": 3350,
      "गोल": 3351,
      "जिसका": 3352,
      "खुल": 3353,
      "निकट": 3354,
      "केंद्रों": 3355,
      "कैदी": 3356,
      "नीतियों": 3357,
      "डियो": 3358,
      "भूषण": 3359,
      "देखना": 3360,
      "प्राधि": 3361,
      "एनए": 3362,
      "सैकड़ों": 3363,
      "जैसा": 3364,
      "सांस्कृतिक": 3365,
      "लोकतंत्र": 3366,
      "डेढ़": 3367,
      "पड़ो": 3368,
      "बूटा": 3369,
      "भोजन": 3370,
      "खबरों": 3371,
      "१९९९": 3372,
      "तिहासिक": 3373,
      "अपराधियों": 3374,
      "नतीजा": 3375,
      "मंजूर": 3376,
      "तत्कालीन": 3377,
      "चोरी": 3378,
      "बंगलोर": 3379,
      "पौंड": 3380,
      "मुंह": 3381,
      "बल्कि": 3382,
      "धमाकों": 3383,
      "नाराजगी": 3384,
      "डब्लू": 3385,
      "कमांडर": 3386,
      "परिणाम": 3387,
      "नज़र": 3388,
      "पसंद": 3389,
      "भंडार": 3390,
      "उदाहरण": 3391,
      "सेल्सिय": 3392,
      "अधिकांश": 3393,
      "मित्तल": 3394,
      "रिकॉर्ड": 3395,
      "प्राधिकरण": 3396,
      "सेल्सियस": 3397,
      "12": 3398,
      "ँची": 3399,
      "अस": 3400,
      "इक": 3401,
      "कब": 3402,
      "कक्षा": 3403,
      "गरानी": 3404,
      "घू": 3405,
      "छत्ती": 3406,
      "जहा": 3407,
      "तट": 3408,
      "तनाव": 3409,
      "दम": 3410,
      "नू": 3411,
      "यलों": 3412,
      "सफा": 3413,
      "हिक": 3414,
      "िम": 3415,
      "ूद": 3416,
      "्तार": 3417,
      "सेव": 3418,
      "सेक्स": 3419,
      "स्ती": 3420,
      "नामे": 3421,
      "लागत": 3422,
      "लेयर": 3423,
      "विफल": 3424,
      "विमानों": 3425,
      "लियो": 3426,
      "निलंबित": 3427,
      "निगरानी": 3428,
      "बान": 3429,
      "बास": 3430,
      "संस्": 3431,
      "संहि": 3432,
      "संतो": 3433,
      "मुफ्": 3434,
      "मिया": 3435,
      "थाना": 3436,
      "रिहा": 3437,
      "द्वि": 3438,
      "रीज": 3439,
      "ोगी": 3440,
      "हिदा": 3441,
      "ंडा": 3442,
      "ंडो": 3443,
      "वीजा": 3444,
      "ंचे": 3445,
      "गईं": 3446,
      "उसमें": 3447,
      "आईएल": 3448,
      "मोर्": 3449,
      "बिल्": 3450,
      "रुक": 3451,
      "वर्क": 3452,
      "स्ट्रे": 3453,
      "जेक्ट": 3454,
      "कार्यकारी": 3455,
      "कार्यकर्ता": 3456,
      "बुलाई": 3457,
      "्राम": 3458,
      "पिंग": 3459,
      "प्रतिबद्ध": 3460,
      "दर्भ": 3461,
      "दर्जा": 3462,
      "कहने": 3463,
      "ब्लेयर": 3464,
      "जुर्": 3465,
      "मुख्यमंत्रियों": 3466,
      "बोल": 3467,
      "गिरोह": 3468,
      "डिस": 3469,
      "डियम": 3470,
      "आपको": 3471,
      "ज़ी": 3472,
      "इलाज": 3473,
      "समाचार": 3474,
      "रामदास": 3475,
      "हजारों": 3476,
      "वार्ड": 3477,
      "जताया": 3478,
      "सकेंगे": 3479,
      "स्टेडियम": 3480,
      "हिस्सों": 3481,
      "ब्रह्": 3482,
      "अफगा": 3483,
      "विकसित": 3484,
      "िज्य": 3485,
      "वकीलों": 3486,
      "फारू": 3487,
      "नतीजों": 3488,
      "ट्ठ": 3489,
      "माओवादी": 3490,
      "इंटरनेट": 3491,
      "फॉर": 3492,
      "लिखित": 3493,
      "ब्रांड": 3494,
      "कंट्रो": 3495,
      "लड़ाई": 3496,
      "इन्कार": 3497,
      "प्लांट": 3498,
      "खतरे": 3499,
      "प्रसारण": 3500,
      "पाठ्य": 3501,
      "मुसलमानों": 3502,
      "नजदी": 3503,
      "अपहर्": 3504,
      "आमंत्रित": 3505,
      "वाणिज्य": 3506,
      "लंदन": 3507,
      "सक्रिय": 3508,
      "वक्फ": 3509,
      "सलेम": 3510,
      "छत्तीस": 3511,
      "संहिता": 3512,
      "10": 3513,
      "ंती": 3514,
      "आधा": 3515,
      "आग्रह": 3516,
      "आमिर": 3517,
      "उर्फ": 3518,
      "एआई": 3519,
      "ऐतिहासिक": 3520,
      "जनी": 3521,
      "जफ्": 3522,
      "झु": 3523,
      "टर्": 3524,
      "ठो": 3525,
      "दशक": 3526,
      "न्य": 3527,
      "परा": 3528,
      "पद्": 3529,
      "फरा": 3530,
      "बली": 3531,
      "बहाल": 3532,
      "भजन": 3533,
      "भट्ठ": 3534,
      "म्र": 3535,
      "यमुना": 3536,
      "रपो": 3537,
      "रकम": 3538,
      "शरण": 3539,
      "ेगा": 3540,
      "ोत्तर": 3541,
      "३६": 3542,
      "कोहरे": 3543,
      "काई": 3544,
      "स्पेश": 3545,
      "नासा": 3546,
      "रास्ते": 3547,
      "वां": 3548,
      "वाट": 3549,
      "वालिया": 3550,
      "वायद": 3551,
      "जाहि": 3552,
      "माबाद": 3553,
      "सामू": 3554,
      "नित": 3555,
      "निस्तान": 3556,
      "नितीश": 3557,
      "बाग": 3558,
      "बाधा": 3559,
      "बाबू": 3560,
      "पांडे": 3561,
      "मुर": 3562,
      "मुजफ्": 3563,
      "क्षम": 3564,
      "गाय": 3565,
      "सीधे": 3566,
      "रिंदर": 3567,
      "भागी": 3568,
      "सुपर": 3569,
      "सरकारों": 3570,
      "शाला": 3571,
      "रोड": 3572,
      "मेगा": 3573,
      "कुर्": 3574,
      "कुवै": 3575,
      "गीत": 3576,
      "ढ़े": 3577,
      "स्थलों": 3578,
      "जेलों": 3579,
      "पेट": 3580,
      "बेटे": 3581,
      "लोहान": 3582,
      "बुला": 3583,
      "सोनी": 3584,
      "बढ़ी": 3585,
      "प्रतियोग": 3586,
      "उत्पन्न": 3587,
      "डीजल": 3588,
      "बैठे": 3589,
      "दुर": 3590,
      "क्षेप": 3591,
      "आरडी": 3592,
      "गोवा": 3593,
      "गोपाल": 3594,
      "जानकार": 3595,
      "पूर्वोत्तर": 3596,
      "मतभेद": 3597,
      "छापे": 3598,
      "रुपए": 3599,
      "कमरे": 3600,
      "चेन्न": 3601,
      "वैश्": 3602,
      "अभ्या": 3603,
      "एनडीए": 3604,
      "ग्रहों": 3605,
      "घायलों": 3606,
      "पालन": 3607,
      "ट्रै": 3608,
      "विभागों": 3609,
      "पत्रिका": 3610,
      "शोर": 3611,
      "कॉरपो": 3612,
      "ड्ड": 3613,
      "महिलाएं": 3614,
      "खोज": 3615,
      "इंडस्ट्री": 3616,
      "पड़ता": 3617,
      "अभिनेता": 3618,
      "अभियोजन": 3619,
      "मसलों": 3620,
      "दिखाया": 3621,
      "भोज": 3622,
      "प्रोजेक्ट": 3623,
      "ग्रहण": 3624,
      "आयात": 3625,
      "चैन": 3626,
      "नक्सल": 3627,
      "नक्सली": 3628,
      "उड़ान": 3629,
      "न्यायालय": 3630,
      "तस्वीरों": 3631,
      "ख्यात": 3632,
      "स्पीकर": 3633,
      "इस्लामाबाद": 3634,
      "फार्म": 3635,
      "एफबीटी": 3636,
      "अरुण": 3637,
      "पार्क": 3638,
      "पेंशन": 3639,
      "सुलझाने": 3640,
      "आबादी": 3641,
      "सफाई": 3642,
      "संतोष": 3643,
      "कंट्रोल": 3644,
      "छत्तीसगढ़": 3645,
      "भट्ठल": 3646,
      "सामूहिक": 3647,
      "..": 3648,
      "अमि": 3649,
      "अर्थ": 3650,
      "आती": 3651,
      "इयों": 3652,
      "इच्छा": 3653,
      "उड्ड": 3654,
      "कश": 3655,
      "कड़ा": 3656,
      "कौर": 3657,
      "कवायद": 3658,
      "खल": 3659,
      "जना": 3660,
      "झील": 3661,
      "तौ": 3662,
      "तकरी": 3663,
      "पदा": 3664,
      "फं": 3665,
      "बया": 3666,
      "बला": 3667,
      "बरी": 3668,
      "भर्": 3669,
      "महम": 3670,
      "मशी": 3671,
      "मगर": 3672,
      "रहीं": 3673,
      "वु": 3674,
      "वका": 3675,
      "वती": 3676,
      "शिक": 3677,
      "सक्षम": 3678,
      "हल्": 3679,
      "हस्त": 3680,
      "िकी": 3681,
      "ुप": 3682,
      "्रार": 3683,
      "यानि": 3684,
      "किमी": 3685,
      "सेन": 3686,
      "राइ": 3687,
      "वाय": 3688,
      "वादा": 3689,
      "लाइंस": 3690,
      "विदा": 3691,
      "विवाह": 3692,
      "वितरण": 3693,
      "देनी": 3694,
      "साँची": 3695,
      "साढ़े": 3696,
      "निधियों": 3697,
      "मुक": 3698,
      "क्षति": 3699,
      "गापुर": 3700,
      "सीए": 3701,
      "सिख": 3702,
      "सिद्ध": 3703,
      "दागी": 3704,
      "समन्व": 3705,
      "रीन": 3706,
      "सुदर्शन": 3707,
      "ल्ल": 3708,
      "शाखा": 3709,
      "शासित": 3710,
      "बीसी": 3711,
      "वेतन": 3712,
      "इनके": 3713,
      "अनंत": 3714,
      "्रेट": 3715,
      "मोटर": 3716,
      "शुल्क": 3717,
      "स्टम": 3718,
      "पेक्ष": 3719,
      "टाइ": 3720,
      "पोटा": 3721,
      "लोजपा": 3722,
      "फीस": 3723,
      "बढ़ती": 3724,
      "प्रतिनिधियों": 3725,
      "गुट": 3726,
      "निर्भर": 3727,
      "अनुभव": 3728,
      "फाइन": 3729,
      "शेर": 3730,
      "गोत्र": 3731,
      "निकलने": 3732,
      "कमल": 3733,
      "कमजोर": 3734,
      "इंजी": 3735,
      "चेयर": 3736,
      "महाप्रबंधक": 3737,
      "देखकर": 3738,
      "फोर्स": 3739,
      "अधिकतर": 3740,
      "घोटा": 3741,
      "छेड़": 3742,
      "पेशकश": 3743,
      "नौसेना": 3744,
      "जरूरतों": 3745,
      "सीटें": 3746,
      "हितों": 3747,
      "मिलेगी": 3748,
      "प्रोफे": 3749,
      "विवादों": 3750,
      "शिवसेना": 3751,
      "न्यायपालिका": 3752,
      "मनाने": 3753,
      "अधिनियम": 3754,
      "शुरुआती": 3755,
      "खासकर": 3756,
      "इतनी": 3757,
      "भुग": 3758,
      "मकसद": 3759,
      "तस्वीरें": 3760,
      "सौरव": 3761,
      "अंडमान": 3762,
      "निरपेक्ष": 3763,
      "अन्नान": 3764,
      "झटका": 3765,
      "बदमाशों": 3766,
      "प्राथमिकता": 3767,
      "ऑपरेशन": 3768,
      "समर्पण": 3769,
      "कसूरी": 3770,
      "नागालैंड": 3771,
      "एनएससी": 3772,
      "शताब्दी": 3773,
      "हिदायत": 3774,
      "स्पेशल": 3775,
      "प्रतियोगिता": 3776,
      "चेन्नई": 3777,
      "चैनलों": 3778,
      "उड्डयन": 3779,
      "भर्ती": 3780,
      "वुड": 3781,
      "वकालत": 3782,
      "समन्वय": 3783,
      "आंत": 3784,
      "आसान": 3785,
      "ईद": 3786,
      "उर्": 3787,
      "उड़ी": 3788,
      "ऋण": 3789,
      "ऑल": 3790,
      "चंद": 3791,
      "चतु": 3792,
      "जगत": 3793,
      "जख्": 3794,
      "ड्यूटी": 3795,
      "ढू": 3796,
      "णे": 3797,
      "दलील": 3798,
      "प्ट": 3799,
      "पराज": 3800,
      "भट्ट": 3801,
      "मल्": 3802,
      "मजिस्ट": 3803,
      "रचना": 3804,
      "रकत": 3805,
      "३२": 3806,
      "ेंडर": 3807,
      "किताब": 3808,
      "किरण": 3809,
      "स्ति": 3810,
      "स्तक": 3811,
      "नायर": 3812,
      "राइस": 3813,
      "प्रौ": 3814,
      "प्रदाय": 3815,
      "माध्य": 3816,
      "मानित": 3817,
      "विंग": 3818,
      "देता": 3819,
      "देगी": 3820,
      "त्रो": 3821,
      "साहि": 3822,
      "तिर": 3823,
      "संचा": 3824,
      "होत्रा": 3825,
      "सिक्": 3826,
      "भाषण": 3827,
      "राजनाथ": 3828,
      "शास": 3829,
      "शायद": 3830,
      "रोज": 3831,
      "रोश": 3832,
      "बीसीसी": 3833,
      "रूस": 3834,
      "शिरकत": 3835,
      "हमलों": 3836,
      "हमारा": 3837,
      "सिंगापुर": 3838,
      "बताने": 3839,
      "बरकरार": 3840,
      "बिरा": 3841,
      "पुलिसकर्मी": 3842,
      "वर्ती": 3843,
      "स्टॉक": 3844,
      "बेच": 3845,
      "योग्य": 3846,
      "लोन": 3847,
      "भारतीयों": 3848,
      "बैठा": 3849,
      "व्यस्त": 3850,
      "फाइ": 3851,
      "गोस्वामी": 3852,
      "पिछली": 3853,
      "द्रो": 3854,
      "देखे": 3855,
      "कश्मी": 3856,
      "जवादी": 3857,
      "समाजवादी": 3858,
      "अमरिंदर": 3859,
      "खोला": 3860,
      "फ़ो": 3861,
      "क़ी": 3862,
      "कट्टर": 3863,
      "इराकी": 3864,
      "फिल्मों": 3865,
      "सेंट्र": 3866,
      "निदेशकों": 3867,
      "निदेशालय": 3868,
      "अहमदाबाद": 3869,
      "इटली": 3870,
      "छोड़ी": 3871,
      "उद्घाटन": 3872,
      "ट्टे": 3873,
      "विस्तृत": 3874,
      "पहुँच": 3875,
      "इजाफा": 3876,
      "लौटने": 3877,
      "अल्पसंख्यकों": 3878,
      "बल्ले": 3879,
      "आवश्यकता": 3880,
      "धमाके": 3881,
      "ंजलि": 3882,
      "कौन": 3883,
      "इशारा": 3884,
      "अफ्रीकी": 3885,
      "परेशानी": 3886,
      "इमारत": 3887,
      "काउं": 3888,
      "अमरीकी": 3889,
      "हड़ताल": 3890,
      "अथवा": 3891,
      "फरीदाबाद": 3892,
      "पड़ोसी": 3893,
      "कुवैत": 3894,
      "वैश्विक": 3895,
      "अभ्यास": 3896,
      "हस्तक्षेप": 3897,
      "भुगतान": 3898,
      "मजिस्ट्रेट": 3899,
      "ंटी": 3900,
      "अके": 3901,
      "अका": 3902,
      "आता": 3903,
      "आला": 3904,
      "आकर्ष": 3905,
      "कन": 3906,
      "कब्": 3907,
      "कंडो": 3908,
      "गन": 3909,
      "गन्": 3910,
      "छत": 3911,
      "ठहर": 3912,
      "तभी": 3913,
      "त्यक्ष": 3914,
      "दक": 3915,
      "दली": 3916,
      "दत्त": 3917,
      "ध्": 3918,
      "नबी": 3919,
      "पनीय": 3920,
      "बई": 3921,
      "बतौर": 3922,
      "भरे": 3923,
      "मले": 3924,
      "यती": 3925,
      "रम": 3926,
      "रती": 3927,
      "रवै": 3928,
      "लता": 3929,
      "शकों": 3930,
      "स्र": 3931,
      "हरि": 3932,
      "िला": 3933,
      "ुण": 3934,
      "३३": 3935,
      "केज": 3936,
      "याता": 3937,
      "किस्": 3938,
      "किंग": 3939,
      "सेट": 3940,
      "करु": 3941,
      "करवाया": 3942,
      "ताला": 3943,
      "ताजा": 3944,
      "तांत्रिक": 3945,
      "नायक": 3946,
      "राबड़ी": 3947,
      "क्की": 3948,
      "जाग": 3949,
      "माया": 3950,
      "माफी": 3951,
      "मांगा": 3952,
      "लिखे": 3953,
      "देती": 3954,
      "साबिरा": 3955,
      "निवास": 3956,
      "बाज": 3957,
      "बाजों": 3958,
      "पाठी": 3959,
      "दित": 3960,
      "दिलाया": 3961,
      "ड़िया": 3962,
      "संवेदन": 3963,
      "मुगल": 3964,
      "मुकद": 3965,
      "लीवुड": 3966,
      "सीआरपीएफ": 3967,
      "मिश्र": 3968,
      "रिस": 3969,
      "एकत्र": 3970,
      "पुल": 3971,
      "ंदगी": 3972,
      "बादल": 3973,
      "पीय": 3974,
      "पीजी": 3975,
      "बीस": 3976,
      "मेट्रो": 3977,
      "कुं": 3978,
      "रेलगा": 3979,
      "ंधन": 3980,
      "शिष्ट": 3981,
      "टीय": 3982,
      "सूत्र": 3983,
      "तरुण": 3984,
      "ढ़ी": 3985,
      "जनमे": 3986,
      "आईए": 3987,
      "आईएसआई": 3988,
      "बिया": 3989,
      "जब्": 3990,
      "स्टा": 3991,
      "दौड़": 3992,
      "बुलाया": 3993,
      "सोच": 3994,
      "बढ़कर": 3995,
      "उपक्रम": 3996,
      "डीएम": 3997,
      "गुस्": 3998,
      "कराची": 3999,
      "जुड़ा": 4000,
      "जुड़ी": 4001,
      "जुलू": 4002,
      "गोदाम": 4003,
      "गोपनीय": 4004,
      "कारणों": 4005,
      "रखकर": 4006,
      "मतों": 4007,
      "सारा": 4008,
      "मैने": 4009,
      "डालने": 4010,
      "द्रमुक": 4011,
      "पैकेज": 4012,
      "ज़रू": 4013,
      "करीबी": 4014,
      "एनर्जी": 4015,
      "सचिन": 4016,
      "स्वाय": 4017,
      "घटनाक्रम": 4018,
      "सांप्रदाय": 4019,
      "करोड़ों": 4020,
      "तुल": 4021,
      "लाखों": 4022,
      "कॉल": 4023,
      "कॉलेज": 4024,
      "ड्डा": 4025,
      "नौकर": 4026,
      "पत्थर": 4027,
      "खोल": 4028,
      "खंडन": 4029,
      "जिनके": 4030,
      "सतर्क": 4031,
      "खरीदारी": 4032,
      "हटाए": 4033,
      "व्यक्तिगत": 4034,
      "सीबीटी": 4035,
      "वाहनों": 4036,
      "ग्लो": 4037,
      "जोरदार": 4038,
      "दायरे": 4039,
      "उपायों": 4040,
      "खरीदने": 4041,
      "फैशन": 4042,
      "ढाई": 4043,
      "ढांचा": 4044,
      "ढांचे": 4045,
      "नतीजे": 4046,
      "अड्डों": 4047,
      "दिवस": 4048,
      "खूबसूरती": 4049,
      "बर्खास्त": 4050,
      "एसएसपी": 4051,
      "सराह": 4052,
      "ब्रिटि": 4053,
      "संवाददाता": 4054,
      "युवक": 4055,
      "युवकों": 4056,
      "मॉल": 4057,
      "मॉडल": 4058,
      "यूनियन": 4059,
      "चूंकि": 4060,
      "बचत": 4061,
      "शून्य": 4062,
      "निष्पक्ष": 4063,
      "रजिस्ट्रार": 4064,
      "लहरों": 4065,
      "अग्रवाल": 4066,
      "पीएसयू": 4067,
      "नारायणन": 4068,
      "मुश्किल": 4069,
      "गार्ड": 4070,
      "अधीक्षक": 4071,
      "केन्द्र": 4072,
      "अटारी": 4073,
      "लेक्ट्र": 4074,
      "जेटली": 4075,
      "बिक्री": 4076,
      "सशस्त्र": 4077,
      "विद्युत": 4078,
      "अंदाज": 4079,
      "बैंकों": 4080,
      "एनएसी": 4081,
      "मोर्चा": 4082,
      "स्ट्रेलिया": 4083,
      "मुरली": 4084,
      "गायब": 4085,
      "मेगावाट": 4086,
      "इंडस्ट्रीज": 4087,
      "तकरीबन": 4088,
      "चेयरमैन": 4089,
      "उड़ीसा": 4090,
      "रोशनी": 4091,
      "बीसीसीआई": 4092,
      "सेंट्रल": 4093,
      "कंडोम": 4094,
      "गन्ने": 4095,
      "यातायात": 4096,
      "संवेदनशील": 4097,
      "सांप्रदायिक": 4098,
      "ंसी": 4099,
      "अल्": 4100,
      "अंग्रे": 4101,
      "अनाज": 4102,
      "अवार्ड": 4103,
      "आना": 4104,
      "आभूषण": 4105,
      "इलेक्ट्र": 4106,
      "ईंधन": 4107,
      "ऑन": 4108,
      "कसर": 4109,
      "कौल": 4110,
      "खड़ी": 4111,
      "घि": 4112,
      "घंट": 4113,
      "घटक": 4114,
      "दय": 4115,
      "दह": 4116,
      "दंगों": 4117,
      "नन": 4118,
      "पों": 4119,
      "पप्": 4120,
      "बग": 4121,
      "बों": 4122,
      "बरे": 4123,
      "भरी": 4124,
      "मलिक": 4125,
      "श्या": 4126,
      "सला": 4127,
      "सद्": 4128,
      "हद": 4129,
      "हवाला": 4130,
      "ालयों": 4131,
      "३९": 4132,
      "किशन": 4133,
      "कीकरण": 4134,
      "करवा": 4135,
      "ताभ": 4136,
      "ताकत": 4137,
      "नाइ": 4138,
      "हाली": 4139,
      "वाग": 4140,
      "लाइस": 4141,
      "लेन": 4142,
      "क्कर": 4143,
      "प्रवी": 4144,
      "जाल": 4145,
      "जाँच": 4146,
      "विहि": 4147,
      "विद्रो": 4148,
      "कारो": 4149,
      "सानी": 4150,
      "साक्षा": 4151,
      "निप": 4152,
      "बाबत": 4153,
      "पाइ": 4154,
      "दिरा": 4155,
      "दिलाने": 4156,
      "लीटर": 4157,
      "त्‍": 4158,
      "सिंध": 4159,
      "्होंने": 4160,
      "मंत्रालयों": 4161,
      "राजेंद्र": 4162,
      "एकजुट": 4163,
      "रहें": 4164,
      "पूजा": 4165,
      "पुरु": 4166,
      "बीमार": 4167,
      "जीप": 4168,
      "चुरी": 4169,
      "इनका": 4170,
      "शिला": 4171,
      "सूल": 4172,
      "एसटी": 4173,
      "मारा": 4174,
      "मार्ट": 4175,
      "शुभ": 4176,
      "चीफ": 4177,
      "स्टिक": 4178,
      "म्मत": 4179,
      "बुरी": 4180,
      "फील्ड": 4181,
      "गुप्त": 4182,
      "गुलाम": 4183,
      "दुकान": 4184,
      "दुग्": 4185,
      "दुबई": 4186,
      "अनुशासन": 4187,
      "शीद": 4188,
      "अग्": 4189,
      "जानने": 4190,
      "इंदिरा": 4191,
      "देखी": 4192,
      "भेजी": 4193,
      "प्राचीन": 4194,
      "ग्रुप": 4195,
      "सहकारी": 4196,
      "फोटक": 4197,
      "खेर": 4198,
      "खेमे": 4199,
      "जयंती": 4200,
      "बढ़ाए": 4201,
      "लोकतांत्रिक": 4202,
      "कुमारस्वामी": 4203,
      "लड़ने": 4204,
      "सदस्यता": 4205,
      "ट्रेनिंग": 4206,
      "हत्याकांड": 4207,
      "विस्फोटक": 4208,
      "संस्थाओं": 4209,
      "सलमान": 4210,
      "बचाने": 4211,
      "नेटवर्क": 4212,
      "फोटो": 4213,
      "द्योगिकी": 4214,
      "एयरलाइंस": 4215,
      "रिश्वत": 4216,
      "मजबूती": 4217,
      "उपाय": 4218,
      "तारीख": 4219,
      "अब्बास": 4220,
      "फैक्ट": 4221,
      "विजयेंद्र": 4222,
      "करेंगी": 4223,
      "रैकेट": 4224,
      "इंटरनेशनल": 4225,
      "सौंपने": 4226,
      "टैक्स": 4227,
      "वामदल": 4228,
      "मनोहर": 4229,
      "तूफान": 4230,
      "दृष्टि": 4231,
      "बीएसएफ": 4232,
      "श्रद्धांजलि": 4233,
      "पुनर्गठन": 4234,
      "शवों": 4235,
      "नियमित": 4236,
      "दुकानों": 4237,
      "विभाजन": 4238,
      "आयुर्वे": 4239,
      "ड्राइ": 4240,
      "कामयाब": 4241,
      "तबाही": 4242,
      "ऊंचाई": 4243,
      "श्रद्धालुओं": 4244,
      "घूम": 4245,
      "अफगानिस्तान": 4246,
      "भागीदारी": 4247,
      "अमिताभ": 4248,
      "बलात्कार": 4249,
      "मशीन": 4250,
      "आंतरिक": 4251,
      "जख्मी": 4252,
      "ढूं": 4253,
      "मल्होत्रा": 4254,
      "प्रौद्योगिकी": 4255,
      "साहिब": 4256,
      "कश्मीरी": 4257,
      "जनमेजय": 4258,
      "जुलूस": 4259,
      "ब्रिटिश": 4260,
      "पप्पू": 4261,
      "प्रवीण": 4262,
      "विहिप": 4263,
      "साक्षात्कार": 4264,
      "ंकर": 4265,
      "अक्ट": 4266,
      "आशी": 4267,
      "आदान": 4268,
      "आजाद": 4269,
      "आपात": 4270,
      "इंद": 4271,
      "इकाई": 4272,
      "उंग": 4273,
      "उधर": 4274,
      "एक्ट": 4275,
      "एअर": 4276,
      "एड्स": 4277,
      "कता": 4278,
      "कहर": 4279,
      "झंडी": 4280,
      "ठु": 4281,
      "ड्र": 4282,
      "द्री": 4283,
      "दखल": 4284,
      "धरा": 4285,
      "नमा": 4286,
      "पचा": 4287,
      "पब्": 4288,
      "ब्यो": 4289,
      "भड़": 4290,
      "यश": 4291,
      "रं": 4292,
      "व्र": 4293,
      "शही": 4294,
      "शनों": 4295,
      "षिक": 4296,
      "सच": 4297,
      "सईद": 4298,
      "हकों": 4299,
      "हंगा": 4300,
      "७०": 4301,
      "कोट": 4302,
      "काने": 4303,
      "राणा": 4304,
      "वाशि": 4305,
      "वाघा": 4306,
      "क्ली": 4307,
      "प्रताप": 4308,
      "प्रथम": 4309,
      "सामान": 4310,
      "निहार": 4311,
      "बांध": 4312,
      "तिमा": 4313,
      "दिलाई": 4314,
      "संस्कार": 4315,
      "संदर्भ": 4316,
      "गाना": 4317,
      "वारा": 4318,
      "वारदा": 4319,
      "त्मा": 4320,
      "त्तार": 4321,
      "रियल": 4322,
      "ंगटन": 4323,
      "दीक्षित": 4324,
      "राजकुमार": 4325,
      "एकता": 4326,
      "सुभाष": 4327,
      "जियम": 4328,
      "शान": 4329,
      "पीओ": 4330,
      "बीआई": 4331,
      "मेरी": 4332,
      "मेरे": 4333,
      "शिक्षकों": 4334,
      "जनहित": 4335,
      "मिलता": 4336,
      "मिलती": 4337,
      "बातों": 4338,
      "वर्मा": 4339,
      "तंभ": 4340,
      "टाटा": 4341,
      "बनाकर": 4342,
      "बुद्दीन": 4343,
      "उत्साह": 4344,
      "उपचुनाव": 4345,
      "गुजर": 4346,
      "अनुमान": 4347,
      "यूपी": 4348,
      "जुटा": 4349,
      "गोलियां": 4350,
      "गोधरा": 4351,
      "रखना": 4352,
      "मतदाताओं": 4353,
      "मतदाता": 4354,
      "चलता": 4355,
      "आपके": 4356,
      "इंकार": 4357,
      "ठाकरे": 4358,
      "सौदे": 4359,
      "उठाकर": 4360,
      "दारों": 4361,
      "मुलाक़ा": 4362,
      "सम्मानित": 4363,
      "लंबे": 4364,
      "सर्वो": 4365,
      "खोखर": 4366,
      "तरीका": 4367,
      "वार्षिक": 4368,
      "चलाए": 4369,
      "चलाया": 4370,
      "पड़ने": 4371,
      "प्रभावी": 4372,
      "ग्राहकों": 4373,
      "धीरे": 4374,
      "पट्ट": 4375,
      "पटरी": 4376,
      "हूर": 4377,
      "मण्य": 4378,
      "सुप्रीमो": 4379,
      "भोपाल": 4380,
      "छोटी": 4381,
      "फ्रंट": 4382,
      "पहुंचाया": 4383,
      "निकालने": 4384,
      "न्यायिक": 4385,
      "तारीफ": 4386,
      "सुविधाएं": 4387,
      "जायजा": 4388,
      "हिंदी": 4389,
      "हिंदु": 4390,
      "चोट": 4391,
      "रैली": 4392,
      "ट्स": 4393,
      "सौंपा": 4394,
      "धूल": 4395,
      "हवाओं": 4396,
      "प्रिंट": 4397,
      "चलेगा": 4398,
      "बॉलीवुड": 4399,
      "पढ़ा": 4400,
      "सर्वेक्षण": 4401,
      "त्रिपाठी": 4402,
      "उम्मीदवारों": 4403,
      "मजदूर": 4404,
      "स्वतंत्रता": 4405,
      "थोड़ी": 4406,
      "अफ्रीका": 4407,
      "डिजाइनर": 4408,
      "म्यूजियम": 4409,
      "पहाड़ी": 4410,
      "मेरठ": 4411,
      "यूरोपीय": 4412,
      "नारेबाजी": 4413,
      "हलफनामे": 4414,
      "मशहूर": 4415,
      "शब्दों": 4416,
      "स्कोर": 4417,
      "प्रणव": 4418,
      "संरक्षण": 4419,
      "अलगाववादी": 4420,
      "निर्वाचन": 4421,
      "पदार्थो": 4422,
      "अत्याधुनिक": 4423,
      "तथ्य": 4424,
      "फारूक": 4425,
      "पाठ्यक्रम": 4426,
      "अपहर्ताओं": 4427,
      "टर्न": 4428,
      "बयानों": 4429,
      "महमूद": 4430,
      "कमलनाथ": 4431,
      "क़ीमत": 4432,
      "जब्त": 4433,
      "घंटों": 4434,
      "पाइप": 4435,
      "अग्नि": 4436,
      "फैक्टरी": 4437,
      "आयुर्वेद": 4438,
      "अक्टूबर": 4439,
      "वाशिंगटन": 4440,
      "मुलाक़ात": 4441,
      "19": 4442,
      "40": 4443,
      "ंथ": 4444,
      "अंग": 4445,
      "अकाली": 4446,
      "आर्": 4447,
      "आशा": 4448,
      "आह्": 4449,
      "आसानी": 4450,
      "इधर": 4451,
      "ऊँ": 4452,
      "एपी": 4453,
      "कमा": 4454,
      "कवि": 4455,
      "कहीं": 4456,
      "गज": 4457,
      "गों": 4458,
      "गहरा": 4459,
      "जस": 4460,
      "जैस": 4461,
      "ज्यो": 4462,
      "ठंड": 4463,
      "ढंग": 4464,
      "णु": 4465,
      "तर्क": 4466,
      "तकालीन": 4467,
      "दै": 4468,
      "नम": 4469,
      "पराम": 4470,
      "बब्": 4471,
      "बचने": 4472,
      "म्या": 4473,
      "रमन": 4474,
      "रफ्": 4475,
      "वॉ": 4476,
      "वली": 4477,
      "वजन": 4478,
      "सव": 4479,
      "सत्तार": 4480,
      "ौली": 4481,
      "४८": 4482,
      "५००": 4483,
      "८५": 4484,
      "कें": 4485,
      "सेक्टर": 4486,
      "ताइ": 4487,
      "राग": 4488,
      "वाल्": 4489,
      "परिक": 4490,
      "क्कत": 4491,
      "प्रमाण": 4492,
      "प्रकट": 4493,
      "प्रार्थ": 4494,
      "माँ": 4495,
      "हीन": 4496,
      "देह": 4497,
      "सागर": 4498,
      "निरी": 4499,
      "बां": 4500,
      "पावर": 4501,
      "तिथि": 4502,
      "दिक": 4503,
      "उनको": 4504,
      "संग्रह": 4505,
      "मुमता": 4506,
      "मंजि": 4507,
      "लीला": 4508,
      "सीजन": 4509,
      "मिकों": 4510,
      "सिपा": 4511,
      "सिनी": 4512,
      "सिरे": 4513,
      "सरना": 4514,
      "रियर": 4515,
      "रिटर्न": 4516,
      "रहस्": 4517,
      "सुरेश": 4518,
      "चालक": 4519,
      "पुस्तक": 4520,
      "जिट": 4521,
      "रोहित": 4522,
      "रूम": 4523,
      "वेशन": 4524,
      "खाने": 4525,
      "खाना": 4526,
      "खाड़ी": 4527,
      "खासत": 4528,
      "सिंचाई": 4529,
      "पारि": 4530,
      "जनजाति": 4531,
      "जाएँ": 4532,
      "चार्ज": 4533,
      "गेट": 4534,
      "एसजी": 4535,
      "एसएल": 4536,
      "मोर": 4537,
      "मारकर": 4538,
      "स्थाई": 4539,
      "वहन": 4540,
      "वर्ल्ड": 4541,
      "स्टू": 4542,
      "अंश": 4543,
      "म्मा": 4544,
      "प्लॉ": 4545,
      "टाइम": 4546,
      "प्रतिमा": 4547,
      "उपस्थित": 4548,
      "उपग्रह": 4549,
      "डीपी": 4550,
      "गुड़": 4551,
      "दुष्": 4552,
      "शीतकालीन": 4553,
      "जुटाने": 4554,
      "जिसकी": 4555,
      "गिरि": 4556,
      "कैंप": 4557,
      "कैसिनी": 4558,
      "इंजन": 4559,
      "एमबी": 4560,
      "पिछड़े": 4561,
      "महज": 4562,
      "र्डर": 4563,
      "क्रमण": 4564,
      "घाट": 4565,
      "घाटे": 4566,
      "गलती": 4567,
      "पदों": 4568,
      "खेती": 4569,
      "जयपुर": 4570,
      "एंबेस": 4571,
      "अधिकतम": 4572,
      "सौदा": 4573,
      "पंथ": 4574,
      "ट्रस्ट": 4575,
      "एफडी": 4576,
      "घटनाएं": 4577,
      "२००१": 4578,
      "समर्थक": 4579,
      "ंसल": 4580,
      "होंडा": 4581,
      "भरपूर": 4582,
      "ज्ञान": 4583,
      "वन्य": 4584,
      "गिरफ़": 4585,
      "बहुमत": 4586,
      "कूल": 4587,
      "सतह": 4588,
      "स्टेशनों": 4589,
      "श्रमिक": 4590,
      "श्रमिकों": 4591,
      "मसला": 4592,
      "उल्फा": 4593,
      "ट्रेनों": 4594,
      "गूगल": 4595,
      "सेंसेक्स": 4596,
      "धिकारियों": 4597,
      "पर्यवे": 4598,
      "त्यु": 4599,
      "समुद्री": 4600,
      "उत्पादों": 4601,
      "अलब": 4602,
      "अधिवक्ता": 4603,
      "तैनाती": 4604,
      "धरती": 4605,
      "पेट्रोल": 4606,
      "डोदरा": 4607,
      "प्रतिनिधित्व": 4608,
      "उड़ानों": 4609,
      "आंसू": 4610,
      "आंखों": 4611,
      "चंद्रशेखर": 4612,
      "डालमिया": 4613,
      "फॉर्म": 4614,
      "दुर्घटना": 4615,
      "नियमों": 4616,
      "प्रिय": 4617,
      "दवाओं": 4618,
      "दस्तावे": 4619,
      "शिविरों": 4620,
      "एशियाई": 4621,
      "शूटिंग": 4622,
      "टेलीफोन": 4623,
      "अंडर": 4624,
      "इमारतों": 4625,
      "गरीबों": 4626,
      "उच्चायुक्त": 4627,
      "गड़बड़ी": 4628,
      "मृत्यु": 4629,
      "जबरदस्त": 4630,
      "धोनी": 4631,
      "क्लब": 4632,
      "स्पेस": 4633,
      "हमलावरों": 4634,
      "नमूने": 4635,
      "शरद": 4636,
      "संस्कृति": 4637,
      "मुफ्ती": 4638,
      "फराबाद": 4639,
      "घोटाले": 4640,
      "माध्यम": 4641,
      "अकेले": 4642,
      "अकादमी": 4643,
      "करुणा": 4644,
      "तालाब": 4645,
      "गुस्सा": 4646,
      "स्वायत्त": 4647,
      "लाइसेंस": 4648,
      "उंगली": 4649,
      "ब्योरा": 4650,
      "शहीद": 4651,
      "आह्वान": 4652,
      "जैसल": 4653,
      "ज्योति": 4654,
      "दैनिक": 4655,
      "परामर्श": 4656,
      "बब्बर": 4657,
      "म्यां": 4658,
      "सत्तारू": 4659,
      "प्रार्थना": 4660,
      "मुमताज": 4661,
      "खासतौर": 4662,
      "दुष्कर्म": 4663,
      "एंबेसडर": 4664,
      "17": 4665,
      "20": 4666,
      "60": 4667,
      "अह": 4668,
      "अगु": 4669,
      "अमीर": 4670,
      "अख्": 4671,
      "आइस": 4672,
      "आलू": 4673,
      "आधु": 4674,
      "आधे": 4675,
      "इर": 4676,
      "इंग": 4677,
      "इच्छ": 4678,
      "उत": 4679,
      "उंड": 4680,
      "उबर": 4681,
      "एक्": 4682,
      "कस": 4683,
      "जर्म": 4684,
      "ठिका": 4685,
      "डें": 4686,
      "ढलान": 4687,
      "तड़": 4688,
      "तर्ज": 4689,
      "तटीय": 4690,
      "नसी": 4691,
      "न्ह": 4692,
      "नरेश": 4693,
      "नगमा": 4694,
      "पवि": 4695,
      "प्यार": 4696,
      "फोड़": 4697,
      "फैल": 4698,
      "बहन": 4699,
      "बंट": 4700,
      "मछ": 4701,
      "मती": 4702,
      "मथे": 4703,
      "मधु": 4704,
      "यहीं": 4705,
      "लम": 4706,
      "ल्ट": 4707,
      "वधि": 4708,
      "वडोदरा": 4709,
      "शहा": 4710,
      "शंस": 4711,
      "हवे": 4712,
      "ान": 4713,
      "ीकरण": 4714,
      "ूली": 4715,
      "ेश": 4716,
      "ॉनिक": 4717,
      "केस": 4718,
      "नेमा": 4719,
      "कोच": 4720,
      "काज": 4721,
      "स्वर्": 4722,
      "स्पि": 4723,
      "रालो": 4724,
      "वाता": 4725,
      "्यु": 4726,
      "क्लि": 4727,
      "क्सर": 4728,
      "प्रार": 4729,
      "प्रक्षे": 4730,
      "प्रसिद्ध": 4731,
      "जाया": 4732,
      "विजे": 4733,
      "विराम": 4734,
      "लिता": 4735,
      "लियन": 4736,
      "साक्ष": 4737,
      "सानिया": 4738,
      "निकीकरण": 4739,
      "बाड़": 4740,
      "बालिका": 4741,
      "पाता": 4742,
      "तिक": 4743,
      "ड़ियां": 4744,
      "संत": 4745,
      "संपा": 4746,
      "मंद": 4747,
      "तीव्र": 4748,
      "सीई": 4749,
      "मिनी": 4750,
      "मिट्टी": 4751,
      "वारंट": 4752,
      "सिरी": 4753,
      "सिनेमा": 4754,
      "रिटा": 4755,
      "रिकार्ड": 4756,
      "देशी": 4757,
      "अपे": 4758,
      "जिंदगी": 4759,
      "शाली": 4760,
      "हिन्": 4761,
      "मेश": 4762,
      "ंडि": 4763,
      "कुश": 4764,
      "बारू": 4765,
      "खासा": 4766,
      "खासी": 4767,
      "चिन्ह": 4768,
      "बताए": 4769,
      "जनन": 4770,
      "राज्यमंत्री": 4771,
      "आईसी": 4772,
      "मामूली": 4773,
      "मोक्रे": 4774,
      "लगाना": 4775,
      "बरत": 4776,
      "बंधक": 4777,
      "जेवी": 4778,
      "प्पा": 4779,
      "टाई": 4780,
      "येचुरी": 4781,
      "पोषण": 4782,
      "बुक": 4783,
      "बुरा": 4784,
      "च्चे": 4785,
      "बढ़ते": 4786,
      "पिन": 4787,
      "उपचार": 4788,
      "डीजी": 4789,
      "गुर": 4790,
      "आरएस": 4791,
      "आरआईएल": 4792,
      "फाइल": 4793,
      "जिसने": 4794,
      "गिलानी": 4795,
      "सारे": 4796,
      "कामना": 4797,
      "मुताबिक़": 4798,
      "छापा": 4799,
      "छाड़": 4800,
      "कृष्": 4801,
      "सुरक्षाबलों": 4802,
      "इंस्टी": 4803,
      "ठान": 4804,
      "पैमाने": 4805,
      "प्रांत": 4806,
      "ओरलैंड": 4807,
      "घाटा": 4808,
      "फोरेंसिक": 4809,
      "बनती": 4810,
      "बनर्जी": 4811,
      "बनवाया": 4812,
      "सचिवों": 4813,
      "बढ़ाया": 4814,
      "दरों": 4815,
      "दरलैंड": 4816,
      "घटनास्थल": 4817,
      "२००६": 4818,
      "ंकन": 4819,
      "रामविलास": 4820,
      "न्यास": 4821,
      "स्वराज": 4822,
      "स्वस्थ": 4823,
      "डेमोक्रे": 4824,
      "ज्ञात": 4825,
      "ंटने": 4826,
      "कार्यक्रमों": 4827,
      "जगहों": 4828,
      "गौरव": 4829,
      "सकेगी": 4830,
      "कोशिशों": 4831,
      "लाहौल": 4832,
      "चर्य": 4833,
      "चौहान": 4834,
      "सहयोगियों": 4835,
      "पकड़ा": 4836,
      "गंज": 4837,
      "हटाया": 4838,
      "समझौतों": 4839,
      "सेंसर": 4840,
      "मंदिरों": 4841,
      "मणिश": 4842,
      "विस्फ़ो": 4843,
      "उपलब्धता": 4844,
      "उत्पाद": 4845,
      "तलाक": 4846,
      "चैनल": 4847,
      "सुरजीत": 4848,
      "लगेगा": 4849,
      "हेली": 4850,
      "धर्मनिरपेक्ष": 4851,
      "समीप": 4852,
      "आश्चर्य": 4853,
      "सड़कों": 4854,
      "जॉन": 4855,
      "निशान": 4856,
      "इतने": 4857,
      "राशिद": 4858,
      "दुर्भाग्य": 4859,
      "पंचायती": 4860,
      "वैज्ञानिकों": 4861,
      "तालमेल": 4862,
      "पॉल": 4863,
      "दृश्य": 4864,
      "पढ़ने": 4865,
      "लड़ाकू": 4866,
      "कितने": 4867,
      "हिस्सेदारी": 4868,
      "ठहराया": 4869,
      "ठहराते": 4870,
      "साध्वी": 4871,
      "बहादुर": 4872,
      "प्रतिबंधित": 4873,
      "उग्रवादी": 4874,
      "उग्रवादियों": 4875,
      "झटके": 4876,
      "शरीफ": 4877,
      "साहित्य": 4878,
      "गिराया": 4879,
      "हलफनामा": 4880,
      "दुकानें": 4881,
      "आत्मसमर्पण": 4882,
      "सीएमपी": 4883,
      "दरवाजे": 4884,
      "अमृतसर": 4885,
      "लक्ष्मी": 4886,
      "तालिबान": 4887,
      "नजदीक": 4888,
      "पद्म": 4889,
      "कॉरपोरेशन": 4890,
      "फंसे": 4891,
      "फाइनल": 4892,
      "प्रोफेसर": 4893,
      "एनएससीएन": 4894,
      "स्टाफ": 4895,
      "सराहना": 4896,
      "श्याम": 4897,
      "कारोबार": 4898,
      "पुरुष": 4899,
      "दुग्गल": 4900,
      "ड्राइवर": 4901,
      "पब्लिक": 4902,
      "जसवंत": 4903,
      "ताइबा": 4904,
      "मंजिल": 4905,
      "गुड़गांव": 4906,
      "एमबीबीएस": 4907,
      "सत्तारूढ़": 4908,
      "आइसलैंड": 4909,
      "आधुनिकीकरण": 4910,
      "इच्छुक": 4911,
      "जर्मनी": 4912,
      "पवित्र": 4913,
      "मथेरानी": 4914,
      "शहाबुद्दीन": 4915,
      "रालोद": 4916,
      "सिरीज़": 4917,
      "25": 4918,
      "28": 4919,
      "ंबा": 4920,
      "अमन": 4921,
      "अंगों": 4922,
      "आजा": 4923,
      "आवं": 4924,
      "आवेदन": 4925,
      "इब्रा": 4926,
      "एँ": 4927,
      "एडा": 4928,
      "एबीसी": 4929,
      "ओवर": 4930,
      "औद्योग": 4931,
      "कस्": 4932,
      "कपूर": 4933,
      "कच्चे": 4934,
      "गये": 4935,
      "घट": 4936,
      "घने": 4937,
      "झू": 4938,
      "डम": 4939,
      "दया": 4940,
      "धारी": 4941,
      "नवी": 4942,
      "नशी": 4943,
      "नमक": 4944,
      "प्टर": 4945,
      "फिक": 4946,
      "फौर": 4947,
      "फ्यू": 4948,
      "बधा": 4949,
      "भरा": 4950,
      "महो": 4951,
      "यॉ": 4952,
      "यर्ड": 4953,
      "रार": 4954,
      "रजा": 4955,
      "रनों": 4956,
      "लब": 4957,
      "लैस": 4958,
      "ललिता": 4959,
      "शहरी": 4960,
      "सली": 4961,
      "सनीय": 4962,
      "सफर": 4963,
      "हता": 4964,
      "हरू": 4965,
      "हस्ति": 4966,
      "ित्व": 4967,
      "०५": 4968,
      "४५": 4969,
      "४७": 4970,
      "५६": 4971,
      "५७": 4972,
      "नेत्री": 4973,
      "नेहरू": 4974,
      "किट": 4975,
      "किलों": 4976,
      "कीय": 4977,
      "कोर्स": 4978,
      "सेमि": 4979,
      "स्पर्": 4980,
      "नाला": 4981,
      "नाइट": 4982,
      "र्शीद": 4983,
      "वाहा": 4984,
      "वाड़": 4985,
      "वानी": 4986,
      "वायर": 4987,
      "वासियों": 4988,
      "लाश": 4989,
      "लामा": 4990,
      "लाहो": 4991,
      "लापता": 4992,
      "लादेन": 4993,
      "लेस": 4994,
      "क्वि": 4995,
      "क्ताओं": 4996,
      "प्रशं": 4997,
      "प्रजनन": 4998,
      "माय": 4999
    },
    "merges": [
      [
        "क",
        "े"
      ],
      [
        "ा",
        "र"
      ],
      [
        "न",
        "े"
      ],
      [
        "्",
        "र"
      ],
      [
        "े",
        "ं"
      ],
      [
        "य",
        "ा"
      ],
      [
        "ो",
        "ं"
      ],
      [
        "ह",
        "ै"
      ],
      [
        "म",
        "ें"
      ],
      [
        "क",
        "ि"
      ],
      [
        "क",
        "ी"
      ],
      [
        "क",
        "ो"
      ],
      [
        "क",
        "ा"
      ],
      [
        "स",
        "े"
      ],
      [
        "क",
        "र"
      ],
      [
        "त",
        "ा"
      ],
      [
        "स",
        "्"
      ],
      [
        "न",
        "ा"
      ],
      [
        "र",
        "्"
      ],
      [
        "ह",
        "ा"
      ],
      [
        "र",
        "ा"
      ],
      [
        "व",
        "ा"
      ],
      [
        "ल",
        "ा"
      ],
      [
        "प",
        "र"
      ],
      [
        "्",
        "य"
      ],
      [
        "ल",
        "े"
      ],
      [
        "क",
        "्"
      ],
      [
        "प",
        "्र"
      ],
      [
        "ज",
        "ा"
      ],
      [
        "म",
        "ा"
      ],
      [
        "व",
        "ि"
      ],
      [
        "ह",
        "ी"
      ],
      [
        "क",
        "ार"
      ],
      [
        "ल",
        "ि"
      ],
      [
        "इ",
        "स"
      ],
      [
        "औ",
        "र"
      ],
      [
        "द",
        "े"
      ],
      [
        "त",
        "्र"
      ],
      [
        "स",
        "ा"
      ],
      [
        "न",
        "ि"
      ],
      [
        "ब",
        "ा"
      ],
      [
        "प",
        "ा"
      ],
      [
        "त",
        "ि"
      ],
      [
        "द",
        "ि"
      ],
      [
        "भ",
        "ी"
      ],
      [
        "उ",
        "न"
      ],
      [
        "ड",
        "़"
      ],
      [
        "न",
        "ी"
      ],
      [
        "स",
        "ं"
      ],
      [
        "म",
        "ु"
      ],
      [
        "ह",
        "ो"
      ],
      [
        "क्",
        "ष"
      ],
      [
        "ग",
        "ा"
      ],
      [
        "क",
        "हा"
      ],
      [
        "ह",
        "ु"
      ],
      [
        "है",
        "ं"
      ],
      [
        "म",
        "ं"
      ],
      [
        "त",
        "ी"
      ],
      [
        "त",
        "े"
      ],
      [
        "ल",
        "ी"
      ],
      [
        "स",
        "ी"
      ],
      [
        "लि",
        "ए"
      ],
      [
        "म",
        "ि"
      ],
      [
        "थ",
        "ा"
      ],
      [
        "व",
        "ार"
      ],
      [
        "त",
        "्"
      ],
      [
        "स",
        "ि"
      ],
      [
        "ही",
        "ं"
      ],
      [
        "स",
        "र"
      ],
      [
        "्",
        "ह"
      ],
      [
        "र",
        "ि"
      ],
      [
        "द",
        "ा"
      ],
      [
        "ं",
        "ग"
      ],
      [
        "्",
        "ट"
      ],
      [
        "भ",
        "ा"
      ],
      [
        "न",
        "हीं"
      ],
      [
        "मं",
        "त्र"
      ],
      [
        "उन",
        "्ह"
      ],
      [
        "द",
        "ी"
      ],
      [
        "रा",
        "ज"
      ],
      [
        "य",
        "ों"
      ],
      [
        "स",
        "म"
      ],
      [
        "दे",
        "श"
      ],
      [
        "ए",
        "क"
      ],
      [
        "द",
        "्"
      ],
      [
        "र",
        "ी"
      ],
      [
        "कि",
        "या"
      ],
      [
        "ो",
        "ग"
      ],
      [
        "ि",
        "त"
      ],
      [
        "र",
        "ह"
      ],
      [
        "म",
        "ी"
      ],
      [
        "स",
        "ु"
      ],
      [
        "ग",
        "या"
      ],
      [
        "ल",
        "्"
      ],
      [
        "अ",
        "प"
      ],
      [
        "च",
        "ा"
      ],
      [
        "य",
        "ह"
      ],
      [
        "भ",
        "ार"
      ],
      [
        "ों",
        "ने"
      ],
      [
        "ध",
        "ा"
      ],
      [
        "उन्ह",
        "ोंने"
      ],
      [
        "कर",
        "ने"
      ],
      [
        "ि",
        "क"
      ],
      [
        "प",
        "ू"
      ],
      [
        "प",
        "ु"
      ],
      [
        "सर",
        "कार"
      ],
      [
        "मंत्र",
        "ी"
      ],
      [
        "ं",
        "द"
      ],
      [
        "ज",
        "ि"
      ],
      [
        "श",
        "ा"
      ],
      [
        "बा",
        "द"
      ],
      [
        "न",
        "ों"
      ],
      [
        "अ",
        "ध"
      ],
      [
        "ह",
        "ि"
      ],
      [
        "प",
        "ी"
      ],
      [
        "्",
        "या"
      ],
      [
        "र",
        "ो"
      ],
      [
        "ब",
        "ी"
      ],
      [
        "र",
        "ू"
      ],
      [
        "द",
        "ो"
      ],
      [
        "म",
        "े"
      ],
      [
        "ज",
        "ी"
      ],
      [
        "श",
        "्"
      ],
      [
        "व",
        "े"
      ],
      [
        "दि",
        "या"
      ],
      [
        "ं",
        "ड"
      ],
      [
        "स्",
        "ता"
      ],
      [
        "क",
        "ु"
      ],
      [
        "ब",
        "ार"
      ],
      [
        "र",
        "े"
      ],
      [
        "ष",
        "्ट"
      ],
      [
        "ं",
        "ध"
      ],
      [
        "्र",
        "ी"
      ],
      [
        "हु",
        "ए"
      ],
      [
        "ओ",
        "ं"
      ],
      [
        "च",
        "ु"
      ],
      [
        "त",
        "क"
      ],
      [
        "मा",
        "न"
      ],
      [
        "ग",
        "ी"
      ],
      [
        "ख",
        "ा"
      ],
      [
        "इ",
        "न"
      ],
      [
        "अ",
        "न"
      ],
      [
        "थ",
        "ी"
      ],
      [
        "व",
        "ी"
      ],
      [
        "च",
        "ि"
      ],
      [
        "ल",
        "ोग"
      ],
      [
        "श",
        "ि"
      ],
      [
        "ट",
        "ी"
      ],
      [
        "ह",
        "म"
      ],
      [
        "ं",
        "च"
      ],
      [
        "ग",
        "ई"
      ],
      [
        "्र",
        "े"
      ],
      [
        "स",
        "ू"
      ],
      [
        "सि",
        "ं"
      ],
      [
        "धा",
        "न"
      ],
      [
        "त",
        "र"
      ],
      [
        "प",
        "ह"
      ],
      [
        "ार",
        "ी"
      ],
      [
        "ब",
        "ता"
      ],
      [
        "सा",
        "थ"
      ],
      [
        "ढ",
        "़"
      ],
      [
        "प",
        "ार"
      ],
      [
        "ज",
        "न"
      ],
      [
        "भार",
        "त"
      ],
      [
        "ग",
        "ए"
      ],
      [
        "सिं",
        "ह"
      ],
      [
        "उ",
        "स"
      ],
      [
        "राज",
        "्य"
      ],
      [
        "जा",
        "ए"
      ],
      [
        "मि",
        "ल"
      ],
      [
        "क",
        "्र"
      ],
      [
        "ि",
        "यों"
      ],
      [
        "रह",
        "े"
      ],
      [
        "च",
        "ार"
      ],
      [
        "आ",
        "ई"
      ],
      [
        "त",
        "ो"
      ],
      [
        "ग",
        "े"
      ],
      [
        "ट",
        "े"
      ],
      [
        "कि",
        "न"
      ],
      [
        "बा",
        "त"
      ],
      [
        "क",
        "ों"
      ],
      [
        "ल",
        "ों"
      ],
      [
        "मा",
        "म"
      ],
      [
        "ए",
        "स"
      ],
      [
        "मु",
        "ख"
      ],
      [
        "ह",
        "र"
      ],
      [
        "ले",
        "किन"
      ],
      [
        "म",
        "ो"
      ],
      [
        "म",
        "ार"
      ],
      [
        "ल",
        "गा"
      ],
      [
        "ब",
        "र"
      ],
      [
        "ब",
        "ि"
      ],
      [
        "बता",
        "या"
      ],
      [
        "लि",
        "स"
      ],
      [
        "स",
        "द"
      ],
      [
        "र",
        "ु"
      ],
      [
        "क्ष",
        "ा"
      ],
      [
        "पु",
        "लिस"
      ],
      [
        "ि",
        "या"
      ],
      [
        "स्",
        "था"
      ],
      [
        "र्",
        "ट"
      ],
      [
        "व",
        "ह"
      ],
      [
        "पू",
        "र्"
      ],
      [
        "थ",
        "े"
      ],
      [
        "य",
        "ो"
      ],
      [
        "स",
        "क"
      ],
      [
        "व",
        "र्"
      ],
      [
        "स्",
        "थ"
      ],
      [
        "इस",
        "के"
      ],
      [
        "ब",
        "ै"
      ],
      [
        "श",
        "ु"
      ],
      [
        "क्",
        "त"
      ],
      [
        "र",
        "ही"
      ],
      [
        "च",
        "ी"
      ],
      [
        "्ट",
        "ी"
      ],
      [
        "ज",
        "ब"
      ],
      [
        "हो",
        "ने"
      ],
      [
        "य",
        "ु"
      ],
      [
        "लोग",
        "ों"
      ],
      [
        "स्",
        "ट"
      ],
      [
        "ब",
        "ंध"
      ],
      [
        "ि",
        "कार"
      ],
      [
        "के",
        "ंद"
      ],
      [
        "जा",
        "ने"
      ],
      [
        "ज",
        "े"
      ],
      [
        "र",
        "हा"
      ],
      [
        "को",
        "ई"
      ],
      [
        "प",
        "े"
      ],
      [
        "अप",
        "ने"
      ],
      [
        "अ",
        "ं"
      ],
      [
        "द",
        "ौ"
      ],
      [
        "्री",
        "य"
      ],
      [
        "कि",
        "स्ता"
      ],
      [
        "म",
        "्"
      ],
      [
        "पा",
        "किस्ता"
      ],
      [
        "त",
        "ं"
      ],
      [
        "प",
        "्"
      ],
      [
        "श",
        "न"
      ],
      [
        "रा",
        "ष्ट"
      ],
      [
        "ज",
        "ो"
      ],
      [
        "हा",
        "ं"
      ],
      [
        "ट",
        "ा"
      ],
      [
        "य",
        "े"
      ],
      [
        "ने",
        "ता"
      ],
      [
        "ड़",
        "ा"
      ],
      [
        "ं",
        "प"
      ],
      [
        "ल",
        "य"
      ],
      [
        "ब",
        "े"
      ],
      [
        "प",
        "ो"
      ],
      [
        "वा",
        "ले"
      ],
      [
        "पार",
        "्टी"
      ],
      [
        "म",
        "ौ"
      ],
      [
        "य",
        "ोग"
      ],
      [
        "ब",
        "ना"
      ],
      [
        "ंग",
        "्रे"
      ],
      [
        "कार",
        "्य"
      ],
      [
        "कु",
        "छ"
      ],
      [
        "ल",
        "ो"
      ],
      [
        "ब",
        "ु"
      ],
      [
        "द",
        "ू"
      ],
      [
        "अ",
        "ब"
      ],
      [
        "प्र",
        "धान"
      ],
      [
        "का",
        "ंग्रे"
      ],
      [
        "च",
        "्"
      ],
      [
        "फ",
        "ी"
      ],
      [
        "फ",
        "ि"
      ],
      [
        "ना",
        "व"
      ],
      [
        "द्",
        "वार"
      ],
      [
        "पह",
        "ले"
      ],
      [
        "्र",
        "ा"
      ],
      [
        "ख",
        "ि"
      ],
      [
        "प्रधान",
        "मंत्री"
      ],
      [
        "स",
        "ो"
      ],
      [
        "ै",
        "स"
      ],
      [
        "कांग्रे",
        "स"
      ],
      [
        "ज",
        "ू"
      ],
      [
        "ब",
        "ढ़"
      ],
      [
        "द्वार",
        "ा"
      ],
      [
        "प",
        "ि"
      ],
      [
        "पर",
        "ि"
      ],
      [
        "हु",
        "ई"
      ],
      [
        "ड़",
        "ी"
      ],
      [
        "प्र",
        "ति"
      ],
      [
        "द",
        "र्"
      ],
      [
        "ट",
        "र"
      ],
      [
        "उ",
        "त्"
      ],
      [
        "अध",
        "िकार"
      ],
      [
        "उ",
        "प"
      ],
      [
        "०",
        "०"
      ],
      [
        "भार",
        "ती"
      ],
      [
        "ड",
        "ी"
      ],
      [
        "ग",
        "ु"
      ],
      [
        "चु",
        "नाव"
      ],
      [
        "पाकिस्ता",
        "न"
      ],
      [
        "माम",
        "ले"
      ],
      [
        "क",
        "ह"
      ],
      [
        "कर",
        "ा"
      ],
      [
        "बै",
        "ठ"
      ],
      [
        "नि",
        "र्"
      ],
      [
        "द",
        "ु"
      ],
      [
        "ौ",
        "र"
      ],
      [
        "ह",
        "ार"
      ],
      [
        "उन",
        "के"
      ],
      [
        "र",
        "क्षा"
      ],
      [
        "रा",
        "न"
      ],
      [
        "न",
        "्"
      ],
      [
        "प",
        "ति"
      ],
      [
        "लि",
        "या"
      ],
      [
        "व",
        "्य"
      ],
      [
        "दो",
        "नों"
      ],
      [
        "ष",
        "्"
      ],
      [
        "त",
        "रह"
      ],
      [
        "्य",
        "क्ष"
      ],
      [
        "ब",
        "्"
      ],
      [
        "अन",
        "ु"
      ],
      [
        "यो",
        "ज"
      ],
      [
        "श",
        "ी"
      ],
      [
        "उन्ह",
        "ें"
      ],
      [
        "य",
        "ू"
      ],
      [
        "ज",
        "ु"
      ],
      [
        "क",
        "ंप"
      ],
      [
        "प",
        "हु"
      ],
      [
        "अप",
        "नी"
      ],
      [
        "क्ष",
        "े"
      ],
      [
        "ज",
        "पा"
      ],
      [
        "बी",
        "च"
      ],
      [
        "आ",
        "र"
      ],
      [
        "कि",
        "सी"
      ],
      [
        "फ",
        "ा"
      ],
      [
        "ल्",
        "ली"
      ],
      [
        "ल",
        "ग"
      ],
      [
        "श",
        "े"
      ],
      [
        "मुख",
        "्य"
      ],
      [
        "स्",
        "त"
      ],
      [
        "ग",
        "ो"
      ],
      [
        "सम",
        "य"
      ],
      [
        "कर",
        "ते"
      ],
      [
        "दि",
        "ल्ली"
      ],
      [
        "ध",
        "ार"
      ],
      [
        "म",
        "न"
      ],
      [
        "अ",
        "ग"
      ],
      [
        "आ",
        "तं"
      ],
      [
        "य",
        "र"
      ],
      [
        "त्र",
        "ों"
      ],
      [
        "ड़",
        "े"
      ],
      [
        "भा",
        "जपा"
      ],
      [
        "दौ",
        "रान"
      ],
      [
        "ब",
        "ो"
      ],
      [
        "म",
        "ू"
      ],
      [
        "कर",
        "्"
      ],
      [
        "जि",
        "स"
      ],
      [
        "दे",
        "ने"
      ],
      [
        "पा",
        "स"
      ],
      [
        "जा",
        "न"
      ],
      [
        "रू",
        "प"
      ],
      [
        "म",
        "द"
      ],
      [
        "पूर्",
        "व"
      ],
      [
        "ख",
        "ु"
      ],
      [
        "ण",
        "ा"
      ],
      [
        "नि",
        "क"
      ],
      [
        "भारती",
        "य"
      ],
      [
        "बार",
        "े"
      ],
      [
        "ग",
        "ठ"
      ],
      [
        "अध",
        "्यक्ष"
      ],
      [
        "क",
        "ई"
      ],
      [
        "ता",
        "ब"
      ],
      [
        "फ",
        "ैस"
      ],
      [
        "स",
        "भी"
      ],
      [
        "त",
        "ै"
      ],
      [
        "केंद",
        "्र"
      ],
      [
        "बैठ",
        "क"
      ],
      [
        "य",
        "ार"
      ],
      [
        "हि",
        "ए"
      ],
      [
        "ें",
        "गे"
      ],
      [
        "चा",
        "हिए"
      ],
      [
        "ल",
        "त"
      ],
      [
        "्य",
        "ू"
      ],
      [
        "कार",
        "ण"
      ],
      [
        "स",
        "भा"
      ],
      [
        "वा",
        "ई"
      ],
      [
        "ग",
        "ि"
      ],
      [
        "कि",
        "ए"
      ],
      [
        "ले",
        "कर"
      ],
      [
        "त",
        "ार"
      ],
      [
        "जाए",
        "गा"
      ],
      [
        "वर्",
        "ष"
      ],
      [
        "खि",
        "ला"
      ],
      [
        "र",
        "ख"
      ],
      [
        "म",
        "त"
      ],
      [
        "स",
        "ार"
      ],
      [
        "क",
        "ै"
      ],
      [
        "च",
        "ल"
      ],
      [
        "ल",
        "ू"
      ],
      [
        "का",
        "म"
      ],
      [
        "ट",
        "ि"
      ],
      [
        "भा",
        "ग"
      ],
      [
        "प्र",
        "देश"
      ],
      [
        "ह",
        "न"
      ],
      [
        "मु",
        "ताब"
      ],
      [
        "मुताब",
        "िक"
      ],
      [
        "छ",
        "ा"
      ],
      [
        "रु",
        "प"
      ],
      [
        "राष्ट",
        "्र"
      ],
      [
        "क",
        "म"
      ],
      [
        "नी",
        "ति"
      ],
      [
        "शु",
        "रू"
      ],
      [
        "क",
        "ृ"
      ],
      [
        "प",
        "क्ष"
      ],
      [
        "ो",
        "ड़"
      ],
      [
        "र्",
        "थ"
      ],
      [
        "सु",
        "रक्षा"
      ],
      [
        "ज",
        "्"
      ],
      [
        "ह",
        "त"
      ],
      [
        "म",
        "ै"
      ],
      [
        "शा",
        "मिल"
      ],
      [
        "अन",
        "्य"
      ],
      [
        "ड",
        "ि"
      ],
      [
        "सं",
        "बंध"
      ],
      [
        "अ",
        "मे"
      ],
      [
        "आ",
        "प"
      ],
      [
        "व",
        "र"
      ],
      [
        "यु",
        "क्त"
      ],
      [
        "योज",
        "ना"
      ],
      [
        "इ",
        "ं"
      ],
      [
        "ड",
        "ा"
      ],
      [
        "त्",
        "व"
      ],
      [
        "पो",
        "र्ट"
      ],
      [
        "अमे",
        "रि"
      ],
      [
        "कार",
        "ी"
      ],
      [
        "मु",
        "द्"
      ],
      [
        "ज",
        "ार"
      ],
      [
        "वा",
        "ली"
      ],
      [
        "च",
        "े"
      ],
      [
        "कह",
        "ना"
      ],
      [
        "ती",
        "न"
      ],
      [
        "मी",
        "र"
      ],
      [
        "नि",
        "या"
      ],
      [
        "ए",
        "म"
      ],
      [
        "भ",
        "ू"
      ],
      [
        "ा",
        "लय"
      ],
      [
        "सा",
        "ल"
      ],
      [
        "हु",
        "आ"
      ],
      [
        "पि",
        "छ"
      ],
      [
        "म",
        "ह"
      ],
      [
        "को",
        "र्ट"
      ],
      [
        "वा",
        "द"
      ],
      [
        "क्षे",
        "त्र"
      ],
      [
        "म",
        "हा"
      ],
      [
        "द",
        "्र"
      ],
      [
        "खिला",
        "फ"
      ],
      [
        "ठ",
        "ा"
      ],
      [
        "उन",
        "की"
      ],
      [
        "फ",
        "्"
      ],
      [
        "ट",
        "ना"
      ],
      [
        "प",
        "ै"
      ],
      [
        "व",
        "ै"
      ],
      [
        "वि",
        "देश"
      ],
      [
        "दि",
        "न"
      ],
      [
        "द",
        "ल"
      ],
      [
        "मंत्र",
        "ालय"
      ],
      [
        "ृ",
        "ह"
      ],
      [
        "दे",
        "ख"
      ],
      [
        "क",
        "श्"
      ],
      [
        "ज",
        "़"
      ],
      [
        "भ",
        "े"
      ],
      [
        "प्र",
        "ा"
      ],
      [
        "रुप",
        "ये"
      ],
      [
        "अ",
        "भ"
      ],
      [
        "ज",
        "ारी"
      ],
      [
        "ओ",
        "र"
      ],
      [
        "स",
        "ब"
      ],
      [
        "कर",
        "ी"
      ],
      [
        "द्",
        "ध"
      ],
      [
        "इस",
        "से"
      ],
      [
        "र्",
        "ड"
      ],
      [
        "ज",
        "वा"
      ],
      [
        "ज्",
        "ञ"
      ],
      [
        "आ",
        "रो"
      ],
      [
        "स",
        "दी"
      ],
      [
        "प्र",
        "स्ता"
      ],
      [
        "क्र",
        "म"
      ],
      [
        "ए",
        "न"
      ],
      [
        "ग",
        "्र"
      ],
      [
        "घ",
        "ा"
      ],
      [
        "पहु",
        "ंच"
      ],
      [
        "य",
        "हां"
      ],
      [
        "स",
        "ह"
      ],
      [
        "हा",
        "ल"
      ],
      [
        "हो",
        "गा"
      ],
      [
        "सक",
        "ता"
      ],
      [
        "ची",
        "त"
      ],
      [
        "कर",
        "ना"
      ],
      [
        "त्र",
        "ा"
      ],
      [
        "बात",
        "चीत"
      ],
      [
        "सद",
        "स्"
      ],
      [
        "इ",
        "स्"
      ],
      [
        "र",
        "त"
      ],
      [
        "स",
        "चि"
      ],
      [
        "कश्",
        "मीर"
      ],
      [
        "से",
        "ना"
      ],
      [
        "पु",
        "र"
      ],
      [
        "ग",
        "ल"
      ],
      [
        "फ",
        "ो"
      ],
      [
        "स",
        "ै"
      ],
      [
        "नेता",
        "ओं"
      ],
      [
        "ज",
        "रू"
      ],
      [
        "पिछ",
        "ले"
      ],
      [
        "मा",
        "ंग"
      ],
      [
        "ब",
        "न"
      ],
      [
        "व",
        "ं"
      ],
      [
        "ना",
        "म"
      ],
      [
        "प",
        "र्"
      ],
      [
        "हा",
        "ला"
      ],
      [
        "पा",
        "ल"
      ],
      [
        "प",
        "द"
      ],
      [
        "य",
        "त"
      ],
      [
        "जान",
        "कारी"
      ],
      [
        "रो",
        "ध"
      ],
      [
        "सू",
        "त्रों"
      ],
      [
        "आरो",
        "प"
      ],
      [
        "हा",
        "ँ"
      ],
      [
        "जा",
        "ंच"
      ],
      [
        "ख",
        "े"
      ],
      [
        "ज",
        "य"
      ],
      [
        "वि",
        "चार"
      ],
      [
        "रि",
        "पोर्ट"
      ],
      [
        "आ",
        "योग"
      ],
      [
        "वि",
        "श्"
      ],
      [
        "य",
        "ी"
      ],
      [
        "स्",
        "वा"
      ],
      [
        "मुख्य",
        "मंत्री"
      ],
      [
        "अ",
        "ला"
      ],
      [
        "अ",
        "दा"
      ],
      [
        "रा",
        "त"
      ],
      [
        "चा",
        "ह"
      ],
      [
        "ज",
        "ै"
      ],
      [
        "या",
        "न"
      ],
      [
        "शे",
        "ष"
      ],
      [
        "स",
        "न"
      ],
      [
        "सा",
        "म"
      ],
      [
        "मो",
        "हन"
      ],
      [
        "जब",
        "कि"
      ],
      [
        "सचि",
        "व"
      ],
      [
        "क्",
        "स"
      ],
      [
        "ं",
        "कि"
      ],
      [
        "देश",
        "ों"
      ],
      [
        "ए",
        "ं"
      ],
      [
        "का",
        "न"
      ],
      [
        "अध",
        "िक"
      ],
      [
        "ं",
        "ब"
      ],
      [
        "स",
        "ौ"
      ],
      [
        "बढ़",
        "ा"
      ],
      [
        "ग",
        "त"
      ],
      [
        "प",
        "ं"
      ],
      [
        "य",
        "म"
      ],
      [
        "राष्ट",
        "्रीय"
      ],
      [
        "आ",
        "ज"
      ],
      [
        "इ",
        "ला"
      ],
      [
        "ट",
        "्र"
      ],
      [
        "ए",
        "फ"
      ],
      [
        "द",
        "र"
      ],
      [
        "तै",
        "यार"
      ],
      [
        "य",
        "न"
      ],
      [
        "राष्ट्र",
        "पति"
      ],
      [
        "्या",
        "दा"
      ],
      [
        "केंद",
        "्रीय"
      ],
      [
        "प्रस्ता",
        "व"
      ],
      [
        "घ",
        "टना"
      ],
      [
        "मा",
        "ण"
      ],
      [
        "ज",
        "्यादा"
      ],
      [
        "ण",
        "ी"
      ],
      [
        "भा",
        "व"
      ],
      [
        "ंध",
        "ी"
      ],
      [
        "अला",
        "वा"
      ],
      [
        "सा",
        "ं"
      ],
      [
        "जू",
        "द"
      ],
      [
        "वि",
        "शेष"
      ],
      [
        "दू",
        "सर"
      ],
      [
        "मन",
        "मोहन"
      ],
      [
        "अदा",
        "लत"
      ],
      [
        "रे",
        "ल"
      ],
      [
        "ल",
        "न"
      ],
      [
        "कर",
        "ण"
      ],
      [
        "२",
        "००"
      ],
      [
        "वा",
        "ल"
      ],
      [
        "ध",
        "न"
      ],
      [
        "वि",
        "भाग"
      ],
      [
        "त्",
        "या"
      ],
      [
        "उ",
        "ठा"
      ],
      [
        "१",
        "९"
      ],
      [
        "ष्",
        "ठ"
      ],
      [
        "ं",
        "क"
      ],
      [
        "च",
        "ना"
      ],
      [
        "त",
        "था"
      ],
      [
        "फैस",
        "ला"
      ],
      [
        "द",
        "ार"
      ],
      [
        "ज",
        "र"
      ],
      [
        "ध",
        "ि"
      ],
      [
        "अधिकार",
        "ियों"
      ],
      [
        "अ",
        "भी"
      ],
      [
        "ग",
        "र"
      ],
      [
        "क्",
        "ति"
      ],
      [
        "उस",
        "के"
      ],
      [
        "घ",
        "ो"
      ],
      [
        "व",
        "ज"
      ],
      [
        "स",
        "मा"
      ],
      [
        "कर",
        "े"
      ],
      [
        "वि",
        "धान"
      ],
      [
        "दि",
        "ए"
      ],
      [
        "गा",
        "ंधी"
      ],
      [
        "मुद्",
        "दे"
      ],
      [
        "अ",
        "म"
      ],
      [
        "प",
        "ता"
      ],
      [
        "कर",
        "ोड़"
      ],
      [
        "मु",
        "ला"
      ],
      [
        "सम",
        "झ"
      ],
      [
        "सम",
        "र्थ"
      ],
      [
        "ं",
        "स"
      ],
      [
        "त",
        "ु"
      ],
      [
        "रा",
        "म"
      ],
      [
        "्य",
        "ों"
      ],
      [
        "ि",
        "श"
      ],
      [
        "नी",
        "य"
      ],
      [
        "हाला",
        "ंकि"
      ],
      [
        "उ",
        "से"
      ],
      [
        "दा",
        "न"
      ],
      [
        "गठ",
        "न"
      ],
      [
        "ह",
        "ों"
      ],
      [
        "वि",
        "धा"
      ],
      [
        "स्थ",
        "ित"
      ],
      [
        "उत्",
        "तर"
      ],
      [
        "अधिकार",
        "ी"
      ],
      [
        "न",
        "्या"
      ],
      [
        "ब",
        "ह"
      ],
      [
        "का",
        "फी"
      ],
      [
        "स्",
        "व"
      ],
      [
        "बि",
        "हार"
      ],
      [
        "छ",
        "े"
      ],
      [
        "भ",
        "र"
      ],
      [
        "पू",
        "री"
      ],
      [
        "फि",
        "र"
      ],
      [
        "पे",
        "श"
      ],
      [
        "लो",
        "क"
      ],
      [
        "फी",
        "सदी"
      ],
      [
        "न्",
        "न"
      ],
      [
        "र",
        "्र"
      ],
      [
        "मी",
        "द"
      ],
      [
        "अप",
        "ना"
      ],
      [
        "सब",
        "से"
      ],
      [
        "ड",
        "े"
      ],
      [
        "त",
        "ल"
      ],
      [
        "वि",
        "त"
      ],
      [
        "राज्य",
        "ों"
      ],
      [
        "प",
        "त्र"
      ],
      [
        "स्थ",
        "ि"
      ],
      [
        "ज्ञ",
        "ा"
      ],
      [
        "उ",
        "म्"
      ],
      [
        "य",
        "हाँ"
      ],
      [
        "ता",
        "ओं"
      ],
      [
        "ं",
        "ट"
      ],
      [
        "ड",
        "ॉ"
      ],
      [
        "जा",
        "ता"
      ],
      [
        "इस",
        "ी"
      ],
      [
        "बना",
        "ने"
      ],
      [
        "उम्",
        "मीद"
      ],
      [
        "ला",
        "ख"
      ],
      [
        "या",
        "चि"
      ],
      [
        "सं",
        "ख"
      ],
      [
        "कार्य",
        "क्रम"
      ],
      [
        "त",
        "हत"
      ],
      [
        "र",
        "ों"
      ],
      [
        "श",
        "ो"
      ],
      [
        "सम",
        "्"
      ],
      [
        "ं",
        "त"
      ],
      [
        "ब",
        "यान"
      ],
      [
        "ल",
        "ं"
      ],
      [
        "स",
        "र्"
      ],
      [
        "या",
        "त्रा"
      ],
      [
        "बो",
        "र्ड"
      ],
      [
        "क",
        "ॉ"
      ],
      [
        "राज",
        "नीति"
      ],
      [
        "करी",
        "ब"
      ],
      [
        "स्थि",
        "ति"
      ],
      [
        "ड",
        "ल"
      ],
      [
        "ड",
        "्"
      ],
      [
        "वि",
        "रोध"
      ],
      [
        "क्ष",
        "ण"
      ],
      [
        "हि",
        "ला"
      ],
      [
        "मार",
        "्"
      ],
      [
        "ध",
        "वार"
      ],
      [
        "बा",
        "व"
      ],
      [
        "ंग",
        "े"
      ],
      [
        "बु",
        "धवार"
      ],
      [
        "विश्",
        "व"
      ],
      [
        "घो",
        "ष"
      ],
      [
        "न",
        "ौ"
      ],
      [
        "म",
        "हिला"
      ],
      [
        "कर",
        "ेंगे"
      ],
      [
        "इस",
        "में"
      ],
      [
        "च्",
        "च"
      ],
      [
        "ं",
        "व"
      ],
      [
        "प",
        "त्"
      ],
      [
        "व",
        "रि"
      ],
      [
        "व",
        "हां"
      ],
      [
        "स्",
        "वी"
      ],
      [
        "अनु",
        "सार"
      ],
      [
        "व",
        "न"
      ],
      [
        "पी",
        "ए"
      ],
      [
        "गि",
        "र"
      ],
      [
        "ख",
        "ो"
      ],
      [
        "ज",
        "ग"
      ],
      [
        "त",
        "री"
      ],
      [
        "हा",
        "ई"
      ],
      [
        "पूर्",
        "ण"
      ],
      [
        "अमेरि",
        "का"
      ],
      [
        "कान",
        "ू"
      ],
      [
        "आतं",
        "क"
      ],
      [
        "आ",
        "ए"
      ],
      [
        "ह",
        "जार"
      ],
      [
        "या",
        "द"
      ],
      [
        "का",
        "स"
      ],
      [
        "मं",
        "गल"
      ],
      [
        "वरि",
        "ष्ठ"
      ],
      [
        "ब",
        "हु"
      ],
      [
        "ल",
        "ने"
      ],
      [
        "वार",
        "्"
      ],
      [
        "सक",
        "ते"
      ],
      [
        "कंप",
        "नी"
      ],
      [
        "याचि",
        "का"
      ],
      [
        "क",
        "्यों"
      ],
      [
        "हो",
        "गी"
      ],
      [
        "सी",
        "मा"
      ],
      [
        "रि",
        "या"
      ],
      [
        "जाए",
        "गी"
      ],
      [
        "ं",
        "गा"
      ],
      [
        "ट",
        "न"
      ],
      [
        "न",
        "ार"
      ],
      [
        "प्",
        "त"
      ],
      [
        "दर्",
        "ज"
      ],
      [
        "अ",
        "लग"
      ],
      [
        "सं",
        "युक्त"
      ],
      [
        "ख",
        "ंड"
      ],
      [
        "ग",
        "ौर"
      ],
      [
        "सक",
        "ती"
      ],
      [
        "इ",
        "से"
      ],
      [
        "ला",
        "ल"
      ],
      [
        "क्र",
        "िया"
      ],
      [
        "मंगल",
        "वार"
      ],
      [
        "च",
        "ला"
      ],
      [
        "ब",
        "ंद"
      ],
      [
        "र",
        "ण"
      ],
      [
        "कु",
        "मार"
      ],
      [
        "च",
        "ित"
      ],
      [
        "श",
        "नि"
      ],
      [
        "वा",
        "स"
      ],
      [
        "ले",
        "ने"
      ],
      [
        "त्",
        "म"
      ],
      [
        "जि",
        "न"
      ],
      [
        "ज",
        "ता"
      ],
      [
        "प्र",
        "मुख"
      ],
      [
        "वि",
        "कास"
      ],
      [
        "मु",
        "ंब"
      ],
      [
        "रो",
        "क"
      ],
      [
        "फ",
        "़"
      ],
      [
        "स",
        "मि"
      ],
      [
        "र्",
        "जी"
      ],
      [
        "व्य",
        "व"
      ],
      [
        "मुंब",
        "ई"
      ],
      [
        "ल",
        "ै"
      ],
      [
        "व",
        "्या"
      ],
      [
        "ार",
        "्"
      ],
      [
        "पा",
        "ंच"
      ],
      [
        "स्था",
        "न"
      ],
      [
        "नि",
        "यों"
      ],
      [
        "सो",
        "म"
      ],
      [
        "अ",
        "व"
      ],
      [
        "आ",
        "ने"
      ],
      [
        "क",
        "ू"
      ],
      [
        "ज",
        "ें"
      ],
      [
        "त",
        "ृ"
      ],
      [
        "कि",
        "यों"
      ],
      [
        "झ",
        "ा"
      ],
      [
        "स",
        "के"
      ],
      [
        "को",
        "शि"
      ],
      [
        "क्",
        "ता"
      ],
      [
        "गा",
        "ंव"
      ],
      [
        "कोशि",
        "श"
      ],
      [
        "ं",
        "ति"
      ],
      [
        "वा",
        "णी"
      ],
      [
        "न",
        "ई"
      ],
      [
        "ला",
        "ह"
      ],
      [
        "जा",
        "ना"
      ],
      [
        "मा",
        "ल"
      ],
      [
        "इस",
        "का"
      ],
      [
        "त्",
        "त"
      ],
      [
        "समि",
        "ति"
      ],
      [
        "य",
        "ल"
      ],
      [
        "स",
        "वाल"
      ],
      [
        "यू",
        "पीए"
      ],
      [
        "जरू",
        "रत"
      ],
      [
        "सां",
        "सद"
      ],
      [
        "वज",
        "ह"
      ],
      [
        "ध",
        "्या"
      ],
      [
        "सि",
        "ल"
      ],
      [
        "प्",
        "ता"
      ],
      [
        "मद",
        "द"
      ],
      [
        "भू",
        "मि"
      ],
      [
        "शनि",
        "वार"
      ],
      [
        "ं",
        "चा"
      ],
      [
        "उन",
        "का"
      ],
      [
        "जी",
        "त"
      ],
      [
        "च",
        "र्"
      ],
      [
        "ब",
        "द"
      ],
      [
        "स",
        "त"
      ],
      [
        "स्",
        "टे"
      ],
      [
        "पू",
        "रा"
      ],
      [
        "इ",
        "ंड"
      ],
      [
        "ए",
        "ल"
      ],
      [
        "द",
        "्य"
      ],
      [
        "टी",
        "म"
      ],
      [
        "फि",
        "ल्"
      ],
      [
        "प",
        "ड़"
      ],
      [
        "श",
        "्र"
      ],
      [
        "का",
        "ल"
      ],
      [
        "दि",
        "यों"
      ],
      [
        "साम",
        "ने"
      ],
      [
        "सोम",
        "वार"
      ],
      [
        "ज",
        "रि"
      ],
      [
        "म",
        "ही"
      ],
      [
        "र",
        "खा"
      ],
      [
        "श",
        "हर"
      ],
      [
        "स्",
        "पति"
      ],
      [
        "दूसर",
        "े"
      ],
      [
        "आ",
        "ड"
      ],
      [
        "ह",
        "रा"
      ],
      [
        "वा",
        "दी"
      ],
      [
        "कार",
        "ों"
      ],
      [
        "सो",
        "निया"
      ],
      [
        "फैस",
        "ले"
      ],
      [
        "समर्थ",
        "न"
      ],
      [
        "आड",
        "वाणी"
      ],
      [
        "ऐ",
        "सा"
      ],
      [
        "ब",
        "ू"
      ],
      [
        "ब",
        "ृह"
      ],
      [
        "हि",
        "स्"
      ],
      [
        "बृह",
        "स्पति"
      ],
      [
        "क",
        "़"
      ],
      [
        "ब",
        "्र"
      ],
      [
        "का",
        "त"
      ],
      [
        "बृहस्पति",
        "वार"
      ],
      [
        "ऐ",
        "से"
      ],
      [
        "श",
        "ं"
      ],
      [
        "रा",
        "व"
      ],
      [
        "प्र",
        "े"
      ],
      [
        "वि",
        "पक्ष"
      ],
      [
        "सू",
        "चना"
      ],
      [
        "भाव",
        "ना"
      ],
      [
        "विधान",
        "सभा"
      ],
      [
        "घोष",
        "णा"
      ],
      [
        "ग",
        "ृह"
      ],
      [
        "च",
        "ौ"
      ],
      [
        "ज",
        "म्"
      ],
      [
        "थ",
        "ि"
      ],
      [
        "वा",
        "प"
      ],
      [
        "प्र",
        "ी"
      ],
      [
        "अग",
        "र"
      ],
      [
        "जवा",
        "ब"
      ],
      [
        "व्यव",
        "स्था"
      ],
      [
        "अ",
        "फ"
      ],
      [
        "ट",
        "ल"
      ],
      [
        "ब",
        "जे"
      ],
      [
        "का",
        "श"
      ],
      [
        "स्",
        "या"
      ],
      [
        "प्र",
        "या"
      ],
      [
        "जम्",
        "मू"
      ],
      [
        "व",
        "ो"
      ],
      [
        "व",
        "री"
      ],
      [
        "ने",
        "तृ"
      ],
      [
        "र्",
        "फ"
      ],
      [
        "वे",
        "श"
      ],
      [
        "अमेरि",
        "की"
      ],
      [
        "अभ",
        "ि"
      ],
      [
        "मुला",
        "कात"
      ],
      [
        "बहु",
        "त"
      ],
      [
        "नेतृ",
        "त्व"
      ],
      [
        "भ",
        "ि"
      ],
      [
        "दे",
        "ते"
      ],
      [
        "बार",
        "िश"
      ],
      [
        "शु",
        "क्र"
      ],
      [
        "य",
        "क"
      ],
      [
        "श",
        "्री"
      ],
      [
        "वा",
        "न"
      ],
      [
        "प्र",
        "भा"
      ],
      [
        "सम",
        "स्या"
      ],
      [
        "सह",
        "योग"
      ],
      [
        "ए",
        "वं"
      ],
      [
        "क",
        "ट"
      ],
      [
        "ख",
        "री"
      ],
      [
        "न",
        "ट"
      ],
      [
        "ब",
        "ल"
      ],
      [
        "ब",
        "स"
      ],
      [
        "सी",
        "ट"
      ],
      [
        "अग",
        "ले"
      ],
      [
        "प्रया",
        "स"
      ],
      [
        "आ",
        "धार"
      ],
      [
        "इ",
        "रा"
      ],
      [
        "मि",
        "ली"
      ],
      [
        "सु",
        "न"
      ],
      [
        "ल्",
        "प"
      ],
      [
        "जन",
        "ता"
      ],
      [
        "अं",
        "तर"
      ],
      [
        "परि",
        "वार"
      ],
      [
        "संख",
        "्या"
      ],
      [
        "ए",
        "जें"
      ],
      [
        "ग",
        "्रा"
      ],
      [
        "ध",
        "ी"
      ],
      [
        "प",
        "क"
      ],
      [
        "क्",
        "या"
      ],
      [
        "सं",
        "घ"
      ],
      [
        "माम",
        "ला"
      ],
      [
        "मौ",
        "जूद"
      ],
      [
        "गिर",
        "फ्"
      ],
      [
        "ठ",
        "ी"
      ],
      [
        "फ",
        "े"
      ],
      [
        "म",
        "स"
      ],
      [
        "य",
        "ं"
      ],
      [
        "ल",
        "ड़"
      ],
      [
        "ह",
        "ित"
      ],
      [
        "ला",
        "ई"
      ],
      [
        "मं",
        "डल"
      ],
      [
        "उ",
        "ल्"
      ],
      [
        "र",
        "वि"
      ],
      [
        "ला",
        "लू"
      ],
      [
        "इस",
        "की"
      ],
      [
        "शा",
        "सन"
      ],
      [
        "बंध",
        "न"
      ],
      [
        "फिल्",
        "म"
      ],
      [
        "आ",
        "गे"
      ],
      [
        "लगा",
        "या"
      ],
      [
        "राजनीति",
        "क"
      ],
      [
        "शुक्र",
        "वार"
      ],
      [
        "ग",
        "ं"
      ],
      [
        "ट",
        "क"
      ],
      [
        "न",
        "जर"
      ],
      [
        "ब",
        "ड़ी"
      ],
      [
        "व",
        "हीं"
      ],
      [
        "प्र",
        "क्रिया"
      ],
      [
        "राज",
        "ग"
      ],
      [
        "जि",
        "ले"
      ],
      [
        "सदस्",
        "य"
      ],
      [
        "कानू",
        "न"
      ],
      [
        "याद",
        "व"
      ],
      [
        "ट",
        "्रे"
      ],
      [
        "य",
        "दि"
      ],
      [
        "श",
        "र्र"
      ],
      [
        "र्",
        "म"
      ],
      [
        "मु",
        "शर्र"
      ],
      [
        "ंद",
        "र"
      ],
      [
        "अं",
        "त"
      ],
      [
        "क्यों",
        "कि"
      ],
      [
        "ह",
        "टा"
      ],
      [
        "के",
        "ट"
      ],
      [
        "सु",
        "बह"
      ],
      [
        "मिल",
        "ने"
      ],
      [
        "तल",
        "ब"
      ],
      [
        "ग",
        "ू"
      ],
      [
        "घ",
        "र"
      ],
      [
        "२",
        "०"
      ],
      [
        "क्",
        "टर"
      ],
      [
        "कार",
        "्र"
      ],
      [
        "सं",
        "सद"
      ],
      [
        "मि",
        "ले"
      ],
      [
        "दू",
        "र"
      ],
      [
        "दर्",
        "शन"
      ],
      [
        "मुशर्र",
        "फ"
      ],
      [
        "त",
        "ों"
      ],
      [
        "द",
        "ों"
      ],
      [
        "पा",
        "नी"
      ],
      [
        "करा",
        "ने"
      ],
      [
        "व्य",
        "क्ति"
      ],
      [
        "कार्र",
        "वाई"
      ],
      [
        "आ",
        "देश"
      ],
      [
        "क",
        "द"
      ],
      [
        "र",
        "ें"
      ],
      [
        "सा",
        "न"
      ],
      [
        "सी",
        "बी"
      ],
      [
        "मि",
        "क"
      ],
      [
        "त्",
        "ता"
      ],
      [
        "चु",
        "के"
      ],
      [
        "उस",
        "ने"
      ],
      [
        "मार",
        "े"
      ],
      [
        "ट्र",
        "ो"
      ],
      [
        "समझ",
        "ौ"
      ],
      [
        "रवि",
        "वार"
      ],
      [
        "द",
        "ारी"
      ],
      [
        "प",
        "श्"
      ],
      [
        "प",
        "ड़ा"
      ],
      [
        "स",
        "ें"
      ],
      [
        "ह",
        "त्या"
      ],
      [
        "ी",
        "य"
      ],
      [
        "प्र",
        "काश"
      ],
      [
        "नि",
        "देश"
      ],
      [
        "वार्",
        "ता"
      ],
      [
        "जरि",
        "ए"
      ],
      [
        "अ",
        "च्"
      ],
      [
        "प",
        "ट"
      ],
      [
        "भ",
        "ग"
      ],
      [
        "व",
        "क्ता"
      ],
      [
        "वा",
        "ज"
      ],
      [
        "मं",
        "दि"
      ],
      [
        "्या",
        "लय"
      ],
      [
        "जै",
        "से"
      ],
      [
        "सम्",
        "मे"
      ],
      [
        "ग",
        "ै"
      ],
      [
        "ध",
        "िकार"
      ],
      [
        "ह",
        "ू"
      ],
      [
        "जिस",
        "में"
      ],
      [
        "चर्",
        "चा"
      ],
      [
        "न",
        "ो"
      ],
      [
        "ल",
        "ब्"
      ],
      [
        "वि",
        "क"
      ],
      [
        "आतं",
        "की"
      ],
      [
        "सम्मे",
        "लन"
      ],
      [
        "I",
        "N"
      ],
      [
        "J",
        "O"
      ],
      [
        "म",
        "ण"
      ],
      [
        "ह",
        "ल"
      ],
      [
        "१",
        "०"
      ],
      [
        "सम",
        "े"
      ],
      [
        "गौर",
        "तलब"
      ],
      [
        "JO",
        "IN"
      ],
      [
        "त",
        "ौर"
      ],
      [
        "ना",
        "ग"
      ],
      [
        "वा",
        "ह"
      ],
      [
        "दि",
        "खा"
      ],
      [
        "ते",
        "माल"
      ],
      [
        "सु",
        "प्री"
      ],
      [
        "सरकार",
        "ी"
      ],
      [
        "उप",
        "लब्"
      ],
      [
        "रख",
        "ने"
      ],
      [
        "इस्",
        "तेमाल"
      ],
      [
        "अंतर",
        "्रा"
      ],
      [
        "क",
        "मी"
      ],
      [
        "द",
        "न"
      ],
      [
        "र",
        "ल"
      ],
      [
        "श",
        "र्"
      ],
      [
        "ले",
        "ख"
      ],
      [
        "मा",
        "ना"
      ],
      [
        "सं",
        "भावना"
      ],
      [
        "पी",
        "ठ"
      ],
      [
        "पर्",
        "य"
      ],
      [
        "रेल",
        "वे"
      ],
      [
        "लै",
        "ंड"
      ],
      [
        "पश्",
        "चि"
      ],
      [
        "क",
        "पा"
      ],
      [
        "ग",
        "्"
      ],
      [
        "ग",
        "ढ़"
      ],
      [
        "ज",
        "ल्"
      ],
      [
        "द",
        "लों"
      ],
      [
        "भ",
        "ो"
      ],
      [
        "स्",
        "तर"
      ],
      [
        "वि",
        "स्"
      ],
      [
        "बा",
        "हर"
      ],
      [
        "ष्ट",
        "्रीय"
      ],
      [
        "मै",
        "ं"
      ],
      [
        "मह",
        "त्व"
      ],
      [
        "अभ",
        "िया"
      ],
      [
        "प्रभा",
        "वित"
      ],
      [
        "समे",
        "त"
      ],
      [
        "छ",
        "ोड़"
      ],
      [
        "ध",
        "्य"
      ],
      [
        "फ",
        "र"
      ],
      [
        "वा",
        "ला"
      ],
      [
        "पर",
        "माण"
      ],
      [
        "प्र",
        "ो"
      ],
      [
        "सं",
        "स्था"
      ],
      [
        "सै",
        "न"
      ],
      [
        "चाह",
        "ते"
      ],
      [
        "परमाण",
        "ु"
      ],
      [
        "छ",
        "ह"
      ],
      [
        "त",
        "्य"
      ],
      [
        "न",
        "ए"
      ],
      [
        "व",
        "ल"
      ],
      [
        "का",
        "ं"
      ],
      [
        "हा",
        "थ"
      ],
      [
        "मा",
        "ह"
      ],
      [
        "क्र",
        "ि"
      ],
      [
        "लोक",
        "सभा"
      ],
      [
        "अंतर्रा",
        "ष्ट्रीय"
      ],
      [
        "क",
        "त"
      ],
      [
        "ख",
        "्"
      ],
      [
        "ज",
        "ों"
      ],
      [
        "ज",
        "हां"
      ],
      [
        "ु",
        "क"
      ],
      [
        "ार",
        "े"
      ],
      [
        "इस",
        "लिए"
      ],
      [
        "शा",
        "ंति"
      ],
      [
        "कु",
        "ल"
      ],
      [
        "उस",
        "की"
      ],
      [
        "म्",
        "मे"
      ],
      [
        "निर्",
        "देश"
      ],
      [
        "आतं",
        "कियों"
      ],
      [
        "भूमि",
        "का"
      ],
      [
        "मही",
        "ने"
      ],
      [
        "भि",
        "न्न"
      ],
      [
        "अ",
        "हम"
      ],
      [
        "त",
        "म"
      ],
      [
        "त",
        "य"
      ],
      [
        "स",
        "ल"
      ],
      [
        "से",
        "वा"
      ],
      [
        "वि",
        "वाद"
      ],
      [
        "पू",
        "रे"
      ],
      [
        "उपलब्",
        "ध"
      ],
      [
        "इ",
        "ट"
      ],
      [
        "ध",
        "ु"
      ],
      [
        "स",
        "हम"
      ],
      [
        "भार",
        "ी"
      ],
      [
        "पत्र",
        "कारों"
      ],
      [
        "अभिया",
        "न"
      ],
      [
        "ं",
        "टे"
      ],
      [
        "फ",
        "ल"
      ],
      [
        "रा",
        "ध"
      ],
      [
        "सं",
        "गठन"
      ],
      [
        "धा",
        "नी"
      ],
      [
        "पाकिस्ता",
        "नी"
      ],
      [
        "जो",
        "र"
      ],
      [
        "मू",
        "ल"
      ],
      [
        "ग्र",
        "ह"
      ],
      [
        "मंदि",
        "र"
      ],
      [
        "आ",
        "या"
      ],
      [
        "ड",
        "िया"
      ],
      [
        "न",
        "्यू"
      ],
      [
        "स",
        "मु"
      ],
      [
        "दि",
        "नों"
      ],
      [
        "सु",
        "ना"
      ],
      [
        "शि",
        "व"
      ],
      [
        "कंप",
        "नियों"
      ],
      [
        "सदस्",
        "यों"
      ],
      [
        "क",
        "ला"
      ],
      [
        "ब",
        "चा"
      ],
      [
        "वि",
        "भिन्न"
      ],
      [
        "कृ",
        "ति"
      ],
      [
        "घ",
        "ु"
      ],
      [
        "ज",
        "ल"
      ],
      [
        "ने",
        "ट"
      ],
      [
        "की",
        "मत"
      ],
      [
        "कर",
        "ार"
      ],
      [
        "ना",
        "थ"
      ],
      [
        "वि",
        "ष"
      ],
      [
        "भा",
        "ई"
      ],
      [
        "जि",
        "म्मे"
      ],
      [
        "स्ट",
        "ि"
      ],
      [
        "उत्",
        "पा"
      ],
      [
        "भे",
        "ज"
      ],
      [
        "हाई",
        "कोर्ट"
      ],
      [
        "वाप",
        "स"
      ],
      [
        "सुन",
        "वाई"
      ],
      [
        "ग",
        "्री"
      ],
      [
        "छ",
        "ो"
      ],
      [
        "ि",
        "ज"
      ],
      [
        "१",
        "५"
      ],
      [
        "वा",
        "दियों"
      ],
      [
        "हो",
        "ता"
      ],
      [
        "मान",
        "ना"
      ],
      [
        "मौ",
        "के"
      ],
      [
        "बना",
        "या"
      ],
      [
        "जू",
        "न"
      ],
      [
        "योज",
        "ित"
      ],
      [
        "जल्",
        "द"
      ],
      [
        "ब",
        "ड़े"
      ],
      [
        "पर",
        "ी"
      ],
      [
        "प्र",
        "वक्ता"
      ],
      [
        "ति",
        "म"
      ],
      [
        "भी",
        "र"
      ],
      [
        "मु",
        "स्"
      ],
      [
        "दा",
        "वा"
      ],
      [
        "राज",
        "धानी"
      ],
      [
        "लगा",
        "ने"
      ],
      [
        "स्थ",
        "्य"
      ],
      [
        "अं",
        "तिम"
      ],
      [
        "फो",
        "ट"
      ],
      [
        "स्वी",
        "कार"
      ],
      [
        "गं",
        "भीर"
      ],
      [
        "न",
        "गर"
      ],
      [
        "फ",
        "्र"
      ],
      [
        "रा",
        "य"
      ],
      [
        "रि",
        "क"
      ],
      [
        "गिरफ्",
        "तार"
      ],
      [
        "सुप्री",
        "म"
      ],
      [
        "ए",
        "च"
      ],
      [
        "ख",
        "बर"
      ],
      [
        "त",
        "न"
      ],
      [
        "१",
        "२"
      ],
      [
        "ला",
        "ने"
      ],
      [
        "जा",
        "म"
      ],
      [
        "सा",
        "त"
      ],
      [
        "बि",
        "ज"
      ],
      [
        "बे",
        "ह"
      ],
      [
        "निर्",
        "माण"
      ],
      [
        "पहु",
        "ंचा"
      ],
      [
        "लग",
        "भग"
      ],
      [
        "स्वा",
        "स्थ्य"
      ],
      [
        "बढ़ा",
        "ने"
      ],
      [
        "गै",
        "र"
      ],
      [
        "अ",
        "ल"
      ],
      [
        "आ",
        "योजित"
      ],
      [
        "इ",
        "ल"
      ],
      [
        "ध",
        "े"
      ],
      [
        "ष",
        "ण"
      ],
      [
        "ै",
        "ल"
      ],
      [
        "स्",
        "प"
      ],
      [
        "ला",
        "गू"
      ],
      [
        "नि",
        "का"
      ],
      [
        "ंद",
        "्र"
      ],
      [
        "पह",
        "ली"
      ],
      [
        "राज्य",
        "पाल"
      ],
      [
        "ष्",
        "ण"
      ],
      [
        "खु",
        "द"
      ],
      [
        "ध्या",
        "न"
      ],
      [
        "ं",
        "बर"
      ],
      [
        "ह",
        "थि"
      ],
      [
        "दे",
        "ना"
      ],
      [
        "सा",
        "फ"
      ],
      [
        "नि",
        "धि"
      ],
      [
        "मंत्र",
        "ियों"
      ],
      [
        "१९",
        "९"
      ],
      [
        "हथि",
        "यार"
      ],
      [
        "उ",
        "मा"
      ],
      [
        "क",
        "ल"
      ],
      [
        "भ",
        "व"
      ],
      [
        "वि",
        "त्त"
      ],
      [
        "हो",
        "ती"
      ],
      [
        "क्ष",
        "ित"
      ],
      [
        "रह",
        "ने"
      ],
      [
        "मी",
        "डिया"
      ],
      [
        "हम",
        "ले"
      ],
      [
        "मौ",
        "सम"
      ],
      [
        "ख",
        "ू"
      ],
      [
        "ट",
        "िक"
      ],
      [
        "ब",
        "दल"
      ],
      [
        "ल",
        "ु"
      ],
      [
        "व",
        "क्त"
      ],
      [
        "स",
        "लाह"
      ],
      [
        "रा",
        "हत"
      ],
      [
        "पे",
        "यी"
      ],
      [
        "महा",
        "सचिव"
      ],
      [
        "न्या",
        "य"
      ],
      [
        "वाज",
        "पेयी"
      ],
      [
        "आ",
        "ग"
      ],
      [
        "ब",
        "च्च"
      ],
      [
        "म",
        "ना"
      ],
      [
        "व",
        "की"
      ],
      [
        "रा",
        "नी"
      ],
      [
        "पर",
        "े"
      ],
      [
        "लि",
        "म"
      ],
      [
        "दा",
        "य"
      ],
      [
        "चा",
        "न"
      ],
      [
        "ंड",
        "ी"
      ],
      [
        "हम",
        "्"
      ],
      [
        "पं",
        "जा"
      ],
      [
        "बाव",
        "जूद"
      ],
      [
        "कद",
        "म"
      ],
      [
        "त",
        "ला"
      ],
      [
        "ल",
        "ौ"
      ],
      [
        "क्",
        "ट"
      ],
      [
        "नि",
        "वेश"
      ],
      [
        "मि",
        "ला"
      ],
      [
        "मी",
        "टर"
      ],
      [
        "खा",
        "न"
      ],
      [
        "मो",
        "हम्"
      ],
      [
        "कर्",
        "म"
      ],
      [
        "टि",
        "ल"
      ],
      [
        "आ",
        "म"
      ],
      [
        "ग",
        "ति"
      ],
      [
        "ी",
        "ल"
      ],
      [
        "ृ",
        "त"
      ],
      [
        "इन",
        "में"
      ],
      [
        "इस्",
        "ती"
      ],
      [
        "द्य",
        "ोग"
      ],
      [
        "सीबी",
        "आई"
      ],
      [
        "महत्व",
        "पूर्ण"
      ],
      [
        "मुस्",
        "लिम"
      ],
      [
        "स्प",
        "ष्ट"
      ],
      [
        "मोहम्",
        "मद"
      ],
      [
        "ख",
        "ार"
      ],
      [
        "ज",
        "स्टि"
      ],
      [
        "त",
        "ब"
      ],
      [
        "द",
        "बाव"
      ],
      [
        "ौ",
        "ल"
      ],
      [
        "मी",
        "ण"
      ],
      [
        "ची",
        "न"
      ],
      [
        "हार",
        "ा"
      ],
      [
        "देख",
        "ते"
      ],
      [
        "जता",
        "ई"
      ],
      [
        "ग्रा",
        "मीण"
      ],
      [
        "बिज",
        "ली"
      ],
      [
        "जस्टि",
        "स"
      ],
      [
        "अ",
        "ति"
      ],
      [
        "आ",
        "र्थ"
      ],
      [
        "ए",
        "यर"
      ],
      [
        "ख",
        "ी"
      ],
      [
        "च",
        "ै"
      ],
      [
        "ब",
        "ज"
      ],
      [
        "ष",
        "ि"
      ],
      [
        "रि",
        "श्"
      ],
      [
        "शा",
        "म"
      ],
      [
        "अध",
        "ि"
      ],
      [
        "शि",
        "का"
      ],
      [
        "बै",
        "ंक"
      ],
      [
        "तं",
        "त्र"
      ],
      [
        "गु",
        "ज"
      ],
      [
        "हों",
        "गे"
      ],
      [
        "जग",
        "ह"
      ],
      [
        "पंजा",
        "ब"
      ],
      [
        "अ",
        "प्र"
      ],
      [
        "ग",
        "ैस"
      ],
      [
        "म",
        "जब"
      ],
      [
        "ार",
        "ो"
      ],
      [
        "बा",
        "जार"
      ],
      [
        "राज",
        "द"
      ],
      [
        "वे",
        "ज"
      ],
      [
        "थी",
        "ं"
      ],
      [
        "दु",
        "निया"
      ],
      [
        "प्रे",
        "स"
      ],
      [
        "उल्",
        "लेख"
      ],
      [
        "मजब",
        "ू"
      ],
      [
        "घ",
        "ंटे"
      ],
      [
        "ज",
        "िक"
      ],
      [
        "प",
        "ड़े"
      ],
      [
        "म",
        "ध्य"
      ],
      [
        "कार",
        "्यालय"
      ],
      [
        "सम",
        "ू"
      ],
      [
        "मौ",
        "त"
      ],
      [
        "तै",
        "ना"
      ],
      [
        "मै",
        "च"
      ],
      [
        "जरू",
        "री"
      ],
      [
        "इला",
        "कों"
      ],
      [
        "नार",
        "ा"
      ],
      [
        "प्ता",
        "ह"
      ],
      [
        "आर्थ",
        "िक"
      ],
      [
        "अ",
        "र्"
      ],
      [
        "उ",
        "पा"
      ],
      [
        "त",
        "ारी"
      ],
      [
        "ध",
        "र"
      ],
      [
        "प",
        "न"
      ],
      [
        "ब",
        "रा"
      ],
      [
        "ह",
        "में"
      ],
      [
        "ार",
        "ा"
      ],
      [
        "जा",
        "ती"
      ],
      [
        "वि",
        "ज्ञा"
      ],
      [
        "सद",
        "न"
      ],
      [
        "बना",
        "ए"
      ],
      [
        "अब",
        "्"
      ],
      [
        "गठ",
        "बंधन"
      ],
      [
        "अंत",
        "रि"
      ],
      [
        "गुज",
        "रात"
      ],
      [
        "स",
        "त्ता"
      ],
      [
        "त्र",
        "ी"
      ],
      [
        "सा",
        "द"
      ],
      [
        "पा",
        "क"
      ],
      [
        "सु",
        "र"
      ],
      [
        "हि",
        "रा"
      ],
      [
        "हम",
        "ला"
      ],
      [
        "मार्",
        "ग"
      ],
      [
        "खरी",
        "द"
      ],
      [
        "हू",
        "ं"
      ],
      [
        "त",
        "रा"
      ],
      [
        "फ",
        "ै"
      ],
      [
        "म",
        "हारा"
      ],
      [
        "ल",
        "गे"
      ],
      [
        "ल",
        "हाल"
      ],
      [
        "व",
        "ृ"
      ],
      [
        "श",
        "्य"
      ],
      [
        "ह",
        "रिया"
      ],
      [
        "ें",
        "स"
      ],
      [
        "दि",
        "सं"
      ],
      [
        "चु",
        "का"
      ],
      [
        "स्था",
        "नीय"
      ],
      [
        "जे",
        "ल"
      ],
      [
        "क्षे",
        "त्रों"
      ],
      [
        "पास",
        "वान"
      ],
      [
        "कृ",
        "ष्ण"
      ],
      [
        "घा",
        "यल"
      ],
      [
        "यं",
        "त्र"
      ],
      [
        "निदेश",
        "क"
      ],
      [
        "दिसं",
        "बर"
      ],
      [
        "0",
        "0"
      ],
      [
        "आ",
        "य"
      ],
      [
        "ड",
        "र"
      ],
      [
        "ध",
        "ित"
      ],
      [
        "ह",
        "वाई"
      ],
      [
        "३",
        "०"
      ],
      [
        "वि",
        "मान"
      ],
      [
        "लि",
        "क"
      ],
      [
        "सि",
        "क"
      ],
      [
        "मान",
        "्य"
      ],
      [
        "कृ",
        "षि"
      ],
      [
        "करे",
        "गी"
      ],
      [
        "आतंक",
        "वाद"
      ],
      [
        "शिका",
        "यत"
      ],
      [
        "ए",
        "क्स"
      ],
      [
        "ज",
        "म"
      ],
      [
        "म",
        "र"
      ],
      [
        "स",
        "ही"
      ],
      [
        "२",
        "५"
      ],
      [
        "का",
        "ली"
      ],
      [
        "स्",
        "कू"
      ],
      [
        "र्",
        "स"
      ],
      [
        "हा",
        "सिल"
      ],
      [
        "नि",
        "जी"
      ],
      [
        "क्ष",
        "ि"
      ],
      [
        "मंत्र",
        "ि"
      ],
      [
        "तक",
        "नी"
      ],
      [
        "जिस",
        "से"
      ],
      [
        "मह",
        "ल"
      ],
      [
        "इला",
        "के"
      ],
      [
        "इरा",
        "क"
      ],
      [
        "मस",
        "ले"
      ],
      [
        "विस्",
        "फोट"
      ],
      [
        "बच्च",
        "ों"
      ],
      [
        "दे",
        "र"
      ],
      [
        "पू",
        "छ"
      ],
      [
        "जि",
        "ला"
      ],
      [
        "चु",
        "की"
      ],
      [
        "लगा",
        "तार"
      ],
      [
        "फि",
        "लहाल"
      ],
      [
        "स्टे",
        "शन"
      ],
      [
        "सहम",
        "ति"
      ],
      [
        "खू",
        "ब"
      ],
      [
        "उ",
        "च्च"
      ],
      [
        "ऑ",
        "फ"
      ],
      [
        "ग",
        "म"
      ],
      [
        "ज",
        "मा"
      ],
      [
        "प",
        "थ"
      ],
      [
        "कि",
        "लो"
      ],
      [
        "प्र",
        "दर्शन"
      ],
      [
        "मा",
        "कपा"
      ],
      [
        "दे",
        "व"
      ],
      [
        "ति",
        "हा"
      ],
      [
        "्ह",
        "ें"
      ],
      [
        "सु",
        "विधा"
      ],
      [
        "दु",
        "ल"
      ],
      [
        "संबंध",
        "ित"
      ],
      [
        "दूसर",
        "ी"
      ],
      [
        "इंड",
        "िया"
      ],
      [
        "नट",
        "वर"
      ],
      [
        "ट",
        "ो"
      ],
      [
        "ढ",
        "ा"
      ],
      [
        "द",
        "क्षि"
      ],
      [
        "स",
        "त्र"
      ],
      [
        "ह",
        "े"
      ],
      [
        "वा",
        "म"
      ],
      [
        "वा",
        "लों"
      ],
      [
        "जा",
        "य"
      ],
      [
        "ड़",
        "ों"
      ],
      [
        "सि",
        "र्फ"
      ],
      [
        "दी",
        "न"
      ],
      [
        "सम",
        "ारो"
      ],
      [
        "द्",
        "या"
      ],
      [
        "हि",
        "ं"
      ],
      [
        "शु",
        "रु"
      ],
      [
        "पे",
        "ट्रो"
      ],
      [
        "बु",
        "श"
      ],
      [
        "विधा",
        "य"
      ],
      [
        "खार",
        "िज"
      ],
      [
        "अप्र",
        "ैल"
      ],
      [
        "हरिया",
        "णा"
      ],
      [
        "द",
        "स"
      ],
      [
        "प",
        "ल"
      ],
      [
        "फ",
        "ार"
      ],
      [
        "म",
        "ता"
      ],
      [
        "या",
        "ं"
      ],
      [
        "प्र",
        "साद"
      ],
      [
        "कार",
        "्"
      ],
      [
        "नि",
        "यंत्र"
      ],
      [
        "हो",
        "ना"
      ],
      [
        "अप",
        "राध"
      ],
      [
        "बार",
        "ा"
      ],
      [
        "इन",
        "कार"
      ],
      [
        "धार",
        "ा"
      ],
      [
        "देख",
        "ने"
      ],
      [
        "खंड",
        "पीठ"
      ],
      [
        "हिस्",
        "सा"
      ],
      [
        "अ",
        "र"
      ],
      [
        "अ",
        "नि"
      ],
      [
        "च",
        "ने"
      ],
      [
        "न",
        "ती"
      ],
      [
        "न",
        "क्स"
      ],
      [
        "ब",
        "ने"
      ],
      [
        "ब",
        "ड़ा"
      ],
      [
        "पा",
        "टिल"
      ],
      [
        "अम",
        "र"
      ],
      [
        "समझौ",
        "ते"
      ],
      [
        "सुना",
        "मी"
      ],
      [
        "विधाय",
        "कों"
      ],
      [
        "अ",
        "ड्"
      ],
      [
        "ड",
        "ो"
      ],
      [
        "ध",
        "र्म"
      ],
      [
        "म",
        "ई"
      ],
      [
        "स",
        "प्ताह"
      ],
      [
        "ें",
        "द्र"
      ],
      [
        "दि",
        "व"
      ],
      [
        "मं",
        "जू"
      ],
      [
        "सम",
        "ी"
      ],
      [
        "पी",
        "छे"
      ],
      [
        "जन",
        "वरी"
      ],
      [
        "उस",
        "का"
      ],
      [
        "जाए",
        "ंगे"
      ],
      [
        "यो",
        "जन"
      ],
      [
        "परि",
        "योजना"
      ],
      [
        "प्रति",
        "निधि"
      ],
      [
        "निर्",
        "ण"
      ],
      [
        "चल",
        "ते"
      ],
      [
        "पहुंच",
        "े"
      ],
      [
        "विशेष",
        "ज्ञ"
      ],
      [
        "त्म",
        "क"
      ],
      [
        "घु",
        "स"
      ],
      [
        "बज",
        "ट"
      ],
      [
        "शुरु",
        "आ"
      ],
      [
        "उ",
        "द्"
      ],
      [
        "उ",
        "ड़ा"
      ],
      [
        "क",
        "भी"
      ],
      [
        "ख",
        "र्"
      ],
      [
        "झ",
        "े"
      ],
      [
        "त",
        "त्"
      ],
      [
        "ब",
        "च्"
      ],
      [
        "ू",
        "बर"
      ],
      [
        "कर",
        "के"
      ],
      [
        "पा",
        "या"
      ],
      [
        "ष्ट",
        "ि"
      ],
      [
        "भे",
        "जा"
      ],
      [
        "न्या",
        "या"
      ],
      [
        "पत्",
        "ति"
      ],
      [
        "मण",
        "ि"
      ],
      [
        "मंत्रि",
        "मंडल"
      ],
      [
        "खूब",
        "सू"
      ],
      [
        "समारो",
        "ह"
      ],
      [
        "अ",
        "स्"
      ],
      [
        "आ",
        "व"
      ],
      [
        "ऐ",
        "सी"
      ],
      [
        "य",
        "दा"
      ],
      [
        "ल",
        "ॉ"
      ],
      [
        "र्",
        "ष"
      ],
      [
        "प्र",
        "शासन"
      ],
      [
        "ते",
        "ल"
      ],
      [
        "ट्रे",
        "न"
      ],
      [
        "उल्लेख",
        "नीय"
      ],
      [
        "तैना",
        "त"
      ],
      [
        "निर्ण",
        "य"
      ],
      [
        "ब",
        "र्"
      ],
      [
        "व",
        "त"
      ],
      [
        "ह",
        "री"
      ],
      [
        "१",
        "४"
      ],
      [
        "ता",
        "छ"
      ],
      [
        "ता",
        "प"
      ],
      [
        "स्",
        "टी"
      ],
      [
        "ला",
        "इन"
      ],
      [
        "वि",
        "जय"
      ],
      [
        "लि",
        "ंग"
      ],
      [
        "अप",
        "ील"
      ],
      [
        "खा",
        "स"
      ],
      [
        "सू",
        "ची"
      ],
      [
        "लगा",
        "ए"
      ],
      [
        "परि",
        "ष"
      ],
      [
        "संबंध",
        "ी"
      ],
      [
        "चाह",
        "ती"
      ],
      [
        "करे",
        "गा"
      ],
      [
        "शर्",
        "मा"
      ],
      [
        "समू",
        "ह"
      ],
      [
        "अ",
        "य"
      ],
      [
        "आ",
        "श्"
      ],
      [
        "ब",
        "म"
      ],
      [
        "म",
        "ति"
      ],
      [
        "व",
        "ें"
      ],
      [
        "स",
        "ड़"
      ],
      [
        "स",
        "फल"
      ],
      [
        "५",
        "०"
      ],
      [
        "कर",
        "ें"
      ],
      [
        "र्",
        "ज"
      ],
      [
        "र्",
        "श"
      ],
      [
        "बा",
        "जी"
      ],
      [
        "सं",
        "पत्ति"
      ],
      [
        "हि",
        "ंद"
      ],
      [
        "िया",
        "ं"
      ],
      [
        "स्था",
        "प"
      ],
      [
        "मार्",
        "च"
      ],
      [
        "व्या",
        "पार"
      ],
      [
        "वकी",
        "ल"
      ],
      [
        "पूछ",
        "ताछ"
      ],
      [
        "परिष",
        "द"
      ],
      [
        "अ",
        "ंदर"
      ],
      [
        "ग",
        "लत"
      ],
      [
        "झ",
        "ार"
      ],
      [
        "ड",
        "ु"
      ],
      [
        "१",
        "१"
      ],
      [
        "ला",
        "भ"
      ],
      [
        "ला",
        "या"
      ],
      [
        "वि",
        "द्या"
      ],
      [
        "्या",
        "ज"
      ],
      [
        "चु",
        "नौ"
      ],
      [
        "पह",
        "चान"
      ],
      [
        "एस",
        "एस"
      ],
      [
        "खि",
        "ल"
      ],
      [
        "शे",
        "ख"
      ],
      [
        "टि",
        "स"
      ],
      [
        "उत्पा",
        "दन"
      ],
      [
        "दक्षि",
        "ण"
      ],
      [
        "नियंत्र",
        "ण"
      ],
      [
        "आ",
        "ं"
      ],
      [
        "ख",
        "त्म"
      ],
      [
        "च",
        "ो"
      ],
      [
        "च",
        "ंद्र"
      ],
      [
        "छ",
        "ी"
      ],
      [
        "ज",
        "ॉ"
      ],
      [
        "ड",
        "ू"
      ],
      [
        "र",
        "ै"
      ],
      [
        "स",
        "रा"
      ],
      [
        "वा",
        "ही"
      ],
      [
        "ला",
        "य"
      ],
      [
        "सा",
        "धन"
      ],
      [
        "नि",
        "शा"
      ],
      [
        "ते",
        "ज"
      ],
      [
        "त्",
        "ति"
      ],
      [
        "शि",
        "या"
      ],
      [
        "हर",
        "ण"
      ],
      [
        "दौ",
        "रे"
      ],
      [
        "जो",
        "शी"
      ],
      [
        "००",
        "०"
      ],
      [
        "डा",
        "ल"
      ],
      [
        "भू",
        "कंप"
      ],
      [
        "द्ध",
        "ि"
      ],
      [
        "सह",
        "ित"
      ],
      [
        "पत्",
        "नी"
      ],
      [
        "अ",
        "सम"
      ],
      [
        "इ",
        "त"
      ],
      [
        "ट",
        "्ट"
      ],
      [
        "न",
        "र"
      ],
      [
        "स",
        "जा"
      ],
      [
        "ि",
        "यत"
      ],
      [
        "ता",
        "कि"
      ],
      [
        "र्",
        "जा"
      ],
      [
        "रा",
        "शि"
      ],
      [
        "ला",
        "न"
      ],
      [
        "दे",
        "वी"
      ],
      [
        "हु",
        "र्र"
      ],
      [
        "द्",
        "धा"
      ],
      [
        "शा",
        "ह"
      ],
      [
        "शन",
        "ल"
      ],
      [
        "कर्",
        "ताओं"
      ],
      [
        "फो",
        "न"
      ],
      [
        "रोक",
        "ने"
      ],
      [
        "कृति",
        "क"
      ],
      [
        "खर्",
        "च"
      ],
      [
        "हुर्र",
        "ियत"
      ],
      [
        "ट",
        "्"
      ],
      [
        "ब",
        "ंग"
      ],
      [
        "भ",
        "ु"
      ],
      [
        "्य",
        "र"
      ],
      [
        "प्र",
        "बंध"
      ],
      [
        "वि",
        "स्त"
      ],
      [
        "मि",
        "त"
      ],
      [
        "मि",
        "यों"
      ],
      [
        "रि",
        "क्त"
      ],
      [
        "ष्ट",
        "्र"
      ],
      [
        "मान",
        "सू"
      ],
      [
        "चि",
        "ं"
      ],
      [
        "शि",
        "क्षा"
      ],
      [
        "मिल",
        "ना"
      ],
      [
        "दर्",
        "श"
      ],
      [
        "करा",
        "या"
      ],
      [
        "टि",
        "ंग"
      ],
      [
        "प्रा",
        "प्त"
      ],
      [
        "डॉ",
        "क्टर"
      ],
      [
        "ार्",
        "थ"
      ],
      [
        "ब्र",
        "ि"
      ],
      [
        "महारा",
        "ष्ट्र"
      ],
      [
        "चुनौ",
        "ती"
      ],
      [
        "लाय",
        "ंस"
      ],
      [
        "ब",
        "्याज"
      ],
      [
        "म",
        "क"
      ],
      [
        "य",
        "ही"
      ],
      [
        "स",
        "हा"
      ],
      [
        "ह",
        "रे"
      ],
      [
        "१",
        "६"
      ],
      [
        "र्",
        "य"
      ],
      [
        "मा",
        "ओ"
      ],
      [
        "सं",
        "वाद"
      ],
      [
        "त्",
        "ती"
      ],
      [
        "ल्",
        "ड"
      ],
      [
        "बता",
        "ते"
      ],
      [
        "इं",
        "त"
      ],
      [
        "इं",
        "टर"
      ],
      [
        "नाग",
        "रिक"
      ],
      [
        "स्कू",
        "ल"
      ],
      [
        "क",
        "मे"
      ],
      [
        "द",
        "रा"
      ],
      [
        "फ",
        "ॉ"
      ],
      [
        "ल",
        "र"
      ],
      [
        "ल",
        "गी"
      ],
      [
        "हा",
        "द"
      ],
      [
        "मा",
        "नों"
      ],
      [
        "कार",
        "ा"
      ],
      [
        "लि",
        "ख"
      ],
      [
        "दे",
        "खा"
      ],
      [
        "सा",
        "मान्य"
      ],
      [
        "ते",
        "जी"
      ],
      [
        "रि",
        "लायंस"
      ],
      [
        "पू",
        "छे"
      ],
      [
        "पु",
        "रा"
      ],
      [
        "मान",
        "व"
      ],
      [
        "जन",
        "रल"
      ],
      [
        "माम",
        "लों"
      ],
      [
        "उप",
        "करण"
      ],
      [
        "दु",
        "र्"
      ],
      [
        "पहु",
        "ँ"
      ],
      [
        "आर",
        "क्षण"
      ],
      [
        "जिस",
        "के"
      ],
      [
        "स्वा",
        "गत"
      ],
      [
        "सौ",
        "ं"
      ],
      [
        "एजें",
        "सी"
      ],
      [
        "संस्था",
        "नों"
      ],
      [
        "क्रि",
        "केट"
      ],
      [
        "अस्",
        "पता"
      ],
      [
        "अय",
        "्यर"
      ],
      [
        "झार",
        "खंड"
      ],
      [
        "अ",
        "सर"
      ],
      [
        "आ",
        "स"
      ],
      [
        "उ",
        "द्योग"
      ],
      [
        "ग",
        "ें"
      ],
      [
        "ग",
        "री"
      ],
      [
        "न",
        "ुक"
      ],
      [
        "फ",
        "िया"
      ],
      [
        "ब",
        "त"
      ],
      [
        "के",
        "वल"
      ],
      [
        "कि",
        "सा"
      ],
      [
        "र्",
        "क"
      ],
      [
        "मा",
        "ने"
      ],
      [
        "नि",
        "यम"
      ],
      [
        "पा",
        "ई"
      ],
      [
        "सि",
        "यों"
      ],
      [
        "सि",
        "तं"
      ],
      [
        "भा",
        "ष"
      ],
      [
        "सु",
        "धार"
      ],
      [
        "पु",
        "न"
      ],
      [
        "दो",
        "पह"
      ],
      [
        "जु",
        "ड़े"
      ],
      [
        "जु",
        "लाई"
      ],
      [
        "डि",
        "ग्री"
      ],
      [
        "सौ",
        "ंप"
      ],
      [
        "तरी",
        "के"
      ],
      [
        "कां",
        "फ्र"
      ],
      [
        "जिम्मे",
        "दार"
      ],
      [
        "इस्ती",
        "फा"
      ],
      [
        "मजबू",
        "त"
      ],
      [
        "मानसू",
        "न"
      ],
      [
        "नुक",
        "सान"
      ],
      [
        "किसा",
        "नों"
      ],
      [
        "सितं",
        "बर"
      ],
      [
        "दोपह",
        "र"
      ],
      [
        "छ",
        "ु"
      ],
      [
        "न",
        "ल"
      ],
      [
        "न",
        "तम"
      ],
      [
        "प",
        "ौ"
      ],
      [
        "ब",
        "हर"
      ],
      [
        "म",
        "द्"
      ],
      [
        "लि",
        "त"
      ],
      [
        "सं",
        "बो"
      ],
      [
        "सं",
        "सदी"
      ],
      [
        "सं",
        "साधन"
      ],
      [
        "हो",
        "ते"
      ],
      [
        "राज",
        "स्थान"
      ],
      [
        "वी",
        "ं"
      ],
      [
        "रु",
        "ख"
      ],
      [
        "यु",
        "व"
      ],
      [
        "अनु",
        "मति"
      ],
      [
        "गो",
        "ली"
      ],
      [
        "मुद्",
        "दों"
      ],
      [
        "जवा",
        "नों"
      ],
      [
        "पं",
        "चा"
      ],
      [
        "आतंक",
        "वादी"
      ],
      [
        "पश्चि",
        "म"
      ],
      [
        "पश्चि",
        "मी"
      ],
      [
        "सैन",
        "्य"
      ],
      [
        "न्यू",
        "नतम"
      ],
      [
        "अति",
        "रिक्त"
      ],
      [
        "जम",
        "कर"
      ],
      [
        "किलो",
        "मीटर"
      ],
      [
        "बहर",
        "हाल"
      ],
      [
        "मद्",
        "दे"
      ],
      [
        "संसदी",
        "य"
      ],
      [
        "आ",
        "ठ"
      ],
      [
        "इ",
        "जा"
      ],
      [
        "य",
        "ता"
      ],
      [
        "र",
        "वा"
      ],
      [
        "ल",
        "क्ष"
      ],
      [
        "१",
        "८"
      ],
      [
        "में",
        "ट"
      ],
      [
        "का",
        "ब"
      ],
      [
        "स्",
        "कार"
      ],
      [
        "ना",
        "टक"
      ],
      [
        "मा",
        "ंड"
      ],
      [
        "मु",
        "ं"
      ],
      [
        "दा",
        "ताओं"
      ],
      [
        "ंग",
        "्"
      ],
      [
        "ल्",
        "स"
      ],
      [
        "बि",
        "ना"
      ],
      [
        "छा",
        "त्रों"
      ],
      [
        "पै",
        "दा"
      ],
      [
        "वै",
        "ज्ञा"
      ],
      [
        "समा",
        "धान"
      ],
      [
        "सांसद",
        "ों"
      ],
      [
        "वृ",
        "द्धि"
      ],
      [
        "काली",
        "न"
      ],
      [
        "ं",
        "दी"
      ],
      [
        "अ",
        "ल्प"
      ],
      [
        "आ",
        "ंक"
      ],
      [
        "ऊ",
        "पर"
      ],
      [
        "ऊ",
        "र्जा"
      ],
      [
        "ट",
        "ै"
      ],
      [
        "ट",
        "ों"
      ],
      [
        "ध",
        "ू"
      ],
      [
        "न",
        "वं"
      ],
      [
        "ब",
        "्रा"
      ],
      [
        "ब",
        "ंगा"
      ],
      [
        "ह",
        "वा"
      ],
      [
        "२",
        "१"
      ],
      [
        "के",
        "त"
      ],
      [
        "कर",
        "ता"
      ],
      [
        "ता",
        "ल"
      ],
      [
        "रा",
        "ब"
      ],
      [
        "वा",
        "यु"
      ],
      [
        "सा",
        "ब"
      ],
      [
        "सं",
        "जय"
      ],
      [
        "सं",
        "विधान"
      ],
      [
        "सं",
        "केत"
      ],
      [
        "मि",
        "नट"
      ],
      [
        "सि",
        "त"
      ],
      [
        "ंग",
        "ी"
      ],
      [
        "जि",
        "स्ट"
      ],
      [
        "पी",
        "ड़"
      ],
      [
        "रो",
        "जग"
      ],
      [
        "आई",
        "एम"
      ],
      [
        "पूर्",
        "ति"
      ],
      [
        "व्य",
        "क्त"
      ],
      [
        "कंप",
        "्यू"
      ],
      [
        "मत",
        "दान"
      ],
      [
        "विदेश",
        "ी"
      ],
      [
        "विश्",
        "वास"
      ],
      [
        "ठी",
        "क"
      ],
      [
        "नो",
        "टिस"
      ],
      [
        "अस्पता",
        "ल"
      ],
      [
        "नवं",
        "बर"
      ],
      [
        "अ",
        "क्त"
      ],
      [
        "च",
        "रण"
      ],
      [
        "त",
        "स्वी"
      ],
      [
        "ध",
        "री"
      ],
      [
        "प",
        "ड़ी"
      ],
      [
        "फ",
        "ु"
      ],
      [
        "म",
        "ॉ"
      ],
      [
        "श",
        "त"
      ],
      [
        "ने",
        "पाल"
      ],
      [
        "वा",
        "मद"
      ],
      [
        "प्र",
        "ि"
      ],
      [
        "जा",
        "ते"
      ],
      [
        "पा",
        "ने"
      ],
      [
        "सं",
        "भव"
      ],
      [
        "हो",
        "कर"
      ],
      [
        "दा",
        "यर"
      ],
      [
        "सु",
        "झा"
      ],
      [
        "जि",
        "से"
      ],
      [
        "दो",
        "बारा"
      ],
      [
        "श्",
        "चित"
      ],
      [
        "हम",
        "ारे"
      ],
      [
        "चार",
        "्य"
      ],
      [
        "खु",
        "ला"
      ],
      [
        "रख",
        "े"
      ],
      [
        "खे",
        "ल"
      ],
      [
        "संख",
        "्य"
      ],
      [
        "विरोध",
        "ी"
      ],
      [
        "कला",
        "म"
      ],
      [
        "लौ",
        "ट"
      ],
      [
        "अंतरि",
        "क्ष"
      ],
      [
        "बच्",
        "चे"
      ],
      [
        "संबो",
        "धित"
      ],
      [
        "बंगा",
        "ल"
      ],
      [
        "अक्त",
        "ूबर"
      ],
      [
        "आ",
        "दि"
      ],
      [
        "आ",
        "गा"
      ],
      [
        "आ",
        "शं"
      ],
      [
        "उ",
        "जा"
      ],
      [
        "क",
        "ड़ी"
      ],
      [
        "च",
        "ले"
      ],
      [
        "ब",
        "ॉ"
      ],
      [
        "भ",
        "विष"
      ],
      [
        "म",
        "ारी"
      ],
      [
        "्",
        "मिक"
      ],
      [
        "कर",
        "नी"
      ],
      [
        "नि",
        "पट"
      ],
      [
        "नि",
        "गम"
      ],
      [
        "बा",
        "ल"
      ],
      [
        "उन",
        "से"
      ],
      [
        "हु",
        "सैन"
      ],
      [
        "सी",
        "पी"
      ],
      [
        "उस",
        "से"
      ],
      [
        "टे",
        "ड"
      ],
      [
        "न्",
        "हा"
      ],
      [
        "धार",
        "्मिक"
      ],
      [
        "सार",
        "्"
      ],
      [
        "महा",
        "जन"
      ],
      [
        "स्वा",
        "मी"
      ],
      [
        "२००",
        "४"
      ],
      [
        "हटा",
        "ने"
      ],
      [
        "अच्",
        "छी"
      ],
      [
        "पर्य",
        "टन"
      ],
      [
        "बचा",
        "व"
      ],
      [
        "एक्स",
        "प्रेस"
      ],
      [
        "कमे",
        "टी"
      ],
      [
        "कांफ्र",
        "ेंस"
      ],
      [
        "आशं",
        "का"
      ],
      [
        "भविष",
        "्य"
      ],
      [
        "ं",
        "दा"
      ],
      [
        "क",
        "ं"
      ],
      [
        "ध",
        "ियों"
      ],
      [
        "भ",
        "रो"
      ],
      [
        "य",
        "द"
      ],
      [
        "य",
        "ारी"
      ],
      [
        "ल",
        "ंब"
      ],
      [
        "ि",
        "का"
      ],
      [
        "ने",
        "शनल"
      ],
      [
        "कर",
        "ती"
      ],
      [
        "दे",
        "कर"
      ],
      [
        "भी",
        "ड़"
      ],
      [
        "सं",
        "गठ"
      ],
      [
        "क्ष",
        "मता"
      ],
      [
        "सर",
        "ों"
      ],
      [
        "दा",
        "म"
      ],
      [
        "मी",
        "न"
      ],
      [
        "राज्य",
        "सभा"
      ],
      [
        "मुख",
        "र्जी"
      ],
      [
        "मो",
        "दी"
      ],
      [
        "यु",
        "द्ध"
      ],
      [
        "दौ",
        "र"
      ],
      [
        "मन",
        "ो"
      ],
      [
        "खु",
        "फिया"
      ],
      [
        "आप",
        "त्ति"
      ],
      [
        "पै",
        "ठ"
      ],
      [
        "प्रस्ता",
        "वित"
      ],
      [
        "उठा",
        "या"
      ],
      [
        "खूबसू",
        "रत"
      ],
      [
        "चिं",
        "ता"
      ],
      [
        "अल्प",
        "संख्य"
      ],
      [
        "आ",
        "ंध"
      ],
      [
        "ख",
        "्या"
      ],
      [
        "द",
        "वा"
      ],
      [
        "प",
        "ॉ"
      ],
      [
        "भ",
        "वन"
      ],
      [
        "ह",
        "स्ता"
      ],
      [
        "१",
        "३"
      ],
      [
        "१",
        "७"
      ],
      [
        "स्",
        "पी"
      ],
      [
        "वा",
        "सी"
      ],
      [
        "प्र",
        "त्य"
      ],
      [
        "लि",
        "यम"
      ],
      [
        "त्र",
        "ियों"
      ],
      [
        "क्ष",
        "क"
      ],
      [
        "सि",
        "न्हा"
      ],
      [
        "राज",
        "ी"
      ],
      [
        "द्",
        "वी"
      ],
      [
        "टे",
        "ल"
      ],
      [
        "करा",
        "ए"
      ],
      [
        "महिला",
        "ओं"
      ],
      [
        "बद",
        "ला"
      ],
      [
        "धी",
        "श"
      ],
      [
        "अहम",
        "द"
      ],
      [
        "बेह",
        "द"
      ],
      [
        "टिक",
        "ट"
      ],
      [
        "अब्",
        "दुल"
      ],
      [
        "श्य",
        "क"
      ],
      [
        "शुरुआ",
        "त"
      ],
      [
        "ताप",
        "मान"
      ],
      [
        "विद्या",
        "लय"
      ],
      [
        "रवा",
        "ना"
      ],
      [
        "इ",
        "तिहा"
      ],
      [
        "त",
        "मिलना"
      ],
      [
        "प",
        "ण"
      ],
      [
        "भ",
        "्र"
      ],
      [
        "म",
        "र्श"
      ],
      [
        "र",
        "न"
      ],
      [
        "ह",
        "ॉ"
      ],
      [
        "ह",
        "ारी"
      ],
      [
        "वि",
        "मर्श"
      ],
      [
        "नि",
        "कों"
      ],
      [
        "पा",
        "ए"
      ],
      [
        "दि",
        "शा"
      ],
      [
        "सं",
        "पर्"
      ],
      [
        "मु",
        "झे"
      ],
      [
        "मु",
        "काब"
      ],
      [
        "हो",
        "नी"
      ],
      [
        "हो",
        "टल"
      ],
      [
        "जी",
        "वन"
      ],
      [
        "चु",
        "ना"
      ],
      [
        "आई",
        "आर"
      ],
      [
        "ची",
        "नी"
      ],
      [
        "अं",
        "बा"
      ],
      [
        "मौ",
        "का"
      ],
      [
        "चुनाव",
        "ों"
      ],
      [
        "अग",
        "स्त"
      ],
      [
        "घुस",
        "पैठ"
      ],
      [
        "सड़",
        "क"
      ],
      [
        "कंप्यू",
        "टर"
      ],
      [
        "आंध",
        "्र"
      ],
      [
        "इतिहा",
        "स"
      ],
      [
        "तमिलना",
        "डु"
      ],
      [
        "आ",
        "योजन"
      ],
      [
        "आ",
        "पूर्ति"
      ],
      [
        "च",
        "ली"
      ],
      [
        "छ",
        "ू"
      ],
      [
        "ज",
        "मान"
      ],
      [
        "ट",
        "्टी"
      ],
      [
        "त",
        "ू"
      ],
      [
        "त",
        "माम"
      ],
      [
        "द",
        "ृ"
      ],
      [
        "न",
        "ंद"
      ],
      [
        "प",
        "ढ़"
      ],
      [
        "फ",
        "ू"
      ],
      [
        "ब",
        "ल्"
      ],
      [
        "ब",
        "्यू"
      ],
      [
        "ल",
        "ड़ा"
      ],
      [
        "ह",
        "्"
      ],
      [
        "ह",
        "फ्"
      ],
      [
        "ि",
        "यन"
      ],
      [
        "कि",
        "त्"
      ],
      [
        "का",
        "ंड"
      ],
      [
        "्य",
        "ो"
      ],
      [
        "प्र",
        "बंधन"
      ],
      [
        "सा",
        "मा"
      ],
      [
        "सं",
        "शो"
      ],
      [
        "सी",
        "सी"
      ],
      [
        "सि",
        "र"
      ],
      [
        "सु",
        "ल"
      ],
      [
        "पु",
        "ष्टि"
      ],
      [
        "बी",
        "एस"
      ],
      [
        "मे",
        "ल"
      ],
      [
        "बार",
        "ी"
      ],
      [
        "वी",
        "र"
      ],
      [
        "चि",
        "कित्"
      ],
      [
        "स्था",
        "नों"
      ],
      [
        "दू",
        "री"
      ],
      [
        "जु",
        "न"
      ],
      [
        "तै",
        "यारी"
      ],
      [
        "योजना",
        "ओं"
      ],
      [
        "उठा",
        "ए"
      ],
      [
        "माह",
        "ौल"
      ],
      [
        "मूल",
        "्य"
      ],
      [
        "बेह",
        "तर"
      ],
      [
        "हथियार",
        "ों"
      ],
      [
        "तला",
        "श"
      ],
      [
        "बरा",
        "मद"
      ],
      [
        "हिं",
        "सा"
      ],
      [
        "पेट्रो",
        "लियम"
      ],
      [
        "आव",
        "श्यक"
      ],
      [
        "संगठ",
        "नों"
      ],
      [
        "संपर्",
        "क"
      ],
      [
        "द",
        "स्ता"
      ],
      [
        "ध",
        "मा"
      ],
      [
        "ध",
        "्यक्ष"
      ],
      [
        "न",
        "ंबर"
      ],
      [
        "ल",
        "ना"
      ],
      [
        "ौ",
        "ती"
      ],
      [
        "४",
        "०"
      ],
      [
        "ने",
        "ं"
      ],
      [
        "कि",
        "त"
      ],
      [
        "ना",
        "य"
      ],
      [
        "र्",
        "ति"
      ],
      [
        "प्र",
        "भाव"
      ],
      [
        "लि",
        "का"
      ],
      [
        "पा",
        "न"
      ],
      [
        "दा",
        "स"
      ],
      [
        "सम",
        "क्ष"
      ],
      [
        "शि",
        "वि"
      ],
      [
        "चार",
        "ियों"
      ],
      [
        "टे",
        "स्ट"
      ],
      [
        "स्थ",
        "ल"
      ],
      [
        "कार्य",
        "वाही"
      ],
      [
        "च्",
        "चा"
      ],
      [
        "उत्",
        "तरी"
      ],
      [
        "निर्",
        "धार"
      ],
      [
        "शे",
        "यर"
      ],
      [
        "इस्",
        "ला"
      ],
      [
        "लं",
        "का"
      ],
      [
        "सर्",
        "वे"
      ],
      [
        "सिल",
        "सि"
      ],
      [
        "श्र",
        "द्धा"
      ],
      [
        "हिस्",
        "से"
      ],
      [
        "फर",
        "वरी"
      ],
      [
        "परी",
        "क्षा"
      ],
      [
        "सलाह",
        "कार"
      ],
      [
        "कर्म",
        "चारियों"
      ],
      [
        "मंजू",
        "री"
      ],
      [
        "न्याया",
        "धीश"
      ],
      [
        "जॉ",
        "र्ज"
      ],
      [
        "पुन",
        "र्"
      ],
      [
        "मद्दे",
        "नजर"
      ],
      [
        "रोजग",
        "ार"
      ],
      [
        "सुझा",
        "व"
      ],
      [
        "आ",
        "युक्त"
      ],
      [
        "ए",
        "शिया"
      ],
      [
        "क",
        "ही"
      ],
      [
        "ग",
        "्रे"
      ],
      [
        "ट",
        "कों"
      ],
      [
        "द",
        "ंबर"
      ],
      [
        "न",
        "या"
      ],
      [
        "प",
        "टना"
      ],
      [
        "ब",
        "नी"
      ],
      [
        "श",
        "ौ"
      ],
      [
        "श",
        "क्ति"
      ],
      [
        "स",
        "पा"
      ],
      [
        "स",
        "मान"
      ],
      [
        "या",
        "त्रियों"
      ],
      [
        "स्",
        "की"
      ],
      [
        "वा",
        "या"
      ],
      [
        "ला",
        "देश"
      ],
      [
        "प्र",
        "णा"
      ],
      [
        "प्र",
        "दान"
      ],
      [
        "त्र",
        "ि"
      ],
      [
        "ड़",
        "ने"
      ],
      [
        "दा",
        "खिल"
      ],
      [
        "पी",
        "एफ"
      ],
      [
        "दो",
        "ष"
      ],
      [
        "चि",
        "दंबर"
      ],
      [
        "पार",
        "्ट"
      ],
      [
        "बि",
        "नेट"
      ],
      [
        "स्थ",
        "ग"
      ],
      [
        "उप",
        "भो"
      ],
      [
        "यू",
        "नि"
      ],
      [
        "मू",
        "र्ति"
      ],
      [
        "कर्",
        "ता"
      ],
      [
        "चल",
        "ने"
      ],
      [
        "पहुंच",
        "ने"
      ],
      [
        "विधा",
        "यक"
      ],
      [
        "उम्मीद",
        "वार"
      ],
      [
        "रें",
        "द्र"
      ],
      [
        "रिश्",
        "ते"
      ],
      [
        "नारा",
        "ज"
      ],
      [
        "अर्",
        "जुन"
      ],
      [
        "आय",
        "कर"
      ],
      [
        "अर",
        "ब"
      ],
      [
        "सहा",
        "यता"
      ],
      [
        "अ",
        "ली"
      ],
      [
        "आ",
        "उ"
      ],
      [
        "ध",
        "म"
      ],
      [
        "न",
        "ु"
      ],
      [
        "न",
        "दी"
      ],
      [
        "ब",
        "ौ"
      ],
      [
        "श",
        "क"
      ],
      [
        "श",
        "व"
      ],
      [
        "स",
        "ौर"
      ],
      [
        "२",
        "३"
      ],
      [
        "२",
        "८"
      ],
      [
        "वा",
        "सन"
      ],
      [
        "जा",
        "ति"
      ],
      [
        "वि",
        "धे"
      ],
      [
        "लि",
        "यों"
      ],
      [
        "सा",
        "इ"
      ],
      [
        "सि",
        "फार"
      ],
      [
        "दा",
        "बाद"
      ],
      [
        "हम",
        "ारी"
      ],
      [
        "कर्",
        "नाटक"
      ],
      [
        "रख",
        "ते"
      ],
      [
        "कै",
        "बिनेट"
      ],
      [
        "वै",
        "ध"
      ],
      [
        "प्रा",
        "व"
      ],
      [
        "हाला",
        "त"
      ],
      [
        "साम",
        "ना"
      ],
      [
        "१९",
        "८"
      ],
      [
        "शो",
        "क"
      ],
      [
        "इंड",
        "ियन"
      ],
      [
        "चौ",
        "धरी"
      ],
      [
        "सीट",
        "ों"
      ],
      [
        "समी",
        "क्षा"
      ],
      [
        "प्रणा",
        "ली"
      ],
      [
        "विधे",
        "यक"
      ],
      [
        "उ",
        "ठ"
      ],
      [
        "उ",
        "सी"
      ],
      [
        "घ",
        "रों"
      ],
      [
        "च",
        "ू"
      ],
      [
        "छ",
        "ि"
      ],
      [
        "द",
        "मी"
      ],
      [
        "फ",
        "्रा"
      ],
      [
        "ब",
        "च"
      ],
      [
        "ल",
        "ें"
      ],
      [
        "व",
        "नी"
      ],
      [
        "श",
        "ू"
      ],
      [
        "स",
        "ों"
      ],
      [
        "३",
        "१"
      ],
      [
        "या",
        "त"
      ],
      [
        "हा",
        "न"
      ],
      [
        "ले",
        "ट"
      ],
      [
        "प्र",
        "वेश"
      ],
      [
        "लि",
        "मि"
      ],
      [
        "नि",
        "श्चित"
      ],
      [
        "सी",
        "य"
      ],
      [
        "अन",
        "्"
      ],
      [
        "शि",
        "क्षण"
      ],
      [
        "क्र",
        "ा"
      ],
      [
        "रहे",
        "गा"
      ],
      [
        "एस",
        "पी"
      ],
      [
        "बि",
        "ल"
      ],
      [
        "दौ",
        "रा"
      ],
      [
        "टा",
        "ने"
      ],
      [
        "गु",
        "रु"
      ],
      [
        "अध्यक्ष",
        "ता"
      ],
      [
        "मुद्",
        "दा"
      ],
      [
        "चाह",
        "ता"
      ],
      [
        "समा",
        "प्त"
      ],
      [
        "तु",
        "र"
      ],
      [
        "विश्व",
        "विद्यालय"
      ],
      [
        "व्या",
        "पक"
      ],
      [
        "क़",
        "ा"
      ],
      [
        "वो",
        "ट"
      ],
      [
        "श्री",
        "लंका"
      ],
      [
        "हिरा",
        "सत"
      ],
      [
        "आश्",
        "वासन"
      ],
      [
        "भरो",
        "सा"
      ],
      [
        "सामा",
        "जिक"
      ],
      [
        "सिफार",
        "िश"
      ],
      [
        "ख",
        "न"
      ],
      [
        "ग",
        "र्"
      ],
      [
        "घ",
        "रे"
      ],
      [
        "च",
        "र"
      ],
      [
        "ट",
        "ू"
      ],
      [
        "ठ",
        "हरा"
      ],
      [
        "द",
        "स्त"
      ],
      [
        "फ",
        "ार्"
      ],
      [
        "ब",
        "र्फ"
      ],
      [
        "म",
        "ज"
      ],
      [
        "२",
        "४"
      ],
      [
        "६",
        "०"
      ],
      [
        "है",
        "दरा"
      ],
      [
        "स्",
        "ते"
      ],
      [
        "ले",
[...]
