{
  "version": "1.0",
  "truncation": null,
  "padding": null,
  "added_tokens": [
    {
      "id": 0,
      "content": "[UNK]",
      "single_word": false,
      "lstrip": false,
      "rstrip": false,
      "normalized": false,
      "special": true
    },
    {
      "id": 1,
      "content": "[PAD]",
      "single_word": false,
      "lstrip": false,
      "rstrip": false,
      "normalized": false,
      "special": true
    },
    {
      "id": 2,
      "content": "[CLS]",
      "single_word": false,
      "lstrip": false,
      "rstrip": false,
      "normalized": false,
      "special": true
    },
    {
      "id": 3,
      "content": "[SEP]",
      "single_word": false,
      "lstrip": false,
      "rstrip": false,
      "normalized": false,
      "special": true
    },
    {
      "id": 4,
      "content": "[MASK]",
      "single_word": false,
      "lstrip": false,
      "rstrip": false,
      "normalized": false,
      "special": true
    }
  ],
  "normalizer": {
    "type": "Sequence",
    "normalizers": [
      {
        "type": "NFKC"
      }
    ]
  },
  "pre_tokenizer": {
    "type": "Whitespace"
  },
  "post_processor": null,
  "decoder": null,
  "model": {
    "type": "BPE",
    "dropout": null,
    "unk_token": "[UNK]",
    "continuing_subword_prefix": null,
    "end_of_word_suffix": null,
    "fuse_unk": false,
    "byte_fallback": false,
    "ignore_merges": false,
    "vocab": {
      "[UNK]": 0,
      "[PAD]": 1,
      "[CLS]": 2,
      "[SEP]": 3,
      "[MASK]": 4,
      "!": 5,
      "\"": 6,
      "#": 7,
      "$": 8,
      "%": 9,
      "&": 10,
      "'": 11,
      "(": 12,
      ")": 13,
      "*": 14,
      "+": 15,
      ",": 16,
      "-": 17,
      ".": 18,
      "/": 19,
      "0": 20,
      "1": 21,
      "2": 22,
      "3": 23,
      "4": 24,
      "5": 25,
      "6": 26,
      "7": 27,
      "8": 28,
      "9": 29,
      ":": 30,
      ";": 31,
      "=": 32,
      "?": 33,
      "@": 34,
      "A": 35,
      "B": 36,
      "C": 37,
      "D": 38,
      "E": 39,
      "F": 40,
      "G": 41,
      "H": 42,
      "I": 43,
      "J": 44,
      "K": 45,
      "L": 46,
      "M": 47,
      "N": 48,
      "O": 49,
      "P": 50,
      "Q": 51,
      "R": 52,
      "S": 53,
      "T": 54,
      "U": 55,
      "V": 56,
      "W": 57,
      "X": 58,
      "Y": 59,
      "Z": 60,
      "[": 61,
      "]": 62,
      "_": 63,
      "`": 64,
      "a": 65,
      "b": 66,
      "c": 67,
      "d": 68,
      "e": 69,
      "f": 70,
      "g": 71,
      "h": 72,
      "i": 73,
      "j": 74,
      "k": 75,
      "l": 76,
      "m": 77,
      "n": 78,
      "o": 79,
      "p": 80,
      "q": 81,
      "r": 82,
      "s": 83,
      "t": 84,
      "u": 85,
      "v": 86,
      "w": 87,
      "x": 88,
      "y": 89,
      "z": 90,
      "{": 91,
      "|": 92,
      "}": 93,
      "£": 94,
      "§": 95,
      "«": 96,
      "®": 97,
      "°": 98,
      "·": 99,
      "»": 100,
      "Á": 101,
      "Â": 102,
      "Ä": 103,
      "Æ": 104,
      "Ç": 105,
      "É": 106,
      "Í": 107,
      "Î": 108,
      "Ö": 109,
      "×": 110,
      "Ú": 111,
      "Ü": 112,
      "Þ": 113,
      "ß": 114,
      "à": 115,
      "á": 116,
      "â": 117,
      "ã": 118,
      "ä": 119,
      "å": 120,
      "æ": 121,
      "ç": 122,
      "è": 123,
      "é": 124,
      "ê": 125,
      "ë": 126,
      "í": 127,
      "î": 128,
      "ï": 129,
      "ð": 130,
      "ñ": 131,
      "ò": 132,
      "ó": 133,
      "ô": 134,
      "õ": 135,
      "ö": 136,
      "÷": 137,
      "ø": 138,
      "ú": 139,
      "ü": 140,
      "ý": 141,
      "ā": 142,
      "ă": 143,
      "ą": 144,
      "ć": 145,
      "Č": 146,
      "č": 147,
      "ď": 148,
      "đ": 149,
      "ē": 150,
      "ė": 151,
      "ę": 152,
      "ě": 153,
      "ğ": 154,
      "ī": 155,
      "İ": 156,
      "ı": 157,
      "ķ": 158,
      "ľ": 159,
      "Ł": 160,
      "ł": 161,
      "ń": 162,
      "ň": 163,
      "Ō": 164,
      "ō": 165,
      "ŏ": 166,
      "ő": 167,
      "œ": 168,
      "ř": 169,
      "Ś": 170,
      "ś": 171,
      "Ş": 172,
      "ş": 173,
      "Š": 174,
      "š": 175,
      "Ţ": 176,
      "ţ": 177,
      "ū": 178,
      "ů": 179,
      "ź": 180,
      "ż": 181,
      "Ž": 182,
      "ž": 183,
      "Ǩ": 184,
      "ɛ": 185,
      "ʂ": 186,
      "ʿ": 187,
      "͡": 188,
      "Γ": 189,
      "Σ": 190,
      "Ω": 191,
      "ά": 192,
      "έ": 193,
      "ί": 194,
      "α": 195,
      "δ": 196,
      "ι": 197,
      "κ": 198,
      "λ": 199,
      "μ": 200,
      "ν": 201,
      "ο": 202,
      "π": 203,
      "ρ": 204,
      "ς": 205,
      "σ": 206,
      "ω": 207,
      "ϊ": 208,
      "В": 209,
      "Д": 210,
      "Е": 211,
      "М": 212,
      "О": 213,
      "Т": 214,
      "Ц": 215,
      "а": 216,
      "в": 217,
      "е": 218,
      "и": 219,
      "к": 220,
      "л": 221,
      "н": 222,
      "о": 223,
      "с": 224,
      "т": 225,
      "у": 226,
      "ш": 227,
      "њ": 228,
      "ה": 229,
      "ם": 230,
      "ש": 231,
      "ḥ": 232,
      "ṫ": 233,
      "ṯ": 234,
      "ả": 235,
      "ệ": 236,
      "ổ": 237,
      "†": 238,
      "‰": 239,
      "⁄": 240,
      "€": 241,
      "→": 242,
      "公": 243,
      "快": 244,
      "路": 245,
      "速": 246,
      "er": 247,
      "en": 248,
      "ch": 249,
      "in": 250,
      "ie": 251,
      "un": 252,
      "de": 253,
      "st": 254,
      "ei": 255,
      "an": 256,
      "der": 257,
      "sch": 258,
      "ein": 259,
      "on": 260,
      "te": 261,
      "ge": 262,
      "au": 263,
      "al": 264,
      "und": 265,
      "ich": 266,
      "ar": 267,
      "die": 268,
      "den": 269,
      "or": 270,
      "dem": 271,
      "it": 272,
      "ur": 273,
      "ung": 274,
      "at": 275,
      "as": 276,
      "el": 277,
      "hr": 278,
      "ten": 279,
      "es": 280,
      "ter": 281,
      "gen": 282,
      "zu": 283,
      "isch": 284,
      "ol": 285,
      "von": 286,
      "be": 287,
      "is": 288,
      "am": 289,
      "ach": 290,
      "ber": 291,
      "le": 292,
      "ver": 293,
      "se": 294,
      "eine": 295,
      "lich": 296,
      "ist": 297,
      "des": 298,
      "ier": 299,
      "ig": 300,
      "eit": 301,
      "il": 302,
      "re": 303,
      "auf": 304,
      "mit": 305,
      "das": 306,
      "ro": 307,
      "Die": 308,
      "fü": 309,
      "us": 310,
      "aus": 311,
      "ir": 312,
      "19": 313,
      "St": 314,
      "ion": 315,
      "ck": 316,
      "and": 317,
      "ben": 318,
      "ra": 319,
      "wur": 320,
      "ent": 321,
      "ut": 322,
      "um": 323,
      "rei": 324,
      "In": 325,
      "als": 326,
      "war": 327,
      "ne": 328,
      "wei": 329,
      "bei": 330,
      "ann": 331,
      "sp": 332,
      "om": 333,
      "ischen": 334,
      "ft": 335,
      "sich": 336,
      "ahr": 337,
      "sen": 338,
      "icht": 339,
      "ah": 340,
      "Sch": 341,
      "wurde": 342,
      "kt": 343,
      "em": 344,
      "et": 345,
      "für": 346,
      "ell": 347,
      "iel": 348,
      "ger": 349,
      "men": 350,
      "ab": 351,
      "Ver": 352,
      "ff": 353,
      "wer": 354,
      "ik": 355,
      "00": 356,
      "än": 357,
      "ien": 358,
      "och": 359,
      "Er": 360,
      "auch": 361,
      "tz": 362,
      "he": 363,
      "ste": 364,
      "lie": 365,
      "Jahr": 366,
      "einer": 367,
      "ind": 368,
      "wie": 369,
      "über": 370,
      "scha": 371,
      "An": 372,
      "so": 373,
      "gr": 374,
      "ad": 375,
      "ern": 376,
      "hn": 377,
      "Ge": 378,
      "nach": 379,
      "vor": 380,
      "wir": 381,
      "sten": 382,
      "eich": 383,
      "Be": 384,
      "all": 385,
      "im": 386,
      "urch": 387,
      "Au": 388,
      "nicht": 389,
      "ungen": 390,
      "rie": 391,
      "la": 392,
      "eil": 393,
      "bis": 394,
      "me": 395,
      "ser": 396,
      "einen": 397,
      "Ein": 398,
      "ün": 399,
      "Re": 400,
      "sie": 401,
      "ot": 402,
      "Der": 403,
      "ation": 404,
      "ort": 405,
      "os": 406,
      "igen": 407,
      "ische": 408,
      "hen": 409,
      "gt": 410,
      "Sp": 411,
      "her": 412,
      "ör": 413,
      "hl": 414,
      "unter": 415,
      "hat": 416,
      "schaft": 417,
      "ang": 418,
      "Un": 419,
      "durch": 420,
      "einem": 421,
      "uch": 422,
      "we": 423,
      "Al": 424,
      "ul": 425,
      "ungs": 426,
      "ster": 427,
      "gel": 428,
      "geb": 429,
      "sind": 430,
      "iv": 431,
      "da": 432,
      "stell": 433,
      "ing": 434,
      "ige": 435,
      "werden": 436,
      "ha": 437,
      "pp": 438,
      "200": 439,
      "mer": 440,
      "oll": 441,
      "nen": 442,
      "ür": 443,
      "Ar": 444,
      "ät": 445,
      "tel": 446,
      "br": 447,
      "Pro": 448,
      "pf": 449,
      "Das": 450,
      "wird": 451,
      "ihr": 452,
      "ran": 453,
      "oder": 454,
      "ag": 455,
      "je": 456,
      "wo": 457,
      "chen": 458,
      "sel": 459,
      "hal": 460,
      "tr": 461,
      "18": 462,
      "Gr": 463,
      "är": 464,
      "art": 465,
      "tet": 466,
      "En": 467,
      "Mit": 468,
      "ze": 469,
      "lichen": 470,
      "end": 471,
      "Nach": 472,
      "schl": 473,
      "iert": 474,
      "ück": 475,
      "op": 476,
      "bes": 477,
      "kann": 478,
      "Aus": 479,
      "gl": 480,
      "ander": 481,
      "zwei": 482,
      "det": 483,
      "kom": 484,
      "ahl": 485,
      "Sie": 486,
      "zen": 487,
      "fol": 488,
      "noch": 489,
      "Ab": 490,
      "Le": 491,
      "sam": 492,
      "dass": 493,
      "ön": 494,
      "adt": 495,
      "di": 496,
      "reich": 497,
      "kl": 498,
      "De": 499,
      "nur": 500,
      "Ber": 501,
      "Or": 502,
      "man": 503,
      "ho": 504,
      "og": 505,
      "rä": 506,
      "führ": 507,
      "ke": 508,
      "ts": 509,
      "kon": 510,
      "teil": 511,
      "hin": 512,
      "ic": 513,
      "liche": 514,
      "gew": 515,
      "wurden": 516,
      "ord": 517,
      "mehr": 518,
      "ug": 519,
      "ers": 520,
      "del": 521,
      "geh": 522,
      "ierte": 523,
      "uss": 524,
      "wa": 525,
      "atz": 526,
      "ill": 527,
      "fin": 528,
      "ken": 529,
      "äl": 530,
      "So": 531,
      "äch": 532,
      "fe": 533,
      "elt": 534,
      "ute": 535,
      "Auf": 536,
      "nah": 537,
      "fen": 538,
      "ähr": 539,
      "bl": 540,
      "lan": 541,
      "ap": 542,
      "ner": 543,
      "ri": 544,
      "ßen": 545,
      "setz": 546,
      "Vor": 547,
      "199": 548,
      "Fl": 549,
      "äu": 550,
      "Ne": 551,
      "ru": 552,
      "spiel": 553,
      "Mar": 554,
      "ass": 555,
      "alt": 556,
      "Kon": 557,
      "weiter": 558,
      "itz": 559,
      "pt": 560,
      "sein": 561,
      "diese": 562,
      "Zeit": 563,
      "bt": 564,
      "Me": 565,
      "bar": 566,
      "Unter": 567,
      "zw": 568,
      "Es": 569,
      "schen": 570,
      "gem": 571,
      "bur": 572,
      "wen": 573,
      "aber": 574,
      "eits": 575,
      "lin": 576,
      "Stadt": 577,
      "Ma": 578,
      "Se": 579,
      "ler": 580,
      "dar": 581,
      "rit": 582,
      "gegen": 583,
      "Her": 584,
      "--": 585,
      "Fr": 586,
      "ick": 587,
      "tern": 588,
      "fl": 589,
      "iz": 590,
      "orm": 591,
      "vers": 592,
      "ht": 593,
      "sehr": 594,
      "fer": 595,
      "onder": 596,
      "du": 597,
      "seine": 598,
      "Zu": 599,
      "tra": 600,
      "zeit": 601,
      "acht": 602,
      "per": 603,
      "che": 604,
      "gesch": 605,
      "keit": 606,
      "ahn": 607,
      "We": 608,
      "erst": 609,
      "gan": 610,
      "stand": 611,
      "hm": 612,
      "pro": 613,
      "deut": 614,
      "ia": 615,
      "ale": 616,
      "ob": 617,
      "20": 618,
      "ant": 619,
      "ess": 620,
      "Jahre": 621,
      "tes": 622,
      "bau": 623,
      "ße": 624,
      "spr": 625,
      "dam": 626,
      "neu": 627,
      "wieder": 628,
      "net": 629,
      "ktion": 630,
      "ieren": 631,
      "hatte": 632,
      "ast": 633,
      "doch": 634,
      "mei": 635,
      "seiner": 636,
      "ität": 637,
      "hei": 638,
      "waren": 639,
      "fr": 640,
      "iff": 641,
      "kam": 642,
      "was": 643,
      "zeich": 644,
      "cht": 645,
      "ok": 646,
      "Kl": 647,
      "nis": 648,
      "gehör": 649,
      "alle": 650,
      "eines": 651,
      "Deut": 652,
      "Ch": 653,
      "aten": 654,
      "zi": 655,
      "dien": 656,
      "mt": 657,
      "ak": 658,
      "ßer": 659,
      "ges": 660,
      "Jahren": 661,
      "Land": 662,
      "äter": 663,
      "att": 664,
      "bst": 665,
      "dig": 666,
      "fahr": 667,
      "seit": 668,
      "Bei": 669,
      "bil": 670,
      "ften": 671,
      "schie": 672,
      "zwischen": 673,
      "mal": 674,
      "utz": 675,
      "arbei": 676,
      "gro": 677,
      "dieser": 678,
      "ließ": 679,
      "of": 680,
      "198": 681,
      "min": 682,
      "reis": 683,
      "assen": 684,
      "ierung": 685,
      "sowie": 686,
      "ma": 687,
      "mus": 688,
      "anz": 689,
      "burg": 690,
      "id": 691,
      "Reg": 692,
      "Te": 693,
      "off": 694,
      "Br": 695,
      "tete": 696,
      "gleich": 697,
      "tre": 698,
      "Bau": 699,
      "land": 700,
      "qu": 701,
      "ingen": 702,
      "kön": 703,
      "folg": 704,
      "Sa": 705,
      "rich": 706,
      "haben": 707,
      "Wir": 708,
      "lei": 709,
      "eigen": 710,
      "ischer": 711,
      "Gem": 712,
      "ph": 713,
      "196": 714,
      "197": 715,
      "oh": 716,
      "ark": 717,
      "iger": 718,
      "eiten": 719,
      "aut": 720,
      "Wer": 721,
      "glich": 722,
      "haus": 723,
      "ational": 724,
      "jedoch": 725,
      "Fran": 726,
      "soll": 727,
      "unden": 728,
      "Pl": 729,
      "hmen": 730,
      "Da": 731,
      "Um": 732,
      "oren": 733,
      "15": 734,
      "La": 735,
      "fall": 736,
      "pl": 737,
      "grün": 738,
      "Wei": 739,
      "ater": 740,
      "lung": 741,
      "öl": 742,
      "berg": 743,
      "öff": 744,
      "später": 745,
      "mann": 746,
      "upp": 747,
      "10": 748,
      "ud": 749,
      "verb": 750,
      "üd": 751,
      "ard": 752,
      "halten": 753,
      "ieder": 754,
      "ausge": 755,
      "194": 756,
      "stellt": 757,
      "Ro": 758,
      "erh": 759,
      "Ent": 760,
      "dort": 761,
      "konn": 762,
      "immer": 763,
      "Welt": 764,
      "zahl": 765,
      "ange": 766,
      "weise": 767,
      "gi": 768,
      "eld": 769,
      "rieg": 770,
      "Uni": 771,
      "zent": 772,
      "amil": 773,
      "Qu": 774,
      "andel": 775,
      "letz": 776,
      "kommen": 777,
      "Teil": 778,
      "elle": 779,
      "Gemein": 780,
      "sk": 781,
      "anden": 782,
      "sche": 783,
      "aupt": 784,
      "etwa": 785,
      "enn": 786,
      "ov": 787,
      "iele": 788,
      "195": 789,
      "17": 790,
      "heit": 791,
      "orden": 792,
      "atur": 793,
      "rieb": 794,
      "ährend": 795,
      "Bun": 796,
      "Ges": 797,
      "glie": 798,
      "enz": 799,
      "Sta": 800,
      "schn": 801,
      "bet": 802,
      "gemein": 803,
      "Bl": 804,
      "ähl": 805,
      "iet": 806,
      "ele": 807,
      "dung": 808,
      "amm": 809,
      "ker": 810,
      "olit": 811,
      "Univers": 812,
      "Kom": 813,
      "heute": 814,
      "Gesch": 815,
      "ihn": 816,
      "ens": 817,
      "193": 818,
      "Spiel": 819,
      "fre": 820,
      "hier": 821,
      "ust": 822,
      "olle": 823,
      "ga": 824,
      "hem": 825,
      "ss": 826,
      "stra": 827,
      "ition": 828,
      "ersten": 829,
      "ikan": 830,
      "ive": 831,
      "``": 832,
      "ce": 833,
      "ätz": 834,
      "inn": 835,
      "orf": 836,
      "bekann": 837,
      "Geb": 838,
      "drei": 839,
      "ay": 840,
      "tschaft": 841,
      "einge": 842,
      "Fe": 843,
      "aum": 844,
      "olog": 845,
      "ihre": 846,
      "kte": 847,
      "sei": 848,
      "od": 849,
      "zur": 850,
      "ald": 851,
      "arl": 852,
      "eter": 853,
      "geben": 854,
      "entlich": 855,
      "16": 856,
      "The": 857,
      "ian": 858,
      "ow": 859,
      "pr": 860,
      "stehen": 861,
      "kur": 862,
      "mö": 863,
      "wick": 864,
      "gend": 865,
      "''": 866,
      "stän": 867,
      "Als": 868,
      "wohn": 869,
      "ats": 870,
      "beg": 871,
      "Bundes": 872,
      "ilm": 873,
      "Diese": 874,
      "ihm": 875,
      "ütz": 876,
      "Stu": 877,
      "cke": 878,
      "konnte": 879,
      "Ober": 880,
      "prä": 881,
      "12": 882,
      "Famil": 883,
      "beit": 884,
      "dann": 885,
      "str": 886,
      "änder": 887,
      "Ort": 888,
      "tig": 889,
      "uß": 890,
      "besch": 891,
      "nehmen": 892,
      "diesem": 893,
      "Über": 894,
      "dies": 895,
      "ings": 896,
      "können": 897,
      "US": 898,
      "nung": 899,
      "kehr": 900,
      "Mus": 901,
      "si": 902,
      "ta": 903,
      "Ich": 904,
      "form": 905,
      "seinem": 906,
      "viel": 907,
      "ffen": 908,
      "gibt": 909,
      "Bes": 910,
      "vier": 911,
      "ym": 912,
      "itt": 913,
      "führt": 914,
      "Pr": 915,
      "lang": 916,
      "alen": 917,
      "steht": 918,
      "schland": 919,
      "findet": 920,
      "Bo": 921,
      "Bet": 922,
      "ks": 923,
      "issen": 924,
      "etz": 925,
      "schieden": 926,
      "Ha": 927,
      "seinen": 928,
      "halb": 929,
      "dr": 930,
      "eben": 931,
      "erste": 932,
      "Co": 933,
      "Ka": 934,
      "for": 935,
      "richt": 936,
      "ichte": 937,
      "setzt": 938,
      "besonder": 939,
      "zurück": 940,
      "He": 941,
      "Was": 942,
      "lo": 943,
      "schaften": 944,
      "aller": 945,
      "Kir": 946,
      "len": 947,
      "ins": 948,
      "amen": 949,
      "lag": 950,
      "wohl": 951,
      "Ho": 952,
      "urop": 953,
      "Deutschland": 954,
      "Part": 955,
      "sehen": 956,
      "grö": 957,
      "Ta": 958,
      "ub": 959,
      "dete": 960,
      "liegt": 961,
      "selbst": 962,
      "Gro": 963,
      "gung": 964,
      "cken": 965,
      "ellen": 966,
      "imm": 967,
      "Lei": 968,
      "Von": 969,
      "ium": 970,
      "rat": 971,
      "sa": 972,
      "schließ": 973,
      "ierten": 974,
      "mittel": 975,
      "Grund": 976,
      "schlos": 977,
      "Ex": 978,
      "Men": 979,
      "ine": 980,
      "igkeit": 981,
      "ielt": 982,
      "ult": 983,
      "Frau": 984,
      "zie": 985,
      "üs": 986,
      "tem": 987,
      "Stra": 988,
      "Mann": 989,
      "Nord": 990,
      "gar": 991,
      "ös": 992,
      "schei": 993,
      "best": 994,
      "Haupt": 995,
      "satz": 996,
      "ule": 997,
      "verl": 998,
      "zer": 999,
      "auer": 1000,
      "ommen": 1001,
      "io": 1002,
      "walt": 1003,
      "annt": 1004,
      "Auch": 1005,
      "sammen": 1006,
      "nahm": 1007,
      "zusammen": 1008,
      "ison": 1009,
      "amer": 1010,
      "hlen": 1011,
      "Gemeinde": 1012,
      "andes": 1013,
      "ucht": 1014,
      "Pf": 1015,
      "gte": 1016,
      "hol": 1017,
      "Min": 1018,
      "schon": 1019,
      "weil": 1020,
      "Leben": 1021,
      "Für": 1022,
      "mach": 1023,
      "zun": 1024,
      "verschieden": 1025,
      "Seit": 1026,
      "gef": 1027,
      "arr": 1028,
      "13": 1029,
      "Durch": 1030,
      "Gl": 1031,
      "Lu": 1032,
      "unde": 1033,
      "ank": 1034,
      "000": 1035,
      "ationen": 1036,
      "anderen": 1037,
      "Berlin": 1038,
      "..": 1039,
      "Mon": 1040,
      "gut": 1041,
      "hö": 1042,
      "ohn": 1043,
      "pun": 1044,
      "ere": 1045,
      "bel": 1046,
      "grund": 1047,
      "lagen": 1048,
      "Eine": 1049,
      "Ph": 1050,
      "km": 1051,
      "tt": 1052,
      "Schl": 1053,
      "änger": 1054,
      "ächst": 1055,
      "damit": 1056,
      "El": 1057,
      "For": 1058,
      "Pers": 1059,
      "sy": 1060,
      "statt": 1061,
      "iss": 1062,
      "ko": 1063,
      "uten": 1064,
      "inter": 1065,
      "ans": 1066,
      "gesam": 1067,
      "rech": 1068,
      "Mitglie": 1069,
      "hof": 1070,
      "Gra": 1071,
      "gab": 1072,
      "pe": 1073,
      "ron": 1074,
      "zel": 1075,
      "üh": 1076,
      "asse": 1077,
      "lage": 1078,
      "stellung": 1079,
      "fte": 1080,
      "dert": 1081,
      "alien": 1082,
      "ammen": 1083,
      "Ende": 1084,
      "Kin": 1085,
      "dings": 1086,
      "itel": 1087,
      "sol": 1088,
      "wä": 1089,
      "während": 1090,
      "stadt": 1091,
      "isten": 1092,
      "192": 1093,
      "reichen": 1094,
      "meister": 1095,
      "11": 1096,
      "Film": 1097,
      "if": 1098,
      "mals": 1099,
      "ogen": 1100,
      "ister": 1101,
      "reu": 1102,
      "Frank": 1103,
      "Am": 1104,
      "Man": 1105,
      "bahn": 1106,
      "weit": 1107,
      "stem": 1108,
      "eister": 1109,
      "reg": 1110,
      "ionen": 1111,
      "beiden": 1112,
      "Tra": 1113,
      "fang": 1114,
      "ett": 1115,
      "Aut": 1116,
      "Hei": 1117,
      "ex": 1118,
      "uer": 1119,
      "dern": 1120,
      "gest": 1121,
      "bereits": 1122,
      "Wasser": 1123,
      "Gen": 1124,
      "Kön": 1125,
      "fach": 1126,
      "keine": 1127,
      "ober": 1128,
      "zug": 1129,
      "werk": 1130,
      "rift": 1131,
      "0er": 1132,
      "handel": 1133,
      "old": 1134,
      "rieben": 1135,
      "habe": 1136,
      "ihrer": 1137,
      "Tr": 1138,
      "Vol": 1139,
      "yp": 1140,
      "Dies": 1141,
      "falls": 1142,
      "Fahr": 1143,
      "Zus": 1144,
      "wel": 1145,
      "dent": 1146,
      "äng": 1147,
      "uppe": 1148,
      "Mo": 1149,
      "äft": 1150,
      "stein": 1151,
      "griff": 1152,
      "zial": 1153,
      "Saison": 1154,
      "Familie": 1155,
      "Ser": 1156,
      "Ur": 1157,
      "fern": 1158,
      "na": 1159,
      "sta": 1160,
      "genommen": 1161,
      "empf": 1162,
      "Verb": 1163,
      "Platz": 1164,
      "bekannt": 1165,
      "König": 1166,
      "Krieg": 1167,
      "frei": 1168,
      "ubl": 1169,
      "esen": 1170,
      "bezeich": 1171,
      "west": 1172,
      "Musik": 1173,
      "Süd": 1174,
      "mpf": 1175,
      "yn": 1176,
      "wert": 1177,
      "wegen": 1178,
      "dabei": 1179,
      "Ger": 1180,
      "Pol": 1181,
      "our": 1182,
      "fest": 1183,
      "öffentlich": 1184,
      "Ko": 1185,
      "polit": 1186,
      "tlich": 1187,
      "voll": 1188,
      "ziel": 1189,
      "gehen": 1190,
      "heim": 1191,
      "fahren": 1192,
      "Universität": 1193,
      "Bil": 1194,
      "Di": 1195,
      "Kur": 1196,
      "ont": 1197,
      "betr": 1198,
      "iga": 1199,
      "ihren": 1200,
      "Dr": 1201,
      "Ju": 1202,
      "Zwei": 1203,
      "oten": 1204,
      "woll": 1205,
      "onen": 1206,
      "achsen": 1207,
      "ckt": 1208,
      "Den": 1209,
      "Hoch": 1210,
      "Rei": 1211,
      "bin": 1212,
      "ält": 1213,
      "Ra": 1214,
      "unst": 1215,
      "fün": 1216,
      "abge": 1217,
      "Einwohn": 1218,
      "Prozent": 1219,
      "schluss": 1220,
      "14": 1221,
      "kauf": 1222,
      "such": 1223,
      "sonder": 1224,
      "erreich": 1225,
      "chsel": 1226,
      "itzen": 1227,
      "licher": 1228,
      "Spr": 1229,
      "ice": 1230,
      "ganis": 1231,
      "erhielt": 1232,
      "sondern": 1233,
      "Bahn": 1234,
      "Chr": 1235,
      "Dan": 1236,
      "Dar": 1237,
      "Haus": 1238,
      "befindet": 1239,
      "dessen": 1240,
      "Frei": 1241,
      "Mal": 1242,
      "gang": 1243,
      "ou": 1244,
      "th": 1245,
      "erfolg": 1246,
      "ilit": 1247,
      "ppen": 1248,
      "Mittel": 1249,
      "finden": 1250,
      "Fre": 1251,
      "az": 1252,
      "akt": 1253,
      "zähl": 1254,
      "ersch": 1255,
      "Grün": 1256,
      "Neu": 1257,
      "neue": 1258,
      "allem": 1259,
      "Menschen": 1260,
      "Prä": 1261,
      "ip": 1262,
      "iere": 1263,
      "Inter": 1264,
      "wirtschaft": 1265,
      "Alb": 1266,
      "Groß": 1267,
      "Fol": 1268,
      "Landes": 1269,
      "Mill": 1270,
      "ül": 1271,
      "gestellt": 1272,
      "els": 1273,
      "spe": 1274,
      "ürger": 1275,
      "Produ": 1276,
      "Sohn": 1277,
      "Eis": 1278,
      "av": 1279,
      "inz": 1280,
      "denen": 1281,
      "ache": 1282,
      "recht": 1283,
      "West": 1284,
      "möglich": 1285,
      "Europ": 1286,
      "Hier": 1287,
      "feld": 1288,
      "ost": 1289,
      "par": 1290,
      "völ": 1291,
      "viele": 1292,
      "äd": 1293,
      "ame": 1294,
      "zeu": 1295,
      "ternational": 1296,
      "zunächst": 1297,
      "50": 1298,
      "Form": 1299,
      "Reich": 1300,
      "ib": 1301,
      "mar": 1302,
      "wicht": 1303,
      "zös": 1304,
      "ende": 1305,
      "inger": 1306,
      "einige": 1307,
      "sech": 1308,
      "rekt": 1309,
      "frü": 1310,
      "Rück": 1311,
      "fran": 1312,
      "hun": 1313,
      "kten": 1314,
      "ock": 1315,
      "worden": 1316,
      "ys": 1317,
      "igt": 1318,
      "Schul": 1319,
      "liegen": 1320,
      "ott": 1321,
      "darauf": 1322,
      "Herr": 1323,
      "treten": 1324,
      "ohne": 1325,
      "schlossen": 1326,
      "punkt": 1327,
      "Hö": 1328,
      "National": 1329,
      "kün": 1330,
      "uf": 1331,
      "zt": 1332,
      "ity": 1333,
      "Verein": 1334,
      "nahme": 1335,
      "Flug": 1336,
      "issenschaft": 1337,
      "Mün": 1338,
      "Nieder": 1339,
      "Ter": 1340,
      "ble": 1341,
      "dan": 1342,
      "chn": 1343,
      "schule": 1344,
      "gele": 1345,
      "ator": 1346,
      "190": 1347,
      "Stand": 1348,
      "halt": 1349,
      "wenn": 1350,
      "Team": 1351,
      "Par": 1352,
      "Ste": 1353,
      "Wahl": 1354,
      "nie": 1355,
      "innen": 1356,
      "deren": 1357,
      "Ant": 1358,
      "trat": 1359,
      "tragen": 1360,
      "Region": 1361,
      "Weiter": 1362,
      "bach": 1363,
      "krieg": 1364,
      "pen": 1365,
      "angen": 1366,
      "orn": 1367,
      "ismus": 1368,
      "amerikan": 1369,
      "Hol": 1370,
      "Su": 1371,
      "Zent": 1372,
      "hält": 1373,
      "jähr": 1374,
      "kreis": 1375,
      "ve": 1376,
      "ven": 1377,
      "inner": 1378,
      "gegrün": 1379,
      "lassen": 1380,
      "tag": 1381,
      "zei": 1382,
      "uns": 1383,
      "stie": 1384,
      "undlich": 1385,
      "iven": 1386,
      "allerdings": 1387,
      "Zusammen": 1388,
      "Je": 1389,
      "kel": 1390,
      "use": 1391,
      "öst": 1392,
      "star": 1393,
      "aligen": 1394,
      "cker": 1395,
      "stellen": 1396,
      "Art": 1397,
      "Ba": 1398,
      "Com": 1399,
      "Do": 1400,
      "Ob": 1401,
      "Wa": 1402,
      "ate": 1403,
      "ball": 1404,
      "fort": 1405,
      "keiten": 1406,
      "mat": 1407,
      "alter": 1408,
      "entwick": 1409,
      "2007": 1410,
      "Lehr": 1411,
      "Unternehmen": 1412,
      "straße": 1413,
      "Fin": 1414,
      "Th": 1415,
      "fess": 1416,
      "ide": 1417,
      "standen": 1418,
      "bef": 1419,
      "verein": 1420,
      "ktur": 1421,
      "Gegen": 1422,
      "anderem": 1423,
      "französ": 1424,
      "At": 1425,
      "Fern": 1426,
      "ial": 1427,
      "mä": 1428,
      "ert": 1429,
      "Str": 1430,
      "wirk": 1431,
      "Rech": 1432,
      "weg": 1433,
      "wechsel": 1434,
      "zeug": 1435,
      "andere": 1436,
      "folgen": 1437,
      "weitere": 1438,
      "gehört": 1439,
      "großen": 1440,
      "begann": 1441,
      "Bur": 1442,
      "Son": 1443,
      "Seine": 1444,
      "mm": 1445,
      "rum": 1446,
      "welt": 1447,
      "schw": 1448,
      "ellschaft": 1449,
      "trag": 1450,
      "kurz": 1451,
      "dieses": 1452,
      "besondere": 1453,
      "ac": 1454,
      "arten": 1455,
      "essen": 1456,
      "verwen": 1457,
      "Arbeit": 1458,
      "brit": 1459,
      "kommt": 1460,
      "führte": 1461,
      "deutschen": 1462,
      "ologie": 1463,
      "fünf": 1464,
      "fäl": 1465,
      "erg": 1466,
      "rad": 1467,
      "neben": 1468,
      "ände": 1469,
      "Aug": 1470,
      "sterreich": 1471,
      "mehrere": 1472,
      "ßerdem": 1473,
      "Kinder": 1474,
      "Band": 1475,
      "ue": 1476,
      "ina": 1477,
      "einander": 1478,
      "heut": 1479,
      "gebaut": 1480,
      "sollte": 1481,
      "ebenfalls": 1482,
      "ultur": 1483,
      "Frie": 1484,
      "Ost": 1485,
      "Tor": 1486,
      "Titel": 1487,
      "mir": 1488,
      "süd": 1489,
      "inen": 1490,
      "isches": 1491,
      "ember": 1492,
      "änd": 1493,
      "Anfang": 1494,
      "neuen": 1495,
      "Dem": 1496,
      "Rom": 1497,
      "Sein": 1498,
      "ehem": 1499,
      "jahr": 1500,
      "will": 1501,
      "üt": 1502,
      "ons": 1503,
      "hren": 1504,
      "amt": 1505,
      "aufge": 1506,
      "örd": 1507,
      "ätig": 1508,
      "Neben": 1509,
      "Komm": 1510,
      "Fuß": 1511,
      "Joh": 1512,
      "Kunst": 1513,
      "Pra": 1514,
      "zog": 1515,
      "unt": 1516,
      "alität": 1517,
      "leben": 1518,
      "hatten": 1519,
      "meist": 1520,
      "Partei": 1521,
      "Hil": 1522,
      "Met": 1523,
      "bo": 1524,
      "ca": 1525,
      "lau": 1526,
      "rund": 1527,
      "sätz": 1528,
      "stud": 1529,
      "veröffentlich": 1530,
      "rechen": 1531,
      "Verwalt": 1532,
      "oss": 1533,
      "uchte": 1534,
      "gebiet": 1535,
      "große": 1536,
      "platz": 1537,
      "ilitär": 1538,
      "Ad": 1539,
      "Hand": 1540,
      "Tur": 1541,
      "Zahl": 1542,
      "dorf": 1543,
      "hand": 1544,
      "uar": 1545,
      "zir": 1546,
      "alten": 1547,
      "eln": 1548,
      "2006": 1549,
      "189": 1550,
      "äude": 1551,
      "sprün": 1552,
      "Kirche": 1553,
      "Gener": 1554,
      "40": 1555,
      "Ele": 1556,
      "Pat": 1557,
      "dah": 1558,
      "ite": 1559,
      "tro": 1560,
      "wür": 1561,
      "iner": 1562,
      "eile": 1563,
      "are": 1564,
      "rom": 1565,
      "ums": 1566,
      "Jahrhun": 1567,
      "ständ": 1568,
      "Betrieb": 1569,
      "schließlich": 1570,
      "Mitglied": 1571,
      "empfe": 1572,
      "bezeichnet": 1573,
      "sechs": 1574,
      "30": 1575,
      "Kan": 1576,
      "Lin": 1577,
      "Namen": 1578,
      "Ol": 1579,
      "Wien": 1580,
      "blie": 1581,
      "dition": 1582,
      "ka": 1583,
      "lauf": 1584,
      "mut": 1585,
      "nun": 1586,
      "wor": 1587,
      "stu": 1588,
      "stre": 1589,
      "stütz": 1590,
      "schwer": 1591,
      "aul": 1592,
      "arbeit": 1593,
      "esse": 1594,
      "Insel": 1595,
      "iker": 1596,
      "klär": 1597,
      "nahmen": 1598,
      "New": 1599,
      "spielte": 1600,
      "ritten": 1601,
      "produ": 1602,
      "arbeiten": 1603,
      "arbeitete": 1604,
      "größ": 1605,
      "völker": 1606,
      "Buch": 1607,
      "Is": 1608,
      "Kap": 1609,
      "bie": 1610,
      "ging": 1611,
      "olf": 1612,
      "davon": 1613,
      "2009": 1614,
      "äche": 1615,
      "äuf": 1616,
      "seines": 1617,
      "uppen": 1618,
      "gemeinsam": 1619,
      "Volks": 1620,
      "Einwohner": 1621,
      "Bas": 1622,
      "Kr": 1623,
      "Während": 1624,
      "leich": 1625,
      "sst": 1626,
      "up": 1627,
      "uni": 1628,
      "diesen": 1629,
      "leb": 1630,
      "ille": 1631,
      "spro": 1632,
      "Arch": 1633,
      "deutsch": 1634,
      "gehörte": 1635,
      "schied": 1636,
      "letzten": 1637,
      "Fest": 1638,
      "Luft": 1639,
      "Meister": 1640,
      "co": 1641,
      "hel": 1642,
      "ius": 1643,
      "kir": 1644,
      "ose": 1645,
      "unktion": 1646,
      "ond": 1647,
      "asst": 1648,
      "änge": 1649,
      "allen": 1650,
      "immt": 1651,
      "herr": 1652,
      "All": 1653,
      "erstmals": 1654,
      "Johann": 1655,
      "100": 1656,
      "Bar": 1657,
      "Fra": 1658,
      "Ham": 1659,
      "Kam": 1660,
      "ade": 1661,
      "oft": 1662,
      "plan": 1663,
      "eren": 1664,
      "one": 1665,
      "isse": 1666,
      "Stre": 1667,
      "umen": 1668,
      "Gruppe": 1669,
      "2010": 1670,
      "sprach": 1671,
      "utzt": 1672,
      "minister": 1673,
      "Phil": 1674,
      "gesamt": 1675,
      "Dort": 1676,
      "Fir": 1677,
      "It": 1678,
      "PD": 1679,
      "Sal": 1680,
      "Wohn": 1681,
      "nörd": 1682,
      "erhalten": 1683,
      "stru": 1684,
      "besteht": 1685,
      "igung": 1686,
      "Schiff": 1687,
      "hnt": 1688,
      "2008": 1689,
      "reiche": 1690,
      "nisse": 1691,
      "gabe": 1692,
      "stieg": 1693,
      "60": 1694,
      "Lie": 1695,
      "bung": 1696,
      "lä": 1697,
      "muss": 1698,
      "sweise": 1699,
      "wend": 1700,
      "wahl": 1701,
      "xis": 1702,
      "stoff": 1703,
      "schle": 1704,
      "urt": 1705,
      "genann": 1706,
      "bede": 1707,
      "istor": 1708,
      "also": 1709,
      "ochen": 1710,
      "gebr": 1711,
      "ihrem": 1712,
      "ruck": 1713,
      "reuz": 1714,
      "Album": 1715,
      "studierte": 1716,
      "Bürger": 1717,
      "Des": 1718,
      "Kar": 1719,
      "Mot": 1720,
      "Preis": 1721,
      "Sü": 1722,
      "Tro": 1723,
      "Zw": 1724,
      "hein": 1725,
      "enden": 1726,
      "schein": 1727,
      "alis": 1728,
      "Auft": 1729,
      "Prov": 1730,
      "jekt": 1731,
      "jeweil": 1732,
      "187": 1733,
      "gewann": 1734,
      "Entwick": 1735,
      "ublik": 1736,
      "Christ": 1737,
      "II": 1738,
      "Sitz": 1739,
      "do": 1740,
      "hör": 1741,
      "mich": 1742,
      "wahr": 1743,
      "wissenschaft": 1744,
      "unser": 1745,
      "ath": 1746,
      "ilom": 1747,
      "sicht": 1748,
      "osition": 1749,
      "2000": 1750,
      "ganz": 1751,
      "Frankreich": 1752,
      "handelt": 1753,
      "Folge": 1754,
      "Dorf": 1755,
      "Ihr": 1756,
      "Pun": 1757,
      "Peter": 1758,
      "Ren": 1759,
      "Wil": 1760,
      "son": 1761,
      "zogen": 1762,
      "äh": 1763,
      "errich": 1764,
      "stit": 1765,
      "stär": 1766,
      "ursprün": 1767,
      "iser": 1768,
      "achte": 1769,
      "ret": 1770,
      "raft": 1771,
      "ations": 1772,
      "zehn": 1773,
      "gewähl": 1774,
      "weiteren": 1775,
      "burger": 1776,
      "freundlich": 1777,
      "Studi": 1778,
      "August": 1779,
      "Bi": 1780,
      "Car": 1781,
      "Li": 1782,
      "Per": 1783,
      "su": 1784,
      "schrei": 1785,
      "schrift": 1786,
      "iter": 1787,
      "bed": 1788,
      "entstanden": 1789,
      "ommer": 1790,
      "ika": 1791,
      "dazu": 1792,
      "Meter": 1793,
      "schnitt": 1794,
      "mäß": 1795,
      "Dam": 1796,
      "Sei": 1797,
      "fra": 1798,
      "sor": 1799,
      "sitzen": 1800,
      "wes": 1801,
      "ägt": 1802,
      "üb": 1803,
      "cher": 1804,
      "deten": 1805,
      "genannt": 1806,
      "Schw": 1807,
      "indung": 1808,
      "stens": 1809,
      "ücke": 1810,
      "geht": 1811,
      "bildung": 1812,
      "Werk": 1813,
      "Geschichte": 1814,
      "empfehlen": 1815,
      "Bis": 1816,
      "Don": 1817,
      "Gel": 1818,
      "Jul": 1819,
      "Juni": 1820,
      "Polit": 1821,
      "Rad": 1822,
      "los": 1823,
      "pa": 1824,
      "ügel": 1825,
      "scht": 1826,
      "einfach": 1827,
      "aup": 1828,
      "ament": 1829,
      "bert": 1830,
      "sprechen": 1831,
      "etwas": 1832,
      "ffe": 1833,
      "Bevölker": 1834,
      "örper": 1835,
      "ogra": 1836,
      "schnell": 1837,
      "Gebiet": 1838,
      "sident": 1839,
      "üssen": 1840,
      "Richt": 1841,
      "San": 1842,
      "Tag": 1843,
      "nam": 1844,
      "wort": 1845,
      "stau": 1846,
      "schutz": 1847,
      "ions": 1848,
      "ließen": 1849,
      "Alt": 1850,
      "stellte": 1851,
      "hausen": 1852,
      "Frauen": 1853,
      "erreichte": 1854,
      "gegründet": 1855,
      "Natur": 1856,
      "Pa": 1857,
      "Stel": 1858,
      "beits": 1859,
      "hä": 1860,
      "ja": 1861,
      "oster": 1862,
      "van": 1863,
      "ystem": 1864,
      "ämpf": 1865,
      "get": 1866,
      "itter": 1867,
      "legt": 1868,
      "Schwei": 1869,
      "Erst": 1870,
      "188": 1871,
      "seite": 1872,
      "Kriegs": 1873,
      "verwendet": 1874,
      "Bay": 1875,
      "Män": 1876,
      "Okt": 1877,
      "Ru": 1878,
      "Vater": 1879,
      "gute": 1880,
      "res": 1881,
      "the": 1882,
      "wig": 1883,
      "alte": 1884,
      "ore": 1885,
      "ise": 1886,
      "lager": 1887,
      "Sport": 1888,
      "gelang": 1889,
      "Fluss": 1890,
      "ritt": 1891,
      "2011": 1892,
      "Wirtschaft": 1893,
      "Dabei": 1894,
      "Weltkrieg": 1895,
      "gaben": 1896,
      "ständig": 1897,
      "vielen": 1898,
      "größer": 1899,
      "früher": 1900,
      "Dien": 1901,
      "port": 1902,
      "wand": 1903,
      "anischen": 1904,
      "derung": 1905,
      "ative": 1906,
      "zuvor": 1907,
      "achen": 1908,
      "2005": 1909,
      "besitz": 1910,
      "setzte": 1911,
      "assung": 1912,
      "dienst": 1913,
      "bild": 1914,
      "arbeiter": 1915,
      "insbesondere": 1916,
      "Hotel": 1917,
      "machen": 1918,
      "Fried": 1919,
      "25": 1920,
      "Con": 1921,
      "Em": 1922,
      "Karl": 1923,
      "Kultur": 1924,
      "Nov": 1925,
      "Sk": 1926,
      "frie": 1927,
      "fast": 1928,
      "haupt": 1929,
      "ment": 1930,
      "vice": 1931,
      "zin": 1932,
      "ies": 1933,
      "verkehr": 1934,
      "Stein": 1935,
      "umf": 1936,
      "nete": 1937,
      "weisen": 1938,
      "Einsatz": 1939,
      "daß": 1940,
      "führung": 1941,
      "nahe": 1942,
      "Markt": 1943,
      "University": 1944,
      "verschiedenen": 1945,
      "blieb": 1946,
      "äufig": 1947,
      "Zwischen": 1948,
      "Oktober": 1949,
      "Bu": 1950,
      "Hel": 1951,
      "Po": 1952,
      "Sommer": 1953,
      "Tod": 1954,
      "dre": 1955,
      "för": 1956,
      "gil": 1957,
      "häng": 1958,
      "kun": 1959,
      "kat": 1960,
      "mon": 1961,
      "met": 1962,
      "näch": 1963,
      "pol": 1964,
      "ren": 1965,
      "tei": 1966,
      "ingt": 1967,
      "stark": 1968,
      "denten": 1969,
      "eitung": 1970,
      "entstand": 1971,
      "hervor": 1972,
      "2004": 1973,
      "teilt": 1974,
      "Mark": 1975,
      "gangen": 1976,
      "eigenen": 1977,
      "ymp": 1978,
      "Lebens": 1979,
      "Bild": 1980,
      "Holz": 1981,
      "zeigt": 1982,
      "heutigen": 1983,
      "ilometer": 1984,
      "Bon": 1985,
      "Cl": 1986,
      "Hof": 1987,
      "To": 1988,
      "hoch": 1989,
      "lern": 1990,
      "mo": 1991,
      "bestand": 1992,
      "lex": 1993,
      "Dieser": 1994,
      "Schrift": 1995,
      "Geor": 1996,
      "ünst": 1997,
      "Regel": 1998,
      "uchs": 1999,
      "steller": 2000,
      "brauch": 2001,
      "wobei": 2002,
      "zweiten": 2003,
      "direkt": 2004,
      "blei": 2005,
      "lange": 2006,
      "setzen": 2007,
      "Staats": 2008,
      "Mannschaft": 2009,
      "Person": 2010,
      "welche": 2011,
      "Jugend": 2012,
      "Che": 2013,
      "Mär": 2014,
      "hät": 2015,
      "oso": 2016,
      "piel": 2017,
      "raum": 2018,
      "bereich": 2019,
      "istischen": 2020,
      "ign": 2021,
      "sicher": 2022,
      "liefer": 2023,
      "Außerdem": 2024,
      "iges": 2025,
      "Arbeits": 2026,
      "Proble": 2027,
      "folge": 2028,
      "kenn": 2029,
      "Deutschen": 2030,
      "musste": 2031,
      "offen": 2032,
      "Gebäude": 2033,
      "Leist": 2034,
      "gewählt": 2035,
      "Gast": 2036,
      "Handel": 2037,
      "Kreis": 2038,
      "Wald": 2039,
      "hy": 2040,
      "ient": 2041,
      "äum": 2042,
      "international": 2043,
      "geführt": 2044,
      "amp": 2045,
      "sport": 2046,
      "Schn": 2047,
      "gere": 2048,
      "Erfolg": 2049,
      "sogar": 2050,
      "ppel": 2051,
      "186": 2052,
      "besser": 2053,
      "Berg": 2054,
      "Bereich": 2055,
      "Organis": 2056,
      "gegenüber": 2057,
      "zeitig": 2058,
      "erstör": 2059,
      "meisten": 2060,
      "gehören": 2061,
      "zieh": 2062,
      "Personen": 2063,
      "Har": 2064,
      "Nä": 2065,
      "Rich": 2066,
      "Res": 2067,
      "Rolle": 2068,
      "Raum": 2069,
      "Seiten": 2070,
      "Vi": 2071,
      "War": 2072,
      "Wieder": 2073,
      "bele": 2074,
      "gra": 2075,
      "ider": 2076,
      "erwä": 2077,
      "engl": 2078,
      "steil": 2079,
      "stag": 2080,
      "schul": 2081,
      "einmal": 2082,
      "ichten": 2083,
      "ors": 2084,
      "genau": 2085,
      "mitt": 2086,
      "reise": 2087,
      "Indu": 2088,
      "abr": 2089,
      "gramm": 2090,
      "alles": 2091,
      "Spe": 2092,
      "heraus": 2093,
      "185": 2094,
      "spielt": 2095,
      "fertig": 2096,
      "groß": 2097,
      "ihnen": 2098,
      "schloss": 2099,
      "system": 2100,
      "ehemaligen": 2101,
      "Praxis": 2102,
      "General": 2103,
      "gebracht": 2104,
      "As": 2105,
      "Amer": 2106,
      "Jan": 2107,
      "Länder": 2108,
      "Pe": 2109,
      "Sel": 2110,
      "Sol": 2111,
      "sent": 2112,
      "erne": 2113,
      "chte": 2114,
      "eist": 2115,
      "schiff": 2116,
      "aler": 2117,
      "ichtet": 2118,
      "bestehen": 2119,
      "absol": 2120,
      "Mitte": 2121,
      "kleiner": 2122,
      "See": 2123,
      "wasser": 2124,
      "Beispiel": 2125,
      "zentr": 2126,
      "Kirchen": 2127,
      "tember": 2128,
      "verschiedene": 2129,
      "Heimat": 2130,
      "staat": 2131,
      "Millionen": 2132,
      "gelegen": 2133,
      "Burg": 2134,
      "jeweils": 2135,
      "Entwicklung": 2136,
      "Eben": 2137,
      "Fü": 2138,
      "Fall": 2139,
      "Heil": 2140,
      "Kat": 2141,
      "Kreuz": 2142,
      "Mag": 2143,
      "SPD": 2144,
      "Them": 2145,
      "ct": 2146,
      "kü": 2147,
      "rän": 2148,
      "Österreich": 2149,
      "ßt": 2150,
      "stalt": 2151,
      "atten": 2152,
      "beteil": 2153,
      "igten": 2154,
      "ichts": 2155,
      "Jahres": 2156,
      "immen": 2157,
      "sieben": 2158,
      "Arbei": 2159,
      "folgt": 2160,
      "älter": 2161,
      "ächlich": 2162,
      "1999": 2163,
      "Mai": 2164,
      "Sep": 2165,
      "Kloster": 2166,
      "Landkreis": 2167,
      "Regierung": 2168,
      "eingesetzt": 2169,
      "Familien": 2170,
      "Count": 2171,
      "Produktion": 2172,
      "amerikanischen": 2173,
      "Rechts": 2174,
      "leicht": 2175,
      "Italien": 2176,
      "Seite": 2177,
      "90": 2178,
      "Amt": 2179,
      "Ben": 2180,
      "Ca": 2181,
      "Dom": 2182,
      "Kü": 2183,
      "Lauf": 2184,
      "Lond": 2185,
      "Rah": 2186,
      "Tal": 2187,
      "Wochen": 2188,
      "gten": 2189,
      "kein": 2190,
      "macht": 2191,
      "nieder": 2192,
      "stimm": 2193,
      "anten": 2194,
      "uren": 2195,
      "ole": 2196,
      "regel": 2197,
      "Ergeb": 2198,
      "übernahm": 2199,
      "Verwaltungs": 2200,
      "Richtung": 2201,
      "September": 2202,
      "Bel": 2203,
      "Bru": 2204,
      "Eigen": 2205,
      "Kran": 2206,
      "Liter": 2207,
      "fel": 2208,
      "ift": 2209,
      "liga": 2210,
      "pon": 2211,
      "sah": 2212,
      "stelle": 2213,
      "einz": 2214,
      "einzel": 2215,
      "organis": 2216,
      "bevor": 2217,
      "verlie": 2218,
      "see": 2219,
      "lichkeit": 2220,
      "igte": 2221,
      "utter": 2222,
      "Ins": 2223,
      "Schwe": 2224,
      "ochter": 2225,
      "selben": 2226,
      "tritt": 2227,
      "Engl": 2228,
      "ücken": 2229,
      "besuchte": 2230,
      "führen": 2231,
      "hinter": 2232,
      "1998": 2233,
      "spielen": 2234,
      "fluss": 2235,
      "deutsche": 2236,
      "heiten": 2237,
      "zeichnung": 2238,
      "fahrt": 2239,
      "Spieler": 2240,
      "etzt": 2241,
      "richtung": 2242,
      "arriere": 2243,
      "Frankf": 2244,
      "ergie": 2245,
      "Provinz": 2246,
      "gilt": 2247,
      "Bre": 2248,
      "DR": 2249,
      "Far": 2250,
      "Funktion": 2251,
      "John": 2252,
      "Muse": 2253,
      "Os": 2254,
      "fand": 2255,
      "iver": 2256,
      "kan": 2257,
      "lt": 2258,
      "les": 2259,
      "mein": 2260,
      "mark": 2261,
      "müssen": 2262,
      "ton": 2263,
      "tätig": 2264,
      "vol": 2265,
      "äten": 2266,
      "ähn": 2267,
      "stei": 2268,
      "angeb": 2269,
      "genutzt": 2270,
      "beru": 2271,
      "uth": 2272,
      "beispiel": 2273,
      "ette": 2274,
      "abhäng": 2275,
      "iken": 2276,
      "gren": 2277,
      "Gew": 2278,
      "Begriff": 2279,
      "Arten": 2280,
      "ären": 2281,
      "samm": 2282,
      "klass": 2283,
      "Weg": 2284,
      "damals": 2285,
      "zip": 2286,
      "bilden": 2287,
      "sollen": 2288,
      "öffent": 2289,
      "betrieb": 2290,
      "Blü": 2291,
      "besonders": 2292,
      "insgesamt": 2293,
      "schließend": 2294,
      "ziehen": 2295,
      "machte": 2296,
      "sych": 2297,
      "Zweiten": 2298,
      "wollte": 2299,
      "Eisen": 2300,
      "wirklich": 2301,
      "stitut": 2302,
      "Du": 2303,
      "FC": 2304,
      "Im": 2305,
      "Kilometer": 2306,
      "Lud": 2307,
      "Mich": 2308,
      "Pre": 2309,
      "häufig": 2310,
      "lungen": 2311,
      "moder": 2312,
      "pers": 2313,
      "yr": 2314,
      "äm": 2315,
      "ari": 2316,
      "zudem": 2317,
      "verfü": 2318,
      "aufgrund": 2319,
      "fühl": 2320,
      "adurch": 2321,
      "Einzel": 2322,
      "Bereits": 2323,
      "teilung": 2324,
      "kamen": 2325,
      "Gesellschaft": 2326,
      "ätze": 2327,
      "Kaiser": 2328,
      "Straßen": 2329,
      "peten": 2330,
      "erschien": 2331,
      "danach": 2332,
      "fessor": 2333,
      "mäßig": 2334,
      "kunft": 2335,
      "osoph": 2336,
      "Nähe": 2337,
      "London": 2338,
      "Rahmen": 2339,
      "Et": 2340,
      "Ton": 2341,
      "Wie": 2342,
      "ehmen": 2343,
      "fs": 2344,
      "histor": 2345,
      "tur": 2346,
      "teten": 2347,
      "italien": 2348,
      "International": 2349,
      "Bezir": 2350,
      "2001": 2351,
      "2002": 2352,
      "Grö": 2353,
      "heira": 2354,
      "offiz": 2355,
      "gründete": 2356,
      "Staat": 2357,
      "präsent": 2358,
      "...": 2359,
      "französischen": 2360,
      "Fußball": 2361,
      "November": 2362,
      "24": 2363,
      "27": 2364,
      "Dis": 2365,
      "Hal": 2366,
      "Hinter": 2367,
      "Kn": 2368,
      "Mart": 2369,
      "Name": 2370,
      "Tier": 2371,
      "Tochter": 2372,
      "bi": 2373,
      "ipp": 2374,
      "vent": 2375,
      "üge": 2376,
      "üler": 2377,
      "eng": 2378,
      "int": 2379,
      "scher": 2380,
      "lehr": 2381,
      "verkauf": 2382,
      "utt": 2383,
      "ument": 2384,
      "weis": 2385,
      "omm": 2386,
      "ktor": 2387,
      "Beg": 2388,
      "agte": 2389,
      "selten": 2390,
      "zept": 2391,
      "gewesen": 2392,
      "setzung": 2393,
      "1990": 2394,
      "bare": 2395,
      "Früh": 2396,
      "musik": 2397,
      "Techn": 2398,
      "mannschaft": 2399,
      "Entschei": 2400,
      "USA": 2401,
      "exist": 2402,
      "Dieses": 2403,
      "Service": 2404,
      "Indust": 2405,
      "beispielsweise": 2406,
      "23": 2407,
      "Bü": 2408,
      "Bra": 2409,
      "Fil": 2410,
      "Hin": 2411,
      "Kol": 2412,
      "Mö": 2413,
      "Mor": 2414,
      "Plan": 2415,
      "Paul": 2416,
      "Tran": 2417,
      "Zimmer": 2418,
      "ba": 2419,
      "bald": 2420,
      "fil": 2421,
      "film": 2422,
      "glichen": 2423,
      "heits": 2424,
      "ire": 2425,
      "not": 2426,
      "ief": 2427,
      "stet": 2428,
      "geord": 2429,
      "auber": 2430,
      "atung": 2431,
      "ters": 2432,
      "rag": 2433,
      "entfern": 2434,
      "reifen": 2435,
      "ängen": 2436,
      "wiesen": 2437,
      "wegung": 2438,
      "184": 2439,
      "Energie": 2440,
      "komm": 2441,
      "folger": 2442,
      "dell": 2443,
      "riften": 2444,
      "Medi": 2445,
      "Essen": 2446,
      "weniger": 2447,
      "Klein": 2448,
      "gleichen": 2449,
      "Wert": 2450,
      "verbrei": 2451,
      "Heute": 2452,
      "Tage": 2453,
      "Straße": 2454,
      "zeuge": 2455,
      "größten": 2456,
      "Strecke": 2457,
      "Friedrich": 2458,
      "teidig": 2459,
      "County": 2460,
      "Literatur": 2461,
      "Ludwig": 2462,
      "Bro": 2463,
      "CD": 2464,
      "Fach": 2465,
      "Feld": 2466,
      "Gu": 2467,
      "Mer": 2468,
      "Pla": 2469,
      "Sc": 2470,
      "Tre": 2471,
      "Wür": 2472,
      "ham": 2473,
      "kr": 2474,
      "keinen": 2475,
      "pre": 2476,
      "wachsen": 2477,
      "zeiten": 2478,
      "schung": 2479,
      "test": 2480,
      "auen": 2481,
      "aren": 2482,
      "ativ": 2483,
      "berger": 2484,
      "istische": 2485,
      "ilber": 2486,
      "aufgenommen": 2487,
      "schaffen": 2488,
      "sowohl": 2489,
      "Außen": 2490,
      "unterstütz": 2491,
      "Mitarbeiter": 2492,
      "zweite": 2493,
      "Sied": 2494,
      "teilweise": 2495,
      "folgte": 2496,
      "Lage": 2497,
      "konnten": 2498,
      "Qualität": 2499,
      "letzte": 2500,
      "lässt": 2501,
      "Süden": 2502,
      "ursprünglich": 2503,
      "super": 2504,
      "Bevölkerung": 2505,
      "28": 2506,
      "Bisch": 2507,
      "Carl": 2508,
      "Ehe": 2509,
      "Kre": 2510,
      "Sen": 2511,
      "Tem": 2512,
      "Typ": 2513,
      "Wal": 2514,
      "Ziel": 2515,
      "ci": 2516,
      "fäh": 2517,
      "jen": 2518,
      "jap": 2519,
      "lig": 2520,
      "lungs": 2521,
      "länd": 2522,
      "wal": 2523,
      "wald": 2524,
      "zwar": 2525,
      "erklär": 2526,
      "stück": 2527,
      "eier": 2528,
      "gegeben": 2529,
      "auben": 2530,
      "ure": 2531,
      "ata": 2532,
      "neten": 2533,
      "Schm": 2534,
      "bringen": 2535,
      "pflich": 2536,
      "Nachdem": 2537,
      "kleine": 2538,
      "hoben": 2539,
      "okal": 2540,
      "Tex": 2541,
      "zahlreiche": 2542,
      "Theater": 2543,
      "Besuch": 2544,
      "Gleich": 2545,
      "Königs": 2546,
      "erfolgte": 2547,
      "wichtig": 2548,
      "handlung": 2549,
      "kirche": 2550,
      "Firma": 2551,
      "Industrie": 2552,
      "26": 2553,
      "70": 2554,
      "Cor": 2555,
      "Empf": 2556,
      "Fel": 2557,
      "Gre": 2558,
      "Hans": 2559,
      "Kal": 2560,
      "Militär": 2561,
      "Norden": 2562,
      "Oper": 2563,
      "Port": 2564,
      "Rot": 2565,
      "Rhein": 2566,
      "Sh": 2567,
      "Wor": 2568,
      "Winter": 2569,
      "Yor": 2570,
      "fiel": 2571,
      "gn": 2572,
      "nord": 2573,
      "ry": 2574,
      "sagte": 2575,
      "zo": 2576,
      "stamm": 2577,
      "aner": 2578,
      "schinen": 2579,
      "gesetzt": 2580,
      "aub": 2581,
      "außer": 2582,
      "dens": 2583,
      "vertreten": 2584,
      "Stad": 2585,
      "eller": 2586,
      "Bedeut": 2587,
      "wehr": 2588,
      "2003": 2589,
      "Mehr": 2590,
      "Sehr": 2591,
      "spricht": 2592,
      "letzt": 2593,
      "gemeinde": 2594,
      "Geschäft": 2595,
      "Ortsteil": 2596,
      "scheiden": 2597,
      "bestimm": 2598,
      "Minister": 2599,
      "höher": 2600,
      "ühle": 2601,
      "Danach": 2602,
      "München": 2603,
      "Termin": 2604,
      "innerhalb": 2605,
      "daher": 2606,
      "nächsten": 2607,
      "offiziel": 2608,
      "Fer": 2609,
      "Fort": 2610,
      "Ide": 2611,
      "Jose": 2612,
      "Lo": 2613,
      "Länge": 2614,
      "Ott": 2615,
      "Park": 2616,
      "Syn": 2617,
      "Tour": 2618,
      "Vier": 2619,
      "Viel": 2620,
      "buch": 2621,
      "ed": 2622,
      "handen": 2623,
      "ias": 2624,
      "iot": 2625,
      "krit": 2626,
      "kämpf": 2627,
      "ote": 2628,
      "park": 2629,
      "rö": 2630,
      "vierte": 2631,
      "äischen": 2632,
      "erwar": 2633,
      "arch": 2634,
      "besten": 2635,
      "bend": 2636,
      "entsprechen": 2637,
      "Institut": 2638,
      "Schule": 2639,
      "Schüler": 2640,
      "sogenann": 2641,
      "Gef": 2642,
      "gebung": 2643,
      "geboren": 2644,
      "dafür": 2645,
      "pfer": 2646,
      "Sozial": 2647,
      "lanzen": 2648,
      "1995": 2649,
      "1996": 2650,
      "deutlich": 2651,
      "aka": 2652,
      "gesellschaft": 2653,
      "arbeitet": 2654,
      "fallen": 2655,
      "elekt": 2656,
      "üssel": 2657,
      "Amts": 2658,
      "politischen": 2659,
      "Bahnhof": 2660,
      "Super": 2661,
      "wechselte": 2662,
      "Olymp": 2663,
      "Dienst": 2664,
      "Führ": 2665,
      "500": 2666,
      "Geld": 2667,
      "Krit": 2668,
      "Tru": 2669,
      "brei": 2670,
      "fon": 2671,
      "haup": 2672,
      "jet": 2673,
      "kran": 2674,
      "läu": 2675,
      "militär": 2676,
      "yl": 2677,
      "zess": 2678,
      "erreichen": 2679,
      "alige": 2680,
      "ase": 2681,
      "isiert": 2682,
      "iste": 2683,
      "utzen": 2684,
      "Innen": 2685,
      "Schutz": 2686,
      "gern": 2687,
      "gericht": 2688,
      "wiegend": 2689,
      "vorhanden": 2690,
      "ossen": 2691,
      "unterschied": 2692,
      "gebie": 2693,
      "haft": 2694,
      "kompeten": 2695,
      "Beratung": 2696,
      "wagen": 2697,
      "fläche": 2698,
      "zeichnet": 2699,
      "digt": 2700,
      "maß": 2701,
      "Wirk": 2702,
      "Schloss": 2703,
      "ission": 2704,
      "meisterschaft": 2705,
      "ifiz": 2706,
      "Europa": 2707,
      "Höhe": 2708,
      "östlich": 2709,
      "Finanz": 2710,
      "Kommun": 2711,
      "Jahrhunder": 2712,
      "Jahrhundert": 2713,
      "Juli": 2714,
      "März": 2715,
      "Januar": 2716,
      "Blüten": 2717,
      "Beginn": 2718,
      "Bedeutung": 2719,
      "Bad": 2720,
      "Daten": 2721,
      "Go": 2722,
      "Got": 2723,
      "Gatt": 2724,
      "Hä": 2725,
      "Kant": 2726,
      "Pap": 2727,
      "Ul": 2728,
      "Will": 2729,
      "dür": 2730,
      "dauer": 2731,
      "eher": 2732,
      "europ": 2733,
      "ile": 2734,
      "kap": 2735,
      "kmal": 2736,
      "länger": 2737,
      "mor": 2738,
      "mag": 2739,
      "sh": 2740,
      "za": 2741,
      "zern": 2742,
      "äne": 2743,
      "ches": 2744,
      "chter": 2745,
      "inal": 2746,
      "unn": 2747,
      "iti": 2748,
      "achtet": 2749,
      "deshalb": 2750,
      "igkeiten": 2751,
      "reisen": 2752,
      "gerade": 2753,
      "Verkehr": 2754,
      "Vertrag": 2755,
      "schaf": 2756,
      "gruppe": 2757,
      "hnen": 2758,
      "gebil": 2759,
      "ivat": 2760,
      "brachte": 2761,
      "Nachfolger": 2762,
      "dient": 2763,
      "kleinen": 2764,
      "1997": 2765,
      "geschichte": 2766,
      "geschrieben": 2767,
      "Westen": 2768,
      "damaligen": 2769,
      "diglich": 2770,
      "eigene": 2771,
      "Studien": 2772,
      "beschäft": 2773,
      "forder": 2774,
      "Graf": 2775,
      "Verbindung": 2776,
      "Poliz": 2777,
      "beträgt": 2778,
      "Präsident": 2779,
      "Zentrum": 2780,
      "folgenden": 2781,
      "würde": 2782,
      "Archite": 2783,
      "helm": 2784,
      "kathol": 2785,
      "Martin": 2786,
      "22": 2787,
      "Mos": 2788,
      "Off": 2789,
      "Rat": 2790,
      "System": 2791,
      "Tür": 2792,
      "Var": 2793,
      "Wenn": 2794,
      "fa": 2795,
      "hmer": 2796,
      "nimmt": 2797,
      "publik": 2798,
      "rel": 2799,
      "to": 2800,
      "uk": 2801,
      "wär": 2802,
      "wuchs": 2803,
      "wjet": 2804,
      "erhe": 2805,
      "deck": 2806,
      "eitet": 2807,
      "onnen": 2808,
      "techn": 2809,
      "gesehen": 2810,
      "ora": 2811,
      "ola": 2812,
      "Städ": 2813,
      "benannt": 2814,
      "ienten": 2815,
      "Anschluss": 2816,
      "nachdem": 2817,
      "angs": 2818,
      "trä": 2819,
      "oph": 2820,
      "komp": 2821,
      "Vorsitzen": 2822,
      "Untersuch": 2823,
      "Main": 2824,
      "darunter": 2825,
      "antwort": 2826,
      "aterial": 2827,
      "1945": 2828,
      "Staaten": 2829,
      "arlament": 2830,
      "Besitz": 2831,
      "üsse": 2832,
      "Pfarr": 2833,
      "wollen": 2834,
      "Paris": 2835,
      "Weitere": 2836,
      "britischen": 2837,
      "bietet": 2838,
      "Kampf": 2839,
      "wesentlich": 2840,
      "Männer": 2841,
      "erwähnt": 2842,
      "Dist": 2843,
      "Gott": 2844,
      "Karriere": 2845,
      "Mutter": 2846,
      "Rel": 2847,
      "Sing": 2848,
      "Ze": 2849,
      "Zug": 2850,
      "ix": 2851,
      "kor": 2852,
      "ool": 2853,
      "osten": 2854,
      "pra": 2855,
      "part": 2856,
      "vis": 2857,
      "win": 2858,
      "xim": 2859,
      "erziel": 2860,
      "ane": 2861,
      "schließen": 2862,
      "einigen": 2863,
      "gesetz": 2864,
      "ara": 2865,
      "zusätz": 2866,
      "achten": 2867,
      "legen": 2868,
      "fül": 2869,
      "andid": 2870,
      "abl": 2871,
      "iens": 2872,
      "Erd": 2873,
      "somit": 2874,
      "grenz": 2875,
      "vorher": 2876,
      "nichts": 2877,
      "rieges": 2878,
      "bisher": 2879,
      "mee": 2880,
      "Recht": 2881,
      "uchen": 2882,
      "ollen": 2883,
      "ätigkeit": 2884,
      "breit": 2885,
      "Professor": 2886,
      "Gren": 2887,
      "Dez": 2888,
      "mehreren": 2889,
      "äußer": 2890,
      "Meer": 2891,
      "ritte": 2892,
      "okrat": 2893,
      "1980": 2894,
      "minde": 2895,
      "ymn": 2896,
      "Boden": 2897,
      "gehend": 2898,
      "speziel": 2899,
      "Wilhelm": 2900,
      "errichtet": 2901,
      "besitzt": 2902,
      "frieden": 2903,
      "förm": 2904,
      "erneut": 2905,
      "45": 2906,
      "Bus": 2907,
      "Gi": 2908,
      "Gold": 2909,
      "Pal": 2910,
      "Rund": 2911,
      "Sich": 2912,
      "Sold": 2913,
      "Zahn": 2914,
      "bs": 2915,
      "dor": 2916,
      "krä": 2917,
      "kaum": 2918,
      "pel": 2919,
      "sal": 2920,
      "sitz": 2921,
      "utet": 2922,
      "zig": 2923,
      "unk": 2924,
      "stat": 2925,
      "ana": 2926,
      "teg": 2927,
      "geplan": 2928,
      "demie": 2929,
      "iten": 2930,
      "liches": 2931,
      "ierungs": 2932,
      "auspiel": 2933,
      "nehmer": 2934,
      "ktiv": 2935,
      "Ersten": 2936,
      "ime": 2937,
      "riebe": 2938,
      "Ausbildung": 2939,
      "nochen": 2940,
      "Beruf": 2941,
      "finanz": 2942,
      "fehl": 2943,
      "Metern": 2944,
      "Zudem": 2945,
      "obil": 2946,
      "2012": 2947,
      "Deutsche": 2948,
      "bildet": 2949,
      "Laden": 2950,
      "ski": 2951,
      "schnit": 2952,
      "sagen": 2953,
      "gefunden": 2954,
      "Eltern": 2955,
      "gesamten": 2956,
      "Mitglieder": 2957,
      "westlich": 2958,
      "erfolgreich": 2959,
      "Lehrer": 2960,
      "veröffentlicht": 2961,
      "bedeuten": 2962,
      "Trotz": 2963,
      "mittler": 2964,
      "Selbst": 2965,
      "Bruder": 2966,
      "Bischof": 2967,
      "York": 2968,
      "Jahrhunderts": 2969,
      "29": 2970,
      "Apr": 2971,
      "Dach": 2972,
      "Ke": 2973,
      "Körper": 2974,
      "Mat": 2975,
      "Nor": 2976,
      "Osten": 2977,
      "SC": 2978,
      "Sem": 2979,
      "Tri": 2980,
      "Teile": 2981,
      "Wo": 2982,
      "Wes": 2983,
      "Wort": 2984,
      "cy": 2985,
      "dro": 2986,
      "dritten": 2987,
      "har": 2988,
      "kür": 2989,
      "kret": 2990,
      "lö": 2991,
      "nungen": 2992,
      "sä": 2993,
      "uck": 2994,
      "vo": 2995,
      "öt": 2996,
      "österreich": 2997,
      "erweiter": 2998,
      "sto": 2999,
      "eis": 3000,
      "ande": 3001,
      "schwe": 3002,
      "schlag": 3003,
      "itze": 3004,
      "asste": 3005,
      "zufrieden": 3006,
      "bere": 3007,
      "legte": 3008,
      "illa": 3009,
      "Stamm": 3010,
      "Stift": 3011,
      "Ern": 3012,
      "schaff": 3013,
      "Bezeichnung": 3014,
      "Behandlung": 3015,
      "imeter": 3016,
      "Aller": 3017,
      "ivis": 3018,
      "Gruppen": 3019,
      "Orts": 3020,
      "hohen": 3021,
      "Zeitpunkt": 3022,
      "gemacht": 3023,
      "wenig": 3024,
      "obahn": 3025,
      "diente": 3026,
      "mussten": 3027,
      "Werke": 3028,
      "Komp": 3029,
      "takt": 3030,
      "zunehmen": 3031,
      "höch": 3032,
      "region": 3033,
      "Einwohnern": 3034,
      "zählt": 3035,
      "künst": 3036,
      "starb": 3037,
      "veröffentlichte": 3038,
      "mutlich": 3039,
      "produz": 3040,
      "sprochen": 3041,
      "Philosoph": 3042,
      "Motor": 3043,
      "vangel": 3044,
      "Schweiz": 3045,
      "Personal": 3046,
      "Richard": 3047,
      "verliehen": 3048,
      "April": 3049,
      "Allerdings": 3050,
      "33": 3051,
      "65": 3052,
      "Ak": 3053,
      "Aber": 3054,
      "Bank": 3055,
      "Col": 3056,
      "DDR": 3057,
      "Kor": 3058,
      "Köl": 3059,
      "My": 3060,
      "Nutz": 3061,
      "Publik": 3062,
      "Zeich": 3063,
      "bas": 3064,
      "ds": 3065,
      "fanden": 3066,
      "gliche": 3067,
      "hard": 3068,
      "hielt": 3069,
      "mel": 3070,
      "meine": 3071,
      "nischen": 3072,
      "zy": 3073,
      "zerstör": 3074,
      "ächen": 3075,
      "err": 3076,
      "eröff": 3077,
      "chten": 3078,
      "iegel": 3079,
      "deckt": 3080,
      "stam": 3081,
      "anische": 3082,
      "schö": 3083,
      "geschlossen": 3084,
      "denn": 3085,
      "itu": 3086,
      "elte": 3087,
      "bew": 3088,
      "bewer": 3089,
      "ley": 3090,
      "vermutlich": 3091,
      "seh": 3092,
      "rot": 3093,
      "user": 3094,
      "auszu": 3095,
      "Stil": 3096,
      "Stunden": 3097,
      "ragen": 3098,
      "netz": 3099,
      "Versuch": 3100,
      "werde": 3101,
      "lieben": 3102,
      "sozi": 3103,
      "iment": 3104,
      "serv": 3105,
      "Alter": 3106,
      "Prof": 3107,
      "jeder": 3108,
      "hohe": 3109,
      "hinaus": 3110,
      "geworden": 3111,
      "kennen": 3112,
      "1992": 3113,
      "1993": 3114,
      "Maria": 3115,
      "ktionen": 3116,
      "Klasse": 3117,
      "1986": 3118,
      "Bauern": 3119,
      "1965": 3120,
      "Franz": 3121,
      "sollten": 3122,
      "1933": 3123,
      "prägt": 3124,
      "Besonder": 3125,
      "Pflanzen": 3126,
      "Minuten": 3127,
      "Berliner": 3128,
      "Sprache": 3129,
      "Song": 3130,
      "Hilfe": 3131,
      "Elekt": 3132,
      "Patienten": 3133,
      "Politik": 3134,
      "umfasst": 3135,
      "bleiben": 3136,
      "Ergebnis": 3137,
      "England": 3138,
      "öffentlichen": 3139,
      "Micha": 3140,
      "Dezember": 3141,
      "Bach": 3142,
      "Bot": 3143,
      "Dre": 3144,
      "Doch": 3145,
      "Jap": 3146,
      "Ku": 3147,
      "Künst": 3148,
      "Parlament": 3149,
      "Ritter": 3150,
      "Sam": 3151,
      "Wein": 3152,
      "cm": 3153,
      "gu": 3154,
      "hle": 3155,
      "iat": 3156,
      "kre": 3157,
      "publ": 3158,
      "russ": 3159,
      "va": 3160,
      "üter": 3161,
      "chem": 3162,
      "eig": 3163,
      "anstalt": 3164,
      "schriften": 3165,
      "einger": 3166,
      "aly": 3167,
      "orie": 3168,
      "uro": 3169,
      "beste": 3170,
      "befinden": 3171,
      "bezir": 3172,
      "ierter": 3173,
      "ution": 3174,
      "weiß": 3175,
      "omen": 3176,
      "Scha": 3177,
      "Schauspiel": 3178,
      "ikation": 3179,
      "gress": 3180,
      "rief": 3181,
      "Span": 3182,
      "schafts": 3183,
      "weder": 3184,
      "älfte": 3185,
      "langen": 3186,
      "Fläche": 3187,
      "nett": 3188,
      "dienen": 3189,
      "leist": 3190,
      "Spielen": 3191,
      "own": 3192,
      "beginn": 3193,
      "sidenten": 3194,
      "ebenso": 3195,
      "Kurz": 3196,
      "Freund": 3197,
      "gelegt": 3198,
      "Baden": 3199,
      "Hamburg": 3200,
      "wendung": 3201,
      "Studium": 3202,
      "Damit": 3203,
      "Organisation": 3204,
      "Entscheidung": 3205,
      "ymnas": 3206,
      "36": 3207,
      "Bern": 3208,
      "Fo": 3209,
      "Kunden": 3210,
      "Kraft": 3211,
      "Liga": 3212,
      "Na": 3213,
      "Position": 3214,
      "bü": 3215,
      "bürger": 3216,
      "fung": 3217,
      "hil": 3218,
      "hang": 3219,
      "iden": 3220,
      "jün": 3221,
      "ling": 3222,
      "mot": 3223,
      "ral": 3224,
      "raten": 3225,
      "sser": 3226,
      "tin": 3227,
      "öh": 3228,
      "unver": 3229,
      "unmittel": 3230,
      "testen": 3231,
      "alischen": 3232,
      "urs": 3233,
      "esser": 3234,
      "isierung": 3235,
      "ama": 3236,
      "berü": 3237,
      "lediglich": 3238,
      "verwalt": 3239,
      "Start": 3240,
      "reiben": 3241,
      "nehm": 3242,
      "omat": 3243,
      "Vers": 3244,
      "hnung": 3245,
      "Besch": 3246,
      "medi": 3247,
      "Regen": 3248,
      "Restau": 3249,
      "stellungen": 3250,
      "ppe": 3251,
      "Projekt": 3252,
      "trenn": 3253,
      "Nacht": 3254,
      "klasse": 3255,
      "führten": 3256,
      "tsächlich": 3257,
      "blick": 3258,
      "bliot": 3259,
      "ktions": 3260,
      "Test": 3261,
      "treffen": 3262,
      "schech": 3263,
      "Gesamt": 3264,
      "Privat": 3265,
      "Serie": 3266,
      "politische": 3267,
      "Direkt": 3268,
      "betrug": 3269,
      "erreicht": 3270,
      "entwickelt": 3271,
      "Salz": 3272,
      "unsere": 3273,
      "paar": 3274,
      "ograf": 3275,
      "Heiligen": 3276,
      "Museum": 3277,
      "persön": 3278,
      "Möglich": 3279,
      "stammt": 3280,
      "Michael": 3281,
      "bliothe": 3282,
      "39": 3283,
      "??": 3284,
      "Cal": 3285,
      "Colle": 3286,
      "DP": 3287,
      "Jur": 3288,
      "Kern": 3289,
      "Mül": 3290,
      "Netz": 3291,
      "Ster": 3292,
      "Sand": 3293,
      "Sonder": 3294,
      "Sachsen": 3295,
      "Vo": 3296,
      "Wind": 3297,
      "Wett": 3298,
      "blich": 3299,
      "dungs": 3300,
      "far": 3301,
      "famil": 3302,
      "hung": 3303,
      "kn": 3304,
      "kung": 3305,
      "kna": 3306,
      "nommen": 3307,
      "por": 3308,
      "pos": 3309,
      "typ": 3310,
      "üst": 3311,
      "erei": 3312,
      "erster": 3313,
      "endete": 3314,
      "ines": 3315,
      "außerdem": 3316,
      "itäten": 3317,
      "ese": 3318,
      "bereit": 3319,
      "lebt": 3320,
      "verf": 3321,
      "istisch": 3322,
      "Indi": 3323,
      "Schwar": 3324,
      "ffel": 3325,
      "sofort": 3326,
      "gruppen": 3327,
      "vorbei": 3328,
      "herap": 3329,
      "Alle": 3330,
      "bruch": 3331,
      "bruar": 3332,
      "jede": 3333,
      "jeden": 3334,
      "180": 3335,
      "End": 3336,
      "kannt": 3337,
      "Sieg": 3338,
      "ordnung": 3339,
      "ruktur": 3340,
      "gement": 3341,
      "wenige": 3342,
      "Maß": 3343,
      "Maschinen": 3344,
      "Char": 3345,
      "Charl": 3346,
      "que": 3347,
      "1970": 3348,
      "verbunden": 3349,
      "ssig": 3350,
      "Februar": 3351,
      "ckey": 3352,
      "sagt": 3353,
      "Hauptstadt": 3354,
      "Schlacht": 3355,
      "Modell": 3356,
      "westlichen": 3357,
      "Gründung": 3358,
      "Steuer": 3359,
      "Comp": 3360,
      "Doppel": 3361,
      "Thom": 3362,
      "Gegensatz": 3363,
      "trotz": 3364,
      "Wiener": 3365,
      "nördlich": 3366,
      "Ihre": 3367,
      "Rennen": 3368,
      "hätte": 3369,
      "äume": 3370,
      "absolvierte": 3371,
      "Frankfurt": 3372,
      "Größe": 3373,
      "Truppen": 3374,
      "hauptsächlich": 3375,
      "80": 3376,
      "AS": 3377,
      "Bal": 3378,
      "Bor": 3379,
      "Chin": 3380,
      "City": 3381,
      "Divis": 3382,
      "Gymnas": 3383,
      "Hälfte": 3384,
      "Kop": 3385,
      "Kron": 3386,
      "Lö": 3387,
      "Mass": 3388,
      "On": 3389,
      "Psych": 3390,
      "Rab": 3391,
      "Wolf": 3392,
      "Zun": 3393,
      "age": 3394,
      "by": 3395,
      "dit": 3396,
      "gingen": 3397,
      "ikt": 3398,
      "idu": 3399,
      "kul": 3400,
      "kraft": 3401,
      "preis": 3402,
      "ugen": 3403,
      "wind": 3404,
      "Öff": 3405,
      "äher": 3406,
      "erbau": 3407,
      "ino": 3408,
      "iech": 3409,
      "stät": 3410,
      "steigen": 3411,
      "anzu": 3412,
      "anschließend": 3413,
      "altet": 3414,
      "orben": 3415,
      "orient": 3416,
      "ital": 3417,
      "ativen": 3418,
      "zuge": 3419,
      "ames": 3420,
      "1920": 3421,
      "Stat": 3422,
      "Ind": 3423,
      "ware": 3424,
      "neun": 3425,
      "abel": 3426,
      "ike": 3427,
      "ikel": 3428,
      "steuer": 3429,
      "indungen": 3430,
      "ernannt": 3431,
      "Gebur": 3432,
      "Später": 3433,
      "unternehmen": 3434,
      "ull": 3435,
      "stellten": 3436,
      "hafen": 3437,
      "Armee": 3438,
      "rant": 3439,
      "ica": 3440,
      "finale": 3441,
      "Aufgrund": 3442,
      "1994": 3443,
      "baren": 3444,
      "Unterstütz": 3445,
      "Hermann": 3446,
      "tradition": 3447,
      "1989": 3448,
      "gleichzeitig": 3449,
      "treter": 3450,
      "könn": 3451,
      "1960": 3452,
      "1971": 3453,
      "Weise": 3454,
      "verband": 3455,
      "betrieben": 3456,
      "stände": 3457,
      "ändert": 3458,
      "Prin": 3459,
      "iums": 3460,
      "Formen": 3461,
      "rechte": 3462,
      "aktiv": 3463,
      "zeugen": 3464,
      "hältnis": 3465,
      "Obwohl": 3466,
      "französische": 3467,
      "Fernseh": 3468,
      "britann": 3469,
      "Verwaltung": 3470,
      "lebten": 3471,
      "Meisterschaft": 3472,
      "Gelände": 3473,
      "Bayern": 3474,
      "kennt": 3475,
      "Handels": 3476,
      "Gattung": 3477,
      "Polizei": 3478,
      "21": 3479,
      "34": 3480,
      "AG": 3481,
      "Drei": 3482,
      "Fen": 3483,
      "För": 3484,
      "Gut": 3485,
      "Hein": 3486,
      "Hau": 3487,
      "Il": 3488,
      "Lü": 3489,
      "Post": 3490,
      "Preise": 3491,
      "River": 3492,
      "Sin": 3493,
      "Wur": 3494,
      "Wissenschaft": 3495,
      "bein": 3496,
      "bol": 3497,
      "bus": 3498,
      "druck": 3499,
      "ford": 3500,
      "jetzt": 3501,
      "ki": 3502,
      "ms": 3503,
      "mün": 3504,
      "namen": 3505,
      "over": 3506,
      "oben": 3507,
      "post": 3508,
      "rischen": 3509,
      "yer": 3510,
      "unge": 3511,
      "schwar": 3512,
      "schwei": 3513,
      "ong": 3514,
      "auten": 3515,
      "urk": 3516,
      "tens": 3517,
      "ischem": 3518,
      "let": 3519,
      "mitglie": 3520,
      "omin": 3521,
      "Schwer": 3522,
      "Verlag": 3523,
      "Anzahl": 3524,
      "griech": 3525,
      "Bezieh": 3526,
      "last": 3527,
      "Und": 3528,
      "durchgeführt": 3529,
      "westen": 3530,
      "haber": 3531,
      "jedem": 3532,
      "Grenz": 3533,
      "Orgel": 3534,
      "führer": 3535,
      "way": 3536,
      "Medien": 3537,
      "lingen": 3538,
      "Herzog": 3539,
      "flug": 3540,
      "geschlagen": 3541,
      "Chor": 3542,
      "akter": 3543,
      "großer": 3544,
      "anzer": 3545,
      "lands": 3546,
      "könig": 3547,
      "richten": 3548,
      "Umgebung": 3549,
      "1943": 3550,
      "Gemeinden": 3551,
      "ologischen": 3552,
      "Hafen": 3553,
      "richtig": 3554,
      "Leiter": 3555,
      "gefähr": 3556,
      "ouver": 3557,
      "Großbritann": 3558,
      "jährige": 3559,
      "ständige": 3560,
      "Linie": 3561,
      "strecke": 3562,
      "lebte": 3563,
      "Frage": 3564,
      "nördlichen": 3565,
      "internationalen": 3566,
      "einzelnen": 3567,
      "sammlung": 3568,
      "entfernt": 3569,
      "preuß": 3570,
      "röm": 3571,
      "schwed": 3572,
      "Philosophie": 3573,
      "32": 3574,
      "35": 3575,
      "37": 3576,
      "Bö": 3577,
      "Bir": 3578,
      "Brit": 3579,
      "Fa": 3580,
      "Hor": 3581,
      "Hab": 3582,
      "Jo": 3583,
      "Kas": 3584,
      "Mel": 3585,
      "Macht": 3586,
      "Rö": 3587,
      "Silber": 3588,
      "Tar": 3589,
      "Top": 3590,
      "Tele": 3591,
      "gol": 3592,
      "han": 3593,
      "ii": 3594,
      "iam": 3595,
      "kar": 3596,
      "ld": 3597,
      "lok": 3598,
      "mb": 3599,
      "nat": 3600,
      "ps": 3601,
      "tung": 3602,
      "wander": 3603,
      "wissen": 3604,
      "wider": 3605,
      "insel": 3606,
      "ieß": 3607,
      "under": 3608,
      "schön": 3609,
      "schrieb": 3610,
      "aters": 3611,
      "beein": 3612,
      "verm": 3613,
      "verpflich": 3614,
      "ros": 3615,
      "usst": 3616,
      "Stutt": 3617,
      "rael": 3618,
      "eta": 3619,
      "mens": 3620,
      "mente": 3621,
      "Verteidig": 3622,
      "ffer": 3623,
      "ängt": 3624,
      "überwiegend": 3625,
      "ada": 3626,
      "ima": 3627,
      "ots": 3628,
      "ationale": 3629,
      "Spiele": 3630,
      "ividu": 3631,
      "ihres": 3632,
      "Nachbar": 3633,
      "opul": 3634,
      "Aufbau": 3635,
      "1991": 3636,
      "altung": 3637,
      "darin": 3638,
      "versucht": 3639,
      "Web": 3640,
      "nette": 3641,
      "ierenden": 3642,
      "zeichen": 3643,
      "Brü": 3644,
      "1969": 3645,
      "1974": 3646,
      "Dazu": 3647,
      "hemat": 3648,
      "ikanischen": 3649,
      "kehrte": 3650,
      "tement": 3651,
      "kosten": 3652,
      "Trainer": 3653,
      "welches": 3654,
      "daraufhin": 3655,
      "befand": 3656,
      "südlich": 3657,
      "dahin": 3658,
      "Betriebs": 3659,
      "Basis": 3660,
      "struktur": 3661,
      "ograph": 3662,
      "Wirtschafts": 3663,
      "Bonn": 3664,
      "Georg": 3665,
      "hätten": 3666,
      "beteiligt": 3667,
      "Kolon": 3668,
      "verbreitet": 3669,
      "erzielte": 3670,
      "mindestens": 3671,
      "Soldaten": 3672,
      "Ach": 3673,
      "Dé": 3674,
      "Eind": 3675,
      "Fig": 3676,
      "Hu": 3677,
      "Ist": 3678,
      "Ker": 3679,
      "Kla": 3680,
      "Lang": 3681,
      "Mil": 3682,
      "Sicht": 3683,
      "Szen": 3684,
      "Vir": 3685,
      "Voll": 3686,
      "ates": 3687,
      "bö": 3688,
      "bungen": 3689,
      "bank": 3690,
      "dt": 3691,
      "est": 3692,
      "fassung": 3693,
      "go": 3694,
      "ktes": 3695,
      "lat": 3696,
      "män": 3697,
      "norm": 3698,
      "rhein": 3699,
      "sburg": 3700,
      "tie": 3701,
      "tor": 3702,
      "wün": 3703,
      "ött": 3704,
      "übr": 3705,
      "inge": 3706,
      "uner": 3707,
      "station": 3708,
      "städ": 3709,
      "stock": 3710,
      "schm": 3711,
      "ona": 3712,
      "teste": 3713,
      "bekam": 3714,
      "leg": 3715,
      "verheira": 3716,
      "istik": 3717,
      "Strom": 3718,
      "Struktur": 3719,
      "Inner": 3720,
      "neur": 3721,
      "spiele": 3722,
      "Schä": 3723,
      "gerne": 3724,
      "abzu": 3725,
      "Verfü": 3726,
      "werke": 3727,
      "überhaupt": 3728,
      "Bedien": 3729,
      "Bewegung": 3730,
      "Einfluss": 3731,
      "siehe": 3732,
      "orth": 3733,
      "Union": 3734,
      "gelassen": 3735,
      "merk": 3736,
      "ague": 3737,
      "räger": 3738,
      "blät": 3739,
      "spieler": 3740,
      "Konkur": 3741,
      "Konzer": 3742,
      "line": 3743,
      "prom": 3744,
      "wiederhol": 3745,
      "kampf": 3746,
      "1976": 3747,
      "150": 3748,
      "zahlreichen": 3749,
      "freund": 3750,
      "ätzen": 3751,
      "solche": 3752,
      "Kopf": 3753,
      "Folgen": 3754,
      "Reichs": 3755,
      "markt": 3756,
      "danken": 3757,
      "vest": 3758,
      "Roman": 3759,
      "Inseln": 3760,
      "größte": 3761,
      "Auftrag": 3762,
      "Christian": 3763,
      "Punkt": 3764,
      "stärker": 3765,
      "Schweizer": 3766,
      "Probleme": 3767,
      "Arbeiten": 3768,
      "regelmäßig": 3769,
      "volution": 3770,
      "Eisenbahn": 3771,
      "stets": 3772,
      "Viertel": 3773,
      "Single": 3774,
      "Köln": 3775,
      "Besonders": 3776,
      "Unterstützung": 3777,
      "49": 3778,
      "Air": 3779,
      "App": 3780,
      "Ball": 3781,
      "Ed": 3782,
      "Euro": 3783,
      "Gar": 3784,
      "Gol": 3785,
      "Hum": 3786,
      "Haup": 3787,
      "IS": 3788,
      "Jung": 3789,
      "Jes": 3790,
      "Kamer": 3791,
      "Lou": 3792,
      "NA": 3793,
      "OS": 3794,
      "Rein": 3795,
      "Rang": 3796,
      "SV": 3797,
      "Sur": 3798,
      "Tab": 3799,
      "Wahr": 3800,
      "Wall": 3801,
      "aß": 3802,
      "ager": 3803,
      "bra": 3804,
      "bchen": 3805,
      "bay": 3806,
      "cl": 3807,
      "car": 3808,
      "com": 3809,
      "dis": 3810,
      "dadurch": 3811,
      "ehr": 3812,
      "gart": 3813,
      "guten": 3814,
      "my": 3815,
      "mont": 3816,
      "näher": 3817,
      "rein": 3818,
      "tlichen": 3819,
      "ux": 3820,
      "äische": 3821,
      "ücht": 3822,
      "erfolgt": 3823,
      "ene": 3824,
      "endet": 3825,
      "stammen": 3826,
      "gesp": 3827,
      "gekommen": 3828,
      "auern": 3829,
      "itur": 3830,
      "ash": 3831,
      "begrün": 3832,
      "lege": 3833,
      "verw": 3834,
      "verhin": 3835,
      "sex": 3836,
      "ierungen": 3837,
      "aufhin": 3838,
      "ausger": 3839,
      "enthält": 3840,
      "reibt": 3841,
      "Inform": 3842,
      "weist": 3843,
      "änen": 3844,
      "ienen": 3845,
      "Ander": 3846,
      "Anlage": 3847,
      "adrat": 3848,
      "Best": 3849,
      "Bestand": 3850,
      "sieht": 3851,
      "Alten": 3852,
      "Abschluss": 3853,
      "League": 3854,
      "klein": 3855,
      "teilte": 3856,
      "erseits": 3857,
      "setzungen": 3858,
      "Kontakt": 3859,
      "Stadtteil": 3860,
      "darüber": 3861,
      "ritor": 3862,
      "Herbst": 3863,
      "versor": 3864,
      "versuchte": 3865,
      "ferenz": 3866,
      "ganzen": 3867,
      "zif": 3868,
      "1987": 3869,
      "1988": 3870,
      "maxim": 3871,
      "qual": 3872,
      "folgten": 3873,
      "1950": 3874,
      "1957": 3875,
      "179": 3876,
      "gemeinschaft": 3877,
      "1939": 3878,
      "strahl": 3879,
      "ikaner": 3880,
      "bekannten": 3881,
      "ologische": 3882,
      "Studenten": 3883,
      "ösung": 3884,
      "recher": 3885,
      "Königreich": 3886,
      "Polen": 3887,
      "vollständig": 3888,
      "Sprach": 3889,
      "Daneben": 3890,
      "zählung": 3891,
      "partement": 3892,
      "haltung": 3893,
      "fession": 3894,
      "Turm": 3895,
      "isseur": 3896,
      "liefert": 3897,
      "abrik": 3898,
      "Themen": 3899,
      "Arbeiter": 3900,
      "verkauft": 3901,
      "Geschäfts": 3902,
      "Gottes": 3903,
      "Verkehrs": 3904,
      "gebildet": 3905,
      "prakt": 3906,
      "künstler": 3907,
      "berühm": 3908,
      "verwaltung": 3909,
      "College": 3910,
      "Thomas": 3911,
      "Großbritannien": 3912,
      "75": 3913,
      "Av": 3914,
      "Dadurch": 3915,
      "Ehren": 3916,
      "Fund": 3917,
      "Get": 3918,
      "Hann": 3919,
      "Halle": 3920,
      "Jaz": 3921,
      "Kind": 3922,
      "Les": 3923,
      "Mein": 3924,
      "Not": 3925,
      "Nation": 3926,
      "Stern": 3927,
      "Sant": 3928,
      "Samm": 3929,
      "Sinn": 3930,
      "Tats": 3931,
      "Tschech": 3932,
      "UN": 3933,
      "Val": 3934,
      "Wen": 3935,
      "Wol": 3936,
      "ae": 3937,
      "bor": 3938,
      "fu": 3939,
      "heil": 3940,
      "kin": 3941,
      "kei": 3942,
      "ket": 3943,
      "körper": 3944,
      "mund": 3945,
      "nitz": 3946,
      "rück": 3947,
      "sum": 3948,
      "ya": 3949,
      "ypt": 3950,
      "zü": 3951,
      "ón": 3952,
      "ühl": 3953,
      "undes": 3954,
      "unabhäng": 3955,
      "anlagen": 3956,
      "einst": 3957,
      "einzu": 3958,
      "tegr": 3959,
      "geg": 3960,
      "gehalten": 3961,
      "ichter": 3962,
      "ars": 3963,
      "arzt": 3964,
      "urm": 3965,
      "ato": 3966,
      "atte": 3967,
      "isierte": 3968,
      "ameister": 3969,
      "vert": 3970,
      "sem": 3971,
      "ilien": 3972,
      "ausschließlich": 3973,
      "Vergleich": 3974,
      "Verhalten": 3975,
      "iko": 3976,
      "änglich": 3977,
      "Erfahr": 3978,
      "Angeb": 3979,
      "Augen": 3980,
      "Austr": 3981,
      "durchschnitt": 3982,
      "ulen": 3983,
      "gebir": 3984,
      "gebäude": 3985,
      "Programm": 3986,
      "agd": 3987,
      "oper": 3988,
      "dire": 3989,
      "klar": 3990,
      "kontr": 3991,
      "darf": 3992,
      "Wehr": 3993,
      "sprache": 3994,
      "1963": 3995,
      "Umwelt": 3996,
      "1946": 3997,
      "Weltmeisterschaft": 3998,
      "Quer": 3999,
      "Gebie": 4000,
      "eingestellt": 4001,
      "möchte": 4002,
      "richtungen": 4003,
      "losen": 4004,
      "ubs": 4005,
      "schließt": 4006,
      "zieht": 4007,
      "rechts": 4008,
      "Train": 4009,
      "Tradition": 4010,
      "Autobahn": 4011,
      "Heim": 4012,
      "Dres": 4013,
      "Denkmal": 4014,
      "Reise": 4015,
      "frühen": 4016,
      "liegenden": 4017,
      "jährigen": 4018,
      "entwickelte": 4019,
      "Finale": 4020,
      "wechseln": 4021,
      "weltweit": 4022,
      "Kommand": 4023,
      "Metall": 4024,
      "Turn": 4025,
      "studi": 4026,
      "arbeitung": 4027,
      "Festiv": 4028,
      "schlecht": 4029,
      "scheinlich": 4030,
      "Donau": 4031,
      "Stelle": 4032,
      "Insgesamt": 4033,
      "berufen": 4034,
      "Bezirk": 4035,
      "Otto": 4036,
      "Varian": 4037,
      "Japan": 4038,
      "Künstler": 4039,
      "unmittelbar": 4040,
      "Öffentlich": 4041,
      "natür": 4042,
      "Stuttgart": 4043,
      "Département": 4044,
      "Verfügung": 4045,
      "31": 4046,
      "Ara": 4047,
      "Ass": 4048,
      "Bran": 4049,
      "Fäl": 4050,
      "Gouver": 4051,
      "Histor": 4052,
      "IV": 4053,
      "Ja": 4054,
      "Kauf": 4055,
      "Lot": 4056,
      "MS": 4057,
      "Mc": 4058,
      "Miss": 4059,
      "Nur": 4060,
      "Nahr": 4061,
      "Pass": 4062,
      "Sym": 4063,
      "Tom": 4064,
      "Tätigkeit": 4065,
      "Ve": 4066,
      "Viele": 4067,
      "Wel": 4068,
      "Walter": 4069,
      "Wider": 4070,
      "Zerstör": 4071,
      "bu": 4072,
      "büt": 4073,
      "cc": 4074,
      "dicht": 4075,
      "dichte": 4076,
      "gänger": 4077,
      "kol": 4078,
      "muß": 4079,
      "mühle": 4080,
      "pä": 4081,
      "seits": 4082,
      "sdorf": 4083,
      "tot": 4084,
      "uellen": 4085,
      "ville": 4086,
      "zeigen": 4087,
      "äte": 4088,
      "chan": 4089,
      "chines": 4090,
      "defin": 4091,
      "derungen": 4092,
      "gezogen": 4093,
      "geprägt": 4094,
      "außen": 4095,
      "asen": 4096,
      "hre": 4097,
      "ologen": 4098,
      "ish": 4099,
      "lett": 4100,
      "verz": 4101,
      "verfahren": 4102,
      "verstär": 4103,
      "istenz": 4104,
      "irol": 4105,
      "Stock": 4106,
      "andt": 4107,
      "entscheiden": 4108,
      "ummer": 4109,
      "beide": 4110,
      "annte": 4111,
      "Schil": 4112,
      "ielle": 4113,
      "Veranstalt": 4114,
      "werken": 4115,
      "lief": 4116,
      "Andre": 4117,
      "sozial": 4118,
      "allein": 4119,
      "Rec": 4120,
      "hler": 4121,
      "besie": 4122,
      "Leute": 4123,
      "klei": 4124,
      "Ord": 4125,
      "konstru": 4126,
      "ican": 4127,
      "Aufgabe": 4128,
      "Vorder": 4129,
      "Konzern": 4130,
      "Zeitung": 4131,
      "barkeit": 4132,
      "wenigen": 4133,
      "Max": 4134,
      "erstre": 4135,
      "heißt": 4136,
      "gehörten": 4137,
      "leider": 4138,
      "1966": 4139,
      "1972": 4140,
      "Dav": 4141,
      "Lager": 4142,
      "1942": 4143,
      "1954": 4144,
      "1956": 4145,
      "seien": 4146,
      "press": 4147,
      "ützen": 4148,
      "Leip": 4149,
      "bestimmt": 4150,
      "verloren": 4151,
      "Glas": 4152,
      "Monate": 4153,
      "belie": 4154,
      "wäre": 4155,
      "Volk": 4156,
      "Fahrzeuge": 4157,
      "Juden": 4158,
      "Reihe": 4159,
      "spekt": 4160,
      "Herren": 4161,
      "Nationalmannschaft": 4162,
      "Teams": 4163,
      "amerikanische": 4164,
      "tags": 4165,
      "Jean": 4166,
      "heutige": 4167,
      "laub": 4168,
      "Bürgermeister": 4169,
      "namens": 4170,
      "früheren": 4171,
      "lernte": 4172,
      "Chef": 4173,
      "Leistung": 4174,
      "Krank": 4175,
      "Schweden": 4176,
      "grenzen": 4177,
      "verfügt": 4178,
      "Braun": 4179,
      "Joseph": 4180,
      "Kritik": 4181,
      "Vorsitzender": 4182,
      "bezirk": 4183,
      "beginnt": 4184,
      "mbH": 4185,
      "wissenschaften": 4186,
      "Bedienung": 4187,
      "07": 4188,
      "38": 4189,
      "400": 4190,
      "72": 4191,
      "Ban": 4192,
      "Cup": 4193,
      "Dok": 4194,
      "FA": 4195,
      "Kart": 4196,
      "Kolle": 4197,
      "Knochen": 4198,
      "Licht": 4199,
      "Lab": 4200,
      "Leich": 4201,
      "Norm": 4202,
      "Open": 4203,
      "Pan": 4204,
      "Pil": 4205,
      "Panzer": 4206,
      "Russ": 4207,
      "SS": 4208,
      "Situ": 4209,
      "Tisch": 4210,
      "Win": 4211,
      "Wander": 4212,
      "Zür": 4213,
      "ban": 4214,
      "dun": 4215,
      "dritte": 4216,
      "evangel": 4217,
      "funktion": 4218,
      "gül": 4219,
      "hu": 4220,
      "iar": 4221,
      "ifor": 4222,
      "kau": 4223,
      "kunden": 4224,
      "nutzen": 4225,
      "tü": 4226,
      "tan": 4227,
      "tigen": 4228,
      "tige": 4229,
      "wesen": 4230,
      "zte": 4231,
      "ersetzt": 4232,
      "enk": 4233,
      "indem": 4234,
      "inzwischen": 4235,
      "stür": 4236,
      "schte": 4237,
      "einheit": 4238,
      "geber": 4239,
      "aur": 4240,
      "austr": 4241,
      "alo": 4242,
      "ales": 4243,
      "ichtete": 4244,
      "itar": 4245,
      "terte": 4246,
      "gener": 4247,
      "bekommen": 4248,
      "beruf": 4249,
      "vern": 4250,
      "verschw": 4251,
      "ight": 4252,
      "aufzu": 4253,
      "rop": 4254,
      "Stan": 4255,
      "Stimmen": 4256,
      "entlang": 4257,
      "werbe": 4258,
      "ikro": 4259,
      "oche": 4260,
      "Erz": 4261,
      "indust": 4262,
      "adung": 4263,
      "bislang": 4264,
      "Reform": 4265,
      "Arzt": 4266,
      "tell": 4267,
      "pfen": 4268,
      "artig": 4269,
      "endung": 4270,
      "schlä": 4271,
      "besitzen": 4272,
      "räum": 4273,
      "gewinnen": 4274,
      "South": 4275,
      "Sowjet": 4276,
      "Aufgaben": 4277,
      "Zeitschrift": 4278,
      "zwöl": 4279,
      "linie": 4280,
      "Mail": 4281,
      "Herz": 4282,
      "peratur": 4283,
      "geschütz": 4284,
      "Wegen": 4285,
      "ganze": 4286,
      "neuer": 4287,
      "akte": 4288,
      "digte": 4289,
      "1984": 4290,
      "Regisseur": 4291,
      "leitete": 4292,
      "phil": 4293,
      "1977": 4294,
      "1970er": 4295,
      "plätze": 4296,
      "Weibchen": 4297,
      "1940": 4298,
      "1948": 4299,
      "Robert": 4300,
      "zahlen": 4301,
      "zentrum": 4302,
      "ennung": 4303,
      "1952": 4304,
      "gliedert": 4305,
      "stehenden": 4306,
      "änderungen": 4307,
      "beschrieben": 4308,
      "Besatz": 4309,
      "drück": 4310,
      "Partner": 4311,
      "Tagen": 4312,
      "mittels": 4313,
      "verlor": 4314,
      "höhe": 4315,
      "stattung": 4316,
      "gesamte": 4317,
      "1926": 4318,
      "weitgehend": 4319,
      "regierung": 4320,
      "Auto": 4321,
      "ynam": 4322,
      "wertung": 4323,
      "Bilder": 4324,
      "Hochschule": 4325,
      "Herrschaft": 4326,
      "Münster": 4327,
      "niedr": 4328,
      "Anton": 4329,
      "bieten": 4330,
      "Johannes": 4331,
      "genannten": 4332,
      "bedeutet": 4333,
      "hörden": 4334,
      "Punkte": 4335,
      "schreibt": 4336,
      "Junioren": 4337,
      "Bevölkerungs": 4338,
      "Männ": 4339,
      "bleibt": 4340,
      "Vize": 4341,
      "Thema": 4342,
      "Laufe": 4343,
      "stimmung": 4344,
      "Kranken": 4345,
      "einzige": 4346,
      "turm": 4347,
      "Trans": 4348,
      "notwend": 4349,
      "CDU": 4350,
      "stammte": 4351,
      "grenzt": 4352,
      "Stiftung": 4353,
      "zunehmend": 4354,
      "Dreh": 4355,
      "knapp": 4356,
      "Division": 4357,
      "Gymnasium": 4358,
      "Heinrich": 4359,
      "verheiratet": 4360,
      "Jazz": 4361,
      "Öffentlichkeit": 4362,
      "46": 4363,
      "56": 4364,
      "95": 4365,
      "Ag": 4366,
      "Afr": 4367,
      "Abend": 4368,
      "Bass": 4369,
      "Brief": 4370,
      "Can": 4371,
      "Cla": 4372,
      "Cha": 4373,
      "Del": 4374,
      "EU": 4375,
      "Fass": 4376,
      "Ga": 4377,
      "Glei": 4378,
      "GmbH": 4379,
      "Jer": 4380,
      "James": 4381,
      "Kie": 4382,
      "Mu": 4383,
      "Moder": 4384,
      "No": 4385,
      "Nicht": 4386,
      "Opp": 4387,
      "Rie": 4388,
      "Runde": 4389,
      "Vic": 4390,
      "Wach": 4391,
      "cup": 4392,
      "got": 4393,
      "galt": 4394,
      "ida": 4395,
      "kultur": 4396,
      "lu": 4397,
      "lass": 4398,
      "material": 4399,
      "nt": 4400,
      "nit": 4401,
      "national": 4402,
      "pft": 4403,
      "psych": 4404,
      "rand": 4405,
      "sauber": 4406,
      "tum": 4407,
      "ufen": 4408,
      "zung": 4409,
      "zwe": 4410,
      "züge": 4411,
      "Än": 4412,
      "Är": 4413,
      "öhn": 4414,
      "ermöglich": 4415,
      "stil": 4416,
      "eim": 4417,
      "eien": 4418,
      "ance": 4419,
      "ted": 4420,
      "tex": 4421,
      "team": 4422,
      "bewahr": 4423,
      "behandelt": 4424,
      "acher": 4425,
      "iers": 4426,
      "realis": 4427,
      "aufen": 4428,
      "aufbau": 4429,
      "roman": 4430,
      "1919": 4431,
      "Stück": 4432,
      "Stahl": 4433,
      "entdeckt": 4434,
      "weile": 4435,
      "spart": 4436,
      "sphä": 4437,
      "ome": 4438,
      "ftigen": 4439,
      "ahnen": 4440,
      "Veröffentlich": 4441,
      "Verwendung": 4442,
      "übernommen": 4443,
      "hnte": 4444,
      "vorsitzen": 4445,
      "wirkte": 4446,
      "herausge": 4447,
      "hergestellt": 4448,
      "ivil": 4449,
      "ago": 4450,
      "jekte": 4451,
      "halle": 4452,
      "trägt": 4453,
      "arts": 4454,
      "endorf": 4455,
      "kannte": 4456,
      "Auswahl": 4457,
      "anders": 4458,
      "Abgeord": 4459,
      "Orig": 4460,
      "Kont": 4461,
      "weiterhin": 4462,
      "Mex": 4463,
      "flächen": 4464,
      "Zuge": 4465,
      "ierende": 4466,
      "früh": 4467,
      "kammer": 4468,
      "Klass": 4469,
      "Landschaft": 4470,
      "seitdem": 4471,
      "1983": 4472,
      "gleichnam": 4473,
      "1960er": 4474,
      "späteren": 4475,
      "Quadrat": 4476,
      "1951": 4477,
      "Gesprä": 4478,
      "1930": 4479,
      "fred": 4480,
      "bekannte": 4481,
      "prü": 4482,
      "Bundesliga": 4483,
      "beschrän": 4484,
      "Kaffe": 4485,
      "Exper": 4486,
      "garten": 4487,
      "verlänger": 4488,
      "kopf": 4489,
      "Mitgliedern": 4490,
      "Fahrzeug": 4491,
      "welcher": 4492,
      "Verband": 4493,
      "freien": 4494,
      "Kosten": 4495,
      "Präsidenten": 4496,
      "wichtige": 4497,
      "Weiteren": 4498,
      "Zusammenarbeit": 4499,
      "Wappen": 4500,
      "südlichen": 4501,
      "aufgehoben": 4502,
      "Metho": 4503,
      "ständigen": 4504,
      "Kanal": 4505,
      "Linien": 4506,
      "deutscher": 4507,
      "deutschsprach": 4508,
      "umente": 4509,
      "Deshalb": 4510,
      "wissenschaftlichen": 4511,
      "Bibliothe": 4512,
      "umfassen": 4513,
      "Spezial": 4514,
      "fertigt": 4515,
      "angeboten": 4516,
      "grenze": 4517,
      "Gewinn": 4518,
      "Bezirks": 4519,
      "Frühstück": 4520,
      "erklärt": 4521,
      "World": 4522,
      "sogenannte": 4523,
      "Olympischen": 4524,
      "beschäftigte": 4525,
      "Offiz": 4526,
      "Städte": 4527,
      "Grenze": 4528,
      "zerstört": 4529,
      "eröffnet": 4530,
      "Restaurant": 4531,
      "Müller": 4532,
      "posit": 4533,
      "Zunächst": 4534,
      "sphäre": 4535,
      "64": 4536,
      "Alex": 4537,
      "Bla": 4538,
      "Bele": 4539,
      "Cap": 4540,
      "Cast": 4541,
      "Dor": 4542,
      "Dank": 4543,
      "Druck": 4544,
      "Ep": 4545,
      "Fot": 4546,
      "Han": 4547,
      "Hart": 4548,
      "Ir": 4549,
      "Jak": 4550,
      "Just": 4551,
      "Lau": 4552,
      "Mei": 4553,
      "Mas": 4554,
      "Mess": 4555,
      "PS": 4556,
      "Pin": 4557,
      "Pri": 4558,
      "TV": 4559,
      "Vis": 4560,
      "Vaters": 4561,
      "Wand": 4562,
      "Zeiten": 4563,
      "aden": 4564,
      "bten": 4565,
      "baus": 4566,
      "dungen": 4567,
      "echt": 4568,
      "fé": 4569,
      "fein": 4570,
      "fließ": 4571,
      "gon": 4572,
      "ident": 4573,
      "jüd": 4574,
      "kreuz": 4575,
      "li": 4576,
      "länder": 4577,
      "leitung": 4578,
      "meiner": 4579,
      "mass": 4580,
      "messer": 4581,
      "no": 4582,
      "nei": 4583,
      "nal": 4584,
      "oc": 4585,
      "ox": 4586,
      "pat": 4587,
      "renz": 4588,
      "sischen": 4589,
      "tür": 4590,
      "vi": 4591,
      "yd": 4592,
      "ye": 4593,
      "äre": 4594,
      "öss": 4595,
      "ötig": 4596,
      "erfahren": 4597,
      "ennen": 4598,
      "inden": 4599,
      "inform": 4600,
      "stab": 4601,
      "stlichen": 4602,
      "eisen": 4603,
      "ano": 4604,
      "derzeit": 4605,
      "teur": 4606,
      "ged": 4607,
      "ala": 4608,
      "alog": 4609,
      "orten": 4610,
      "genöss": 4611,
      "bewegung": 4612,
      "lecker": 4613,
      "licht": 4614,
      "real": 4615,
      "republik": 4616,
      "rochen": 4617,
      "Star": 4618,
      "cklen": 4619,
      "anda": 4620,
      "umfang": 4621,
      "neg": 4622,
      "spann": 4623,
      "spiegel": 4624,
      "Schön": 4625,
      "School": 4626,
      "ktar": 4627,
      "etter": 4628,
      "ielten": 4629,
      "Verfahren": 4630,
      "wies": 4631,
      "Angel": 4632,
      "Anlagen": 4633,
      "grü": 4634,
      "law": 4635,
      "osa": 4636,
      "daille": 4637,
      "merziel": 4638,
      "pfel": 4639,
      "Auseinander": 4640,
      "anderer": 4641,
      "reicher": 4642,
      "teils": 4643,
      "ico": 4644,
      "gewicht": 4645,
      "illen": 4646,
      "rid": 4647,
      "Vorgänger": 4648,
      "1990er": 4649,
      "Flucht": 4650,
      "Marken": 4651,
      "Kongress": 4652,
      "Unterricht": 4653,
      "ternationale": 4654,
      "iziert": 4655,
      "achtung": 4656,
      "damalige": 4657,
      "heimer": 4658,
      "front": 4659,
      "Champ": 4660,
      "1981": 4661,
      "1985": 4662,
      "1962": 4663,
      "1964": 4664,
      "1968": 4665,
      "1973": 4666,
      "1978": 4667,
      "hauses": 4668,
      "Rock": 4669,
      "Rosen": 4670,
      "angegeben": 4671,
      "178": 4672,
      "Gesetz": 4673,
      "gemeinden": 4674,
      "1934": 4675,
      "Feuer": 4676,
      "priv": 4677,
      "mögen": 4678,
      "streit": 4679,
      "tage": 4680,
      "langsam": 4681,
      "Tages": 4682,
      "Mannschaften": 4683,
      "verlassen": 4684,
      "holz": 4685,
      "Forsch": 4686,
      "Grab": 4687,
      "wässer": 4688,
      "handeln": 4689,
      "griffen": 4690,
      "ournal": 4691,
      "wollten": 4692,
      "azin": 4693,
      "völlig": 4694,
      "Flughafen": 4695,
      "Territor": 4696,
      "angene": 4697,
      "jährlich": 4698,
      "Zusammenhang": 4699,
      "entwicklung": 4700,
      "folgende": 4701,
      "Sonn": 4702,
      "fällt": 4703,
      "ehemalige": 4704,
      "worfen": 4705,
      "Kapelle": 4706,
      "Fragen": 4707,
      "Schiffe": 4708,
      "sonst": 4709,
      "größere": 4710,
      "lernen": 4711,
      "George": 4712,
      "sicherung": 4713,
      "Problem": 4714,
      "englischen": 4715,
      "ältere": 4716,
      "Prem": 4717,
      "lehrer": 4718,
      "Frühjahr": 4719,
      "ländischen": 4720,
      "Text": 4721,
      "zogt": 4722,
      "kompetent": 4723,
      "Kanton": 4724,
      "zusätzlich": 4725,
      "füllt": 4726,
      "kretär": 4727,
      "medizin": 4728,
      "trennt": 4729,
      "Möglichkeit": 4730,
      "China": 4731,
      "könnte": 4732,
      "Fenster": 4733,
      "preußischen": 4734,
      "Eindruck": 4735,
      "Szene": 4736,
      "männ": 4737,
      "promov": 4738,
      "Leipzig": 4739,
      "zwölf": 4740,
      "gleichnamigen": 4741,
      "54": 4742,
      "66": 4743,
      "Akt": 4744,
      "Cam": 4745,
      "Camp": 4746,
      "Dir": 4747,
      "Doll": 4748,
      "EC": 4749,
      "Grie": 4750,
      "Glo": 4751,
      "HL": 4752,
      "Hom": 4753,
      "Hör": 4754,
      "Kandid": 4755,
      "Krieges": 4756,
      "Letz": 4757,
      "Liste": 4758,
      "Nun": 4759,
      "Nam": 4760,
      "North": 4761,
      "Rand": 4762,
      "Rum": 4763,
      "Renn": 4764,
      "Rats": 4765,
      "Sim": 4766,
      "Sänger": 4767,
      "Tanz": 4768,
      "Therap": 4769,
      "Vort": 4770,
      "Wern": 4771,
      "aktion": 4772,
      "abend": 4773,
      "bad": 4774,
      "fass": 4775,
      "feier": 4776,
      "funk": 4777,
      "gau": 4778,
      "grad": 4779,
      "günst": 4780,
      "jungen": 4781,
      "ku": 4782,
      "kunst": 4783,
      "krieges": 4784,
      "lam": 4785,
      "meinem": 4786,
      "ns": 4787,
      "ois": 4788,
      "sachsen": 4789,
      "tö": 4790,
      "vel": 4791,
      "zimmer": 4792,
      "Überg": 4793,
      "era": 4794,
      "erb": 4795,
      "char": 4796,
      "chnet": 4797,
      "ini": 4798,
      "unbe": 4799,
      "stritten": 4800,
      "storben": 4801,
      "any": 4802,
      "anwalt": 4803,
      "schau": 4804,
      "eint": 4805,
      "oni": 4806,
      "geschaffen": 4807,
      "alische": 4808,
      "orte": 4809,
      "ores": 4810,
      "urter": 4811,
      "tend": 4812,
      "tere": 4813,
      "teren": 4814,
      "genie": 4815,
      "beauf": 4816,
      "begl": 4817,
      "isa": 4818,
      "lech": 4819,
      "verp": 4820,
      "vergleich": 4821,
      "verteidig": 4822,
      "lichkeiten": 4823,
      "reform": 4824,
      "row": 4825,
      "usen": 4826,
      "benutzt": 4827,
      "entgegen": 4828,
      "entspricht": 4829,
      "umstritten": 4830,
      "Initi": 4831,
      "Invest": 4832,
      "ward": 4833,
      "weiht": 4834,
      "spl": 4835,
      "omet": 4836,
      "sichtlich": 4837,
      "Schei": 4838,
      "Schließ": 4839,
      "Schlag": 4840,
      "eth": 4841,
      "ella": 4842,
      "mensch": 4843,
      "Verantwort": 4844,
      "Verhältnis": 4845,
      "werte": 4846,
      "übertragen": 4847,
      "Anteil": 4848,
      "Anschließend": 4849,
      "Behörden": 4850,
      "riester": 4851,
      "eiler": 4852,
      "serie": 4853,
      "ünd": 4854,
      "Real": 4855,
      "otte": 4856,
      "Spann": 4857,
      "Unabhäng": 4858,
      "geln": 4859,
      "geleitet": 4860,
      "brach": 4861,
      "Prop": 4862,
      "opt": 4863,
      "kommerziel": 4864,
      "zenz": 4865,
      "hinzu": 4866,
      "hingegen": 4867,
      "gewöhn": 4868,
      "Sozi": 4869,
      "Flügel": 4870,
      "äuft": 4871,
      "Konfl": 4872,
      "Konzept": 4873,
      "Mecklen": 4874,
      "zweit": 4875,
      "gemeinen": 4876,
      "linge": 4877,
      "Heraus": 4878,
      "Herstellung": 4879,
      "flügel": 4880,
      "Wechsel": 4881,
      "bauen": 4882,
      "sprü": 4883,
      "wiederum": 4884,
      "Klaus": 4885,
      "Chem": 4886,
      "1982": 4887,
      "1980er": 4888,
      "könne": 4889,
      "eigentlich": 4890,
      "1979": 4891,
      "1944": 4892,
      "erhö": 4893,
      "1958": 4894,
      "Bunde": 4895,
      "Gesund": 4896,
      "Staffel": 4897,
      "beth": 4898,
      "wohner": 4899,
      "Bundesstaat": 4900,
      "präsident": 4901,
      "Prinz": 4902,
      "Presse": 4903,
      "fordert": 4904,
      "forschung": 4905,
      "lose": 4906,
      "Deutschlands": 4907,
      "Großen": 4908,
      "Leider": 4909,
      "punkte": 4910,
      "ifikation": 4911,
      "bahnhof": 4912,
      "Autom": 4913,
      "western": 4914,
      "wirtschaftliche": 4915,
      "Rückkehr": 4916,
      "Schulen": 4917,
      "Höhen": 4918,
      "Standard": 4919,
      "Zentimeter": 4920,
      "Streit": 4921,
      "ergän": 4922,
      "Hilfs": 4923,
      "blieben": 4924,
      "Volkszählung": 4925,
      "helfen": 4926,
      "kirchen": 4927,
      "Philipp": 4928,
      "Firmen": 4929,
      "alsozial": 4930,
      "wahrscheinlich": 4931,
      "nahezu": 4932,
      "gangenen": 4933,
      "Ländern": 4934,
      "gelegenen": 4935,
      "Ergebnisse": 4936,
      "steiger": 4937,
      "italienische": 4938,
      "vention": 4939,
      "Medizin": 4940,
      "unterstützt": 4941,
      "Schmid": 4942,
      "Besucher": 4943,
      "Stadion": 4944,
      "Idee": 4945,
      "sogenannten": 4946,
      "akademie": 4947,
      "Ulrich": 4948,
      "förmig": 4949,
      "erweitert": 4950,
      "Nutzung": 4951,
      "Version": 4952,
      "schwedischen": 4953,
      "übrigen": 4954,
      "Hannover": 4955,
      "Festival": 4956,
      "Gouverneur": 4957,
      "Dollar": 4958,
      "1000": 4959,
      "300": 4960,
      "800": 4961,
      "AN": 4962,
      "Adel": 4963,
      "Aka": 4964,
      "Deta": 4965,
      "Gas": 4966,
      "Gün": 4967,
      "Garten": 4968,
      "Geist": 4969,
      "Gött": 4970,
      "Hen": 4971,
      "Hir": 4972,
      "Holl": 4973,
      "Hessen": 4974,
      "Journal": 4975,
      "Leitung": 4976,
      "Mund": 4977,
      "Mis": 4978,
      "Mad": 4979,
      "Material": 4980,
      "Nah": 4981,
      "Nap": 4982,
      "Opt": 4983,
      "Priester": 4984,
      "Sä": 4985,
      "Sar": 4986,
      "Ten": 4987,
      "Tunn": 4988,
      "Uhr": 4989,
      "Vide": 4990,
      "Zul": 4991,
      "agen": 4992,
      "agt": 4993,
      "bisch": 4994,
      "bell": 4995,
      "bul": 4996,
      "col": 4997,
      "ec": 4998,
      "gas": 4999
    },
    "merges": [
      [
        "e",
        "r"
      ],
      [
        "e",
        "n"
      ],
      [
        "c",
        "h"
      ],
      [
        "i",
        "n"
      ],
      [
        "i",
        "e"
      ],
      [
        "u",
        "n"
      ],
      [
        "d",
        "e"
      ],
      [
        "s",
        "t"
      ],
      [
        "e",
        "i"
      ],
      [
        "a",
        "n"
      ],
      [
        "d",
        "er"
      ],
      [
        "s",
        "ch"
      ],
      [
        "e",
        "in"
      ],
      [
        "o",
        "n"
      ],
      [
        "t",
        "e"
      ],
      [
        "g",
        "e"
      ],
      [
        "a",
        "u"
      ],
      [
        "a",
        "l"
      ],
      [
        "un",
        "d"
      ],
      [
        "i",
        "ch"
      ],
      [
        "a",
        "r"
      ],
      [
        "d",
        "ie"
      ],
      [
        "d",
        "en"
      ],
      [
        "o",
        "r"
      ],
      [
        "de",
        "m"
      ],
      [
        "i",
        "t"
      ],
      [
        "u",
        "r"
      ],
      [
        "un",
        "g"
      ],
      [
        "a",
        "t"
      ],
      [
        "a",
        "s"
      ],
      [
        "e",
        "l"
      ],
      [
        "h",
        "r"
      ],
      [
        "t",
        "en"
      ],
      [
        "e",
        "s"
      ],
      [
        "t",
        "er"
      ],
      [
        "g",
        "en"
      ],
      [
        "z",
        "u"
      ],
      [
        "i",
        "sch"
      ],
      [
        "o",
        "l"
      ],
      [
        "v",
        "on"
      ],
      [
        "b",
        "e"
      ],
      [
        "i",
        "s"
      ],
      [
        "a",
        "m"
      ],
      [
        "a",
        "ch"
      ],
      [
        "b",
        "er"
      ],
      [
        "l",
        "e"
      ],
      [
        "v",
        "er"
      ],
      [
        "s",
        "e"
      ],
      [
        "ein",
        "e"
      ],
      [
        "l",
        "ich"
      ],
      [
        "i",
        "st"
      ],
      [
        "de",
        "s"
      ],
      [
        "i",
        "er"
      ],
      [
        "i",
        "g"
      ],
      [
        "ei",
        "t"
      ],
      [
        "i",
        "l"
      ],
      [
        "r",
        "e"
      ],
      [
        "au",
        "f"
      ],
      [
        "m",
        "it"
      ],
      [
        "d",
        "as"
      ],
      [
        "r",
        "o"
      ],
      [
        "D",
        "ie"
      ],
      [
        "f",
        "ü"
      ],
      [
        "u",
        "s"
      ],
      [
        "au",
        "s"
      ],
      [
        "i",
        "r"
      ],
      [
        "1",
        "9"
      ],
      [
        "S",
        "t"
      ],
      [
        "i",
        "on"
      ],
      [
        "c",
        "k"
      ],
      [
        "an",
        "d"
      ],
      [
        "b",
        "en"
      ],
      [
        "r",
        "a"
      ],
      [
        "w",
        "ur"
      ],
      [
        "en",
        "t"
      ],
      [
        "u",
        "t"
      ],
      [
        "u",
        "m"
      ],
      [
        "r",
        "ei"
      ],
      [
        "I",
        "n"
      ],
      [
        "al",
        "s"
      ],
      [
        "w",
        "ar"
      ],
      [
        "n",
        "e"
      ],
      [
        "w",
        "ei"
      ],
      [
        "b",
        "ei"
      ],
      [
        "an",
        "n"
      ],
      [
        "s",
        "p"
      ],
      [
        "o",
        "m"
      ],
      [
        "isch",
        "en"
      ],
      [
        "f",
        "t"
      ],
      [
        "s",
        "ich"
      ],
      [
        "a",
        "hr"
      ],
      [
        "s",
        "en"
      ],
      [
        "ich",
        "t"
      ],
      [
        "a",
        "h"
      ],
      [
        "S",
        "ch"
      ],
      [
        "wur",
        "de"
      ],
      [
        "k",
        "t"
      ],
      [
        "e",
        "m"
      ],
      [
        "e",
        "t"
      ],
      [
        "fü",
        "r"
      ],
      [
        "el",
        "l"
      ],
      [
        "ie",
        "l"
      ],
      [
        "g",
        "er"
      ],
      [
        "m",
        "en"
      ],
      [
        "a",
        "b"
      ],
      [
        "V",
        "er"
      ],
      [
        "f",
        "f"
      ],
      [
        "w",
        "er"
      ],
      [
        "i",
        "k"
      ],
      [
        "0",
        "0"
      ],
      [
        "ä",
        "n"
      ],
      [
        "i",
        "en"
      ],
      [
        "o",
        "ch"
      ],
      [
        "E",
        "r"
      ],
      [
        "au",
        "ch"
      ],
      [
        "t",
        "z"
      ],
      [
        "h",
        "e"
      ],
      [
        "st",
        "e"
      ],
      [
        "l",
        "ie"
      ],
      [
        "J",
        "ahr"
      ],
      [
        "ein",
        "er"
      ],
      [
        "in",
        "d"
      ],
      [
        "w",
        "ie"
      ],
      [
        "ü",
        "ber"
      ],
      [
        "sch",
        "a"
      ],
      [
        "A",
        "n"
      ],
      [
        "s",
        "o"
      ],
      [
        "g",
        "r"
      ],
      [
        "a",
        "d"
      ],
      [
        "er",
        "n"
      ],
      [
        "h",
        "n"
      ],
      [
        "G",
        "e"
      ],
      [
        "n",
        "ach"
      ],
      [
        "v",
        "or"
      ],
      [
        "w",
        "ir"
      ],
      [
        "st",
        "en"
      ],
      [
        "ei",
        "ch"
      ],
      [
        "B",
        "e"
      ],
      [
        "al",
        "l"
      ],
      [
        "i",
        "m"
      ],
      [
        "ur",
        "ch"
      ],
      [
        "A",
        "u"
      ],
      [
        "n",
        "icht"
      ],
      [
        "ung",
        "en"
      ],
      [
        "r",
        "ie"
      ],
      [
        "l",
        "a"
      ],
      [
        "ei",
        "l"
      ],
      [
        "b",
        "is"
      ],
      [
        "m",
        "e"
      ],
      [
        "s",
        "er"
      ],
      [
        "ein",
        "en"
      ],
      [
        "E",
        "in"
      ],
      [
        "ü",
        "n"
      ],
      [
        "R",
        "e"
      ],
      [
        "s",
        "ie"
      ],
      [
        "o",
        "t"
      ],
      [
        "D",
        "er"
      ],
      [
        "at",
        "ion"
      ],
      [
        "or",
        "t"
      ],
      [
        "o",
        "s"
      ],
      [
        "i",
        "gen"
      ],
      [
        "isch",
        "e"
      ],
      [
        "h",
        "en"
      ],
      [
        "g",
        "t"
      ],
      [
        "S",
        "p"
      ],
      [
        "h",
        "er"
      ],
      [
        "ö",
        "r"
      ],
      [
        "h",
        "l"
      ],
      [
        "un",
        "ter"
      ],
      [
        "h",
        "at"
      ],
      [
        "scha",
        "ft"
      ],
      [
        "an",
        "g"
      ],
      [
        "U",
        "n"
      ],
      [
        "d",
        "urch"
      ],
      [
        "eine",
        "m"
      ],
      [
        "u",
        "ch"
      ],
      [
        "w",
        "e"
      ],
      [
        "A",
        "l"
      ],
      [
        "u",
        "l"
      ],
      [
        "ung",
        "s"
      ],
      [
        "st",
        "er"
      ],
      [
        "ge",
        "l"
      ],
      [
        "ge",
        "b"
      ],
      [
        "s",
        "ind"
      ],
      [
        "i",
        "v"
      ],
      [
        "d",
        "a"
      ],
      [
        "st",
        "ell"
      ],
      [
        "in",
        "g"
      ],
      [
        "i",
        "ge"
      ],
      [
        "wer",
        "den"
      ],
      [
        "h",
        "a"
      ],
      [
        "p",
        "p"
      ],
      [
        "2",
        "00"
      ],
      [
        "m",
        "er"
      ],
      [
        "ol",
        "l"
      ],
      [
        "n",
        "en"
      ],
      [
        "ü",
        "r"
      ],
      [
        "A",
        "r"
      ],
      [
        "ä",
        "t"
      ],
      [
        "te",
        "l"
      ],
      [
        "b",
        "r"
      ],
      [
        "P",
        "ro"
      ],
      [
        "p",
        "f"
      ],
      [
        "D",
        "as"
      ],
      [
        "wir",
        "d"
      ],
      [
        "i",
        "hr"
      ],
      [
        "r",
        "an"
      ],
      [
        "o",
        "der"
      ],
      [
        "a",
        "g"
      ],
      [
        "j",
        "e"
      ],
      [
        "w",
        "o"
      ],
      [
        "ch",
        "en"
      ],
      [
        "s",
        "el"
      ],
      [
        "h",
        "al"
      ],
      [
        "t",
        "r"
      ],
      [
        "1",
        "8"
      ],
      [
        "G",
        "r"
      ],
      [
        "ä",
        "r"
      ],
      [
        "ar",
        "t"
      ],
      [
        "te",
        "t"
      ],
      [
        "E",
        "n"
      ],
      [
        "M",
        "it"
      ],
      [
        "z",
        "e"
      ],
      [
        "lich",
        "en"
      ],
      [
        "en",
        "d"
      ],
      [
        "N",
        "ach"
      ],
      [
        "sch",
        "l"
      ],
      [
        "ier",
        "t"
      ],
      [
        "ü",
        "ck"
      ],
      [
        "o",
        "p"
      ],
      [
        "b",
        "es"
      ],
      [
        "k",
        "ann"
      ],
      [
        "A",
        "us"
      ],
      [
        "g",
        "l"
      ],
      [
        "an",
        "der"
      ],
      [
        "z",
        "wei"
      ],
      [
        "de",
        "t"
      ],
      [
        "k",
        "om"
      ],
      [
        "ah",
        "l"
      ],
      [
        "S",
        "ie"
      ],
      [
        "z",
        "en"
      ],
      [
        "f",
        "ol"
      ],
      [
        "n",
        "och"
      ],
      [
        "A",
        "b"
      ],
      [
        "L",
        "e"
      ],
      [
        "s",
        "am"
      ],
      [
        "das",
        "s"
      ],
      [
        "ö",
        "n"
      ],
      [
        "ad",
        "t"
      ],
      [
        "d",
        "i"
      ],
      [
        "rei",
        "ch"
      ],
      [
        "k",
        "l"
      ],
      [
        "D",
        "e"
      ],
      [
        "n",
        "ur"
      ],
      [
        "B",
        "er"
      ],
      [
        "O",
        "r"
      ],
      [
        "m",
        "an"
      ],
      [
        "h",
        "o"
      ],
      [
        "o",
        "g"
      ],
      [
        "r",
        "ä"
      ],
      [
        "fü",
        "hr"
      ],
      [
        "k",
        "e"
      ],
      [
        "t",
        "s"
      ],
      [
        "k",
        "on"
      ],
      [
        "t",
        "eil"
      ],
      [
        "h",
        "in"
      ],
      [
        "i",
        "c"
      ],
      [
        "lich",
        "e"
      ],
      [
        "ge",
        "w"
      ],
      [
        "wur",
        "den"
      ],
      [
        "or",
        "d"
      ],
      [
        "me",
        "hr"
      ],
      [
        "u",
        "g"
      ],
      [
        "er",
        "s"
      ],
      [
        "de",
        "l"
      ],
      [
        "ge",
        "h"
      ],
      [
        "ier",
        "te"
      ],
      [
        "us",
        "s"
      ],
      [
        "w",
        "a"
      ],
      [
        "at",
        "z"
      ],
      [
        "il",
        "l"
      ],
      [
        "f",
        "in"
      ],
      [
        "k",
        "en"
      ],
      [
        "ä",
        "l"
      ],
      [
        "S",
        "o"
      ],
      [
        "ä",
        "ch"
      ],
      [
        "f",
        "e"
      ],
      [
        "el",
        "t"
      ],
      [
        "u",
        "te"
      ],
      [
        "Au",
        "f"
      ],
      [
        "n",
        "ah"
      ],
      [
        "f",
        "en"
      ],
      [
        "ä",
        "hr"
      ],
      [
        "b",
        "l"
      ],
      [
        "l",
        "an"
      ],
      [
        "a",
        "p"
      ],
      [
        "n",
        "er"
      ],
      [
        "r",
        "i"
      ],
      [
        "ß",
        "en"
      ],
      [
        "se",
        "tz"
      ],
      [
        "V",
        "or"
      ],
      [
        "19",
        "9"
      ],
      [
        "F",
        "l"
      ],
      [
        "ä",
        "u"
      ],
      [
        "N",
        "e"
      ],
      [
        "r",
        "u"
      ],
      [
        "sp",
        "iel"
      ],
      [
        "M",
        "ar"
      ],
      [
        "as",
        "s"
      ],
      [
        "al",
        "t"
      ],
      [
        "K",
        "on"
      ],
      [
        "wei",
        "ter"
      ],
      [
        "it",
        "z"
      ],
      [
        "p",
        "t"
      ],
      [
        "s",
        "ein"
      ],
      [
        "die",
        "se"
      ],
      [
        "Z",
        "eit"
      ],
      [
        "b",
        "t"
      ],
      [
        "M",
        "e"
      ],
      [
        "b",
        "ar"
      ],
      [
        "Un",
        "ter"
      ],
      [
        "z",
        "w"
      ],
      [
        "E",
        "s"
      ],
      [
        "sch",
        "en"
      ],
      [
        "ge",
        "m"
      ],
      [
        "b",
        "ur"
      ],
      [
        "w",
        "en"
      ],
      [
        "a",
        "ber"
      ],
      [
        "eit",
        "s"
      ],
      [
        "l",
        "in"
      ],
      [
        "St",
        "adt"
      ],
      [
        "M",
        "a"
      ],
      [
        "S",
        "e"
      ],
      [
        "l",
        "er"
      ],
      [
        "d",
        "ar"
      ],
      [
        "r",
        "it"
      ],
      [
        "ge",
        "gen"
      ],
      [
        "H",
        "er"
      ],
      [
        "-",
        "-"
      ],
      [
        "F",
        "r"
      ],
      [
        "i",
        "ck"
      ],
      [
        "ter",
        "n"
      ],
      [
        "f",
        "l"
      ],
      [
        "i",
        "z"
      ],
      [
        "or",
        "m"
      ],
      [
        "ver",
        "s"
      ],
      [
        "h",
        "t"
      ],
      [
        "se",
        "hr"
      ],
      [
        "f",
        "er"
      ],
      [
        "on",
        "der"
      ],
      [
        "d",
        "u"
      ],
      [
        "s",
        "eine"
      ],
      [
        "Z",
        "u"
      ],
      [
        "t",
        "ra"
      ],
      [
        "z",
        "eit"
      ],
      [
        "ach",
        "t"
      ],
      [
        "p",
        "er"
      ],
      [
        "ch",
        "e"
      ],
      [
        "ge",
        "sch"
      ],
      [
        "k",
        "eit"
      ],
      [
        "ah",
        "n"
      ],
      [
        "W",
        "e"
      ],
      [
        "er",
        "st"
      ],
      [
        "g",
        "an"
      ],
      [
        "st",
        "and"
      ],
      [
        "h",
        "m"
      ],
      [
        "p",
        "ro"
      ],
      [
        "de",
        "ut"
      ],
      [
        "i",
        "a"
      ],
      [
        "al",
        "e"
      ],
      [
        "o",
        "b"
      ],
      [
        "2",
        "0"
      ],
      [
        "an",
        "t"
      ],
      [
        "es",
        "s"
      ],
      [
        "Jahr",
        "e"
      ],
      [
        "te",
        "s"
      ],
      [
        "b",
        "au"
      ],
      [
        "ß",
        "e"
      ],
      [
        "sp",
        "r"
      ],
      [
        "d",
        "am"
      ],
      [
        "ne",
        "u"
      ],
      [
        "wie",
        "der"
      ],
      [
        "ne",
        "t"
      ],
      [
        "kt",
        "ion"
      ],
      [
        "ier",
        "en"
      ],
      [
        "hat",
        "te"
      ],
      [
        "a",
        "st"
      ],
      [
        "d",
        "och"
      ],
      [
        "m",
        "ei"
      ],
      [
        "s",
        "einer"
      ],
      [
        "it",
        "ät"
      ],
      [
        "h",
        "ei"
      ],
      [
        "war",
        "en"
      ],
      [
        "f",
        "r"
      ],
      [
        "i",
        "ff"
      ],
      [
        "k",
        "am"
      ],
      [
        "w",
        "as"
      ],
      [
        "z",
        "eich"
      ],
      [
        "ch",
        "t"
      ],
      [
        "o",
        "k"
      ],
      [
        "K",
        "l"
      ],
      [
        "n",
        "is"
      ],
      [
        "geh",
        "ör"
      ],
      [
        "al",
        "le"
      ],
      [
        "ein",
        "es"
      ],
      [
        "De",
        "ut"
      ],
      [
        "C",
        "h"
      ],
      [
        "at",
        "en"
      ],
      [
        "z",
        "i"
      ],
      [
        "d",
        "ien"
      ],
      [
        "m",
        "t"
      ],
      [
        "a",
        "k"
      ],
      [
        "ß",
        "er"
      ],
      [
        "ge",
        "s"
      ],
      [
        "Jahr",
        "en"
      ],
      [
        "L",
        "and"
      ],
      [
        "ä",
        "ter"
      ],
      [
        "at",
        "t"
      ],
      [
        "b",
        "st"
      ],
      [
        "d",
        "ig"
      ],
      [
        "f",
        "ahr"
      ],
      [
        "s",
        "eit"
      ],
      [
        "B",
        "ei"
      ],
      [
        "b",
        "il"
      ],
      [
        "f",
        "ten"
      ],
      [
        "sch",
        "ie"
      ],
      [
        "zw",
        "ischen"
      ],
      [
        "m",
        "al"
      ],
      [
        "ut",
        "z"
      ],
      [
        "ar",
        "bei"
      ],
      [
        "g",
        "ro"
      ],
      [
        "die",
        "ser"
      ],
      [
        "lie",
        "ß"
      ],
      [
        "o",
        "f"
      ],
      [
        "19",
        "8"
      ],
      [
        "m",
        "in"
      ],
      [
        "rei",
        "s"
      ],
      [
        "as",
        "sen"
      ],
      [
        "ier",
        "ung"
      ],
      [
        "so",
        "wie"
      ],
      [
        "m",
        "a"
      ],
      [
        "m",
        "us"
      ],
      [
        "an",
        "z"
      ],
      [
        "bur",
        "g"
      ],
      [
        "i",
        "d"
      ],
      [
        "Re",
        "g"
      ],
      [
        "T",
        "e"
      ],
      [
        "o",
        "ff"
      ],
      [
        "B",
        "r"
      ],
      [
        "te",
        "te"
      ],
      [
        "gl",
        "eich"
      ],
      [
        "t",
        "re"
      ],
      [
        "B",
        "au"
      ],
      [
        "l",
        "and"
      ],
      [
        "q",
        "u"
      ],
      [
        "in",
        "gen"
      ],
      [
        "k",
        "ön"
      ],
      [
        "fol",
        "g"
      ],
      [
        "S",
        "a"
      ],
      [
        "r",
        "ich"
      ],
      [
        "ha",
        "ben"
      ],
      [
        "W",
        "ir"
      ],
      [
        "l",
        "ei"
      ],
      [
        "ei",
        "gen"
      ],
      [
        "isch",
        "er"
      ],
      [
        "G",
        "em"
      ],
      [
        "p",
        "h"
      ],
      [
        "19",
        "6"
      ],
      [
        "19",
        "7"
      ],
      [
        "o",
        "h"
      ],
      [
        "ar",
        "k"
      ],
      [
        "ig",
        "er"
      ],
      [
        "ei",
        "ten"
      ],
      [
        "au",
        "t"
      ],
      [
        "W",
        "er"
      ],
      [
        "g",
        "lich"
      ],
      [
        "h",
        "aus"
      ],
      [
        "ation",
        "al"
      ],
      [
        "je",
        "doch"
      ],
      [
        "F",
        "ran"
      ],
      [
        "s",
        "oll"
      ],
      [
        "und",
        "en"
      ],
      [
        "P",
        "l"
      ],
      [
        "h",
        "men"
      ],
      [
        "D",
        "a"
      ],
      [
        "U",
        "m"
      ],
      [
        "or",
        "en"
      ],
      [
        "1",
        "5"
      ],
      [
        "L",
        "a"
      ],
      [
        "f",
        "all"
      ],
      [
        "p",
        "l"
      ],
      [
        "gr",
        "ün"
      ],
      [
        "W",
        "ei"
      ],
      [
        "at",
        "er"
      ],
      [
        "l",
        "ung"
      ],
      [
        "ö",
        "l"
      ],
      [
        "ber",
        "g"
      ],
      [
        "ö",
        "ff"
      ],
      [
        "sp",
        "äter"
      ],
      [
        "m",
        "ann"
      ],
      [
        "u",
        "pp"
      ],
      [
        "1",
        "0"
      ],
      [
        "u",
        "d"
      ],
      [
        "ver",
        "b"
      ],
      [
        "ü",
        "d"
      ],
      [
        "ar",
        "d"
      ],
      [
        "hal",
        "ten"
      ],
      [
        "ie",
        "der"
      ],
      [
        "aus",
        "ge"
      ],
      [
        "19",
        "4"
      ],
      [
        "stell",
        "t"
      ],
      [
        "R",
        "o"
      ],
      [
        "er",
        "h"
      ],
      [
        "En",
        "t"
      ],
      [
        "d",
        "ort"
      ],
      [
        "kon",
        "n"
      ],
      [
        "im",
        "mer"
      ],
      [
        "W",
        "elt"
      ],
      [
        "z",
        "ahl"
      ],
      [
        "an",
        "ge"
      ],
      [
        "wei",
        "se"
      ],
      [
        "g",
        "i"
      ],
      [
        "el",
        "d"
      ],
      [
        "rie",
        "g"
      ],
      [
        "Un",
        "i"
      ],
      [
        "z",
        "ent"
      ],
      [
        "am",
        "il"
      ],
      [
        "Q",
        "u"
      ],
      [
        "an",
        "del"
      ],
      [
        "le",
        "tz"
      ],
      [
        "kom",
        "men"
      ],
      [
        "T",
        "eil"
      ],
      [
        "el",
        "le"
      ],
      [
        "Gem",
        "ein"
      ],
      [
        "s",
        "k"
      ],
      [
        "an",
        "den"
      ],
      [
        "sch",
        "e"
      ],
      [
        "au",
        "pt"
      ],
      [
        "et",
        "wa"
      ],
      [
        "en",
        "n"
      ],
      [
        "o",
        "v"
      ],
      [
        "ie",
        "le"
      ],
      [
        "19",
        "5"
      ],
      [
        "1",
        "7"
      ],
      [
        "h",
        "eit"
      ],
      [
        "or",
        "den"
      ],
      [
        "at",
        "ur"
      ],
      [
        "rie",
        "b"
      ],
      [
        "ähr",
        "end"
      ],
      [
        "B",
        "un"
      ],
      [
        "G",
        "es"
      ],
      [
        "g",
        "lie"
      ],
      [
        "en",
        "z"
      ],
      [
        "St",
        "a"
      ],
      [
        "sch",
        "n"
      ],
      [
        "be",
        "t"
      ],
      [
        "gem",
        "ein"
      ],
      [
        "B",
        "l"
      ],
      [
        "ä",
        "hl"
      ],
      [
        "ie",
        "t"
      ],
      [
        "el",
        "e"
      ],
      [
        "d",
        "ung"
      ],
      [
        "am",
        "m"
      ],
      [
        "k",
        "er"
      ],
      [
        "ol",
        "it"
      ],
      [
        "Uni",
        "vers"
      ],
      [
        "K",
        "om"
      ],
      [
        "he",
        "ute"
      ],
      [
        "Ge",
        "sch"
      ],
      [
        "i",
        "hn"
      ],
      [
        "en",
        "s"
      ],
      [
        "19",
        "3"
      ],
      [
        "Sp",
        "iel"
      ],
      [
        "f",
        "re"
      ],
      [
        "h",
        "ier"
      ],
      [
        "u",
        "st"
      ],
      [
        "ol",
        "le"
      ],
      [
        "g",
        "a"
      ],
      [
        "h",
        "em"
      ],
      [
        "s",
        "s"
      ],
      [
        "st",
        "ra"
      ],
      [
        "it",
        "ion"
      ],
      [
        "er",
        "sten"
      ],
      [
        "ik",
        "an"
      ],
      [
        "iv",
        "e"
      ],
      [
        "`",
        "`"
      ],
      [
        "c",
        "e"
      ],
      [
        "ä",
        "tz"
      ],
      [
        "in",
        "n"
      ],
      [
        "or",
        "f"
      ],
      [
        "be",
        "kann"
      ],
      [
        "Ge",
        "b"
      ],
      [
        "d",
        "rei"
      ],
      [
        "a",
        "y"
      ],
      [
        "t",
        "schaft"
      ],
      [
        "ein",
        "ge"
      ],
      [
        "F",
        "e"
      ],
      [
        "au",
        "m"
      ],
      [
        "ol",
        "og"
      ],
      [
        "ihr",
        "e"
      ],
      [
        "k",
        "te"
      ],
      [
        "s",
        "ei"
      ],
      [
        "o",
        "d"
      ],
      [
        "z",
        "ur"
      ],
      [
        "al",
        "d"
      ],
      [
        "ar",
        "l"
      ],
      [
        "e",
        "ter"
      ],
      [
        "ge",
        "ben"
      ],
      [
        "ent",
        "lich"
      ],
      [
        "1",
        "6"
      ],
      [
        "T",
        "he"
      ],
      [
        "i",
        "an"
      ],
      [
        "o",
        "w"
      ],
      [
        "p",
        "r"
      ],
      [
        "ste",
        "hen"
      ],
      [
        "k",
        "ur"
      ],
      [
        "m",
        "ö"
      ],
      [
        "w",
        "ick"
      ],
      [
        "gen",
        "d"
      ],
      [
        "'",
        "'"
      ],
      [
        "st",
        "än"
      ],
      [
        "Al",
        "s"
      ],
      [
        "wo",
        "hn"
      ],
      [
        "at",
        "s"
      ],
      [
        "be",
        "g"
      ],
      [
        "Bun",
        "des"
      ],
      [
        "il",
        "m"
      ],
      [
        "Die",
        "se"
      ],
      [
        "i",
        "hm"
      ],
      [
        "ü",
        "tz"
      ],
      [
        "St",
        "u"
      ],
      [
        "ck",
        "e"
      ],
      [
        "konn",
        "te"
      ],
      [
        "O",
        "ber"
      ],
      [
        "p",
        "rä"
      ],
      [
        "1",
        "2"
      ],
      [
        "F",
        "amil"
      ],
      [
        "b",
        "eit"
      ],
      [
        "d",
        "ann"
      ],
      [
        "st",
        "r"
      ],
      [
        "än",
        "der"
      ],
      [
        "Or",
        "t"
      ],
      [
        "t",
        "ig"
      ],
      [
        "u",
        "ß"
      ],
      [
        "be",
        "sch"
      ],
      [
        "ne",
        "hmen"
      ],
      [
        "diese",
        "m"
      ],
      [
        "Ü",
        "ber"
      ],
      [
        "die",
        "s"
      ],
      [
        "ing",
        "s"
      ],
      [
        "kön",
        "nen"
      ],
      [
        "U",
        "S"
      ],
      [
        "n",
        "ung"
      ],
      [
        "ke",
        "hr"
      ],
      [
        "M",
        "us"
      ],
      [
        "s",
        "i"
      ],
      [
        "t",
        "a"
      ],
      [
        "I",
        "ch"
      ],
      [
        "f",
        "orm"
      ],
      [
        "s",
        "einem"
      ],
      [
        "v",
        "iel"
      ],
      [
        "ff",
        "en"
      ],
      [
        "gi",
        "bt"
      ],
      [
        "B",
        "es"
      ],
      [
        "v",
        "ier"
      ],
      [
        "y",
        "m"
      ],
      [
        "it",
        "t"
      ],
      [
        "führ",
        "t"
      ],
      [
        "P",
        "r"
      ],
      [
        "l",
        "ang"
      ],
      [
        "al",
        "en"
      ],
      [
        "ste",
        "ht"
      ],
      [
        "schl",
        "and"
      ],
      [
        "fin",
        "det"
      ],
      [
        "B",
        "o"
      ],
      [
        "B",
        "et"
      ],
      [
        "k",
        "s"
      ],
      [
        "is",
        "sen"
      ],
      [
        "et",
        "z"
      ],
      [
        "schie",
        "den"
      ],
      [
        "H",
        "a"
      ],
      [
        "s",
        "einen"
      ],
      [
        "hal",
        "b"
      ],
      [
        "d",
        "r"
      ],
      [
        "e",
        "ben"
      ],
      [
        "er",
        "ste"
      ],
      [
        "C",
        "o"
      ],
      [
        "K",
        "a"
      ],
      [
        "f",
        "or"
      ],
      [
        "r",
        "icht"
      ],
      [
        "ich",
        "te"
      ],
      [
        "setz",
        "t"
      ],
      [
        "bes",
        "onder"
      ],
      [
        "zur",
        "ück"
      ],
      [
        "H",
        "e"
      ],
      [
        "W",
        "as"
      ],
      [
        "l",
        "o"
      ],
      [
        "scha",
        "ften"
      ],
      [
        "all",
        "er"
      ],
      [
        "K",
        "ir"
      ],
      [
        "l",
        "en"
      ],
      [
        "in",
        "s"
      ],
      [
        "am",
        "en"
      ],
      [
        "la",
        "g"
      ],
      [
        "wo",
        "hl"
      ],
      [
        "H",
        "o"
      ],
      [
        "ur",
        "op"
      ],
      [
        "Deut",
        "schland"
      ],
      [
        "P",
        "art"
      ],
      [
        "se",
        "hen"
      ],
      [
        "gr",
        "ö"
      ],
      [
        "T",
        "a"
      ],
      [
        "u",
        "b"
      ],
      [
        "de",
        "te"
      ],
      [
        "lie",
        "gt"
      ],
      [
        "sel",
        "bst"
      ],
      [
        "G",
        "ro"
      ],
      [
        "g",
        "ung"
      ],
      [
        "ck",
        "en"
      ],
      [
        "ell",
        "en"
      ],
      [
        "im",
        "m"
      ],
      [
        "L",
        "ei"
      ],
      [
        "V",
        "on"
      ],
      [
        "i",
        "um"
      ],
      [
        "r",
        "at"
      ],
      [
        "s",
        "a"
      ],
      [
        "sch",
        "ließ"
      ],
      [
        "ier",
        "ten"
      ],
      [
        "mit",
        "tel"
      ],
      [
        "Gr",
        "und"
      ],
      [
        "schl",
        "os"
      ],
      [
        "E",
        "x"
      ],
      [
        "M",
        "en"
      ],
      [
        "in",
        "e"
      ],
      [
        "ig",
        "keit"
      ],
      [
        "iel",
        "t"
      ],
      [
        "ul",
        "t"
      ],
      [
        "Fr",
        "au"
      ],
      [
        "z",
        "ie"
      ],
      [
        "ü",
        "s"
      ],
      [
        "te",
        "m"
      ],
      [
        "St",
        "ra"
      ],
      [
        "M",
        "ann"
      ],
      [
        "N",
        "ord"
      ],
      [
        "g",
        "ar"
      ],
      [
        "ö",
        "s"
      ],
      [
        "sch",
        "ei"
      ],
      [
        "be",
        "st"
      ],
      [
        "H",
        "aupt"
      ],
      [
        "s",
        "atz"
      ],
      [
        "u",
        "le"
      ],
      [
        "ver",
        "l"
      ],
      [
        "z",
        "er"
      ],
      [
        "au",
        "er"
      ],
      [
        "om",
        "men"
      ],
      [
        "i",
        "o"
      ],
      [
        "w",
        "alt"
      ],
      [
        "ann",
        "t"
      ],
      [
        "Au",
        "ch"
      ],
      [
        "sam",
        "men"
      ],
      [
        "nah",
        "m"
      ],
      [
        "zu",
        "sammen"
      ],
      [
        "is",
        "on"
      ],
      [
        "am",
        "er"
      ],
      [
        "hl",
        "en"
      ],
      [
        "Gemein",
        "de"
      ],
      [
        "an",
        "des"
      ],
      [
        "uch",
        "t"
      ],
      [
        "P",
        "f"
      ],
      [
        "g",
        "te"
      ],
      [
        "h",
        "ol"
      ],
      [
        "M",
        "in"
      ],
      [
        "sch",
        "on"
      ],
      [
        "wei",
        "l"
      ],
      [
        "Le",
        "ben"
      ],
      [
        "F",
        "ür"
      ],
      [
        "m",
        "ach"
      ],
      [
        "z",
        "un"
      ],
      [
        "ver",
        "schieden"
      ],
      [
        "S",
        "eit"
      ],
      [
        "ge",
        "f"
      ],
      [
        "ar",
        "r"
      ],
      [
        "1",
        "3"
      ],
      [
        "D",
        "urch"
      ],
      [
        "G",
        "l"
      ],
      [
        "L",
        "u"
      ],
      [
        "un",
        "de"
      ],
      [
        "an",
        "k"
      ],
      [
        "00",
        "0"
      ],
      [
        "ation",
        "en"
      ],
      [
        "ander",
        "en"
      ],
      [
        "Ber",
        "lin"
      ],
      [
        ".",
        "."
      ],
      [
        "M",
        "on"
      ],
      [
        "g",
        "ut"
      ],
      [
        "h",
        "ö"
      ],
      [
        "o",
        "hn"
      ],
      [
        "p",
        "un"
      ],
      [
        "er",
        "e"
      ],
      [
        "b",
        "el"
      ],
      [
        "gr",
        "und"
      ],
      [
        "la",
        "gen"
      ],
      [
        "Ein",
        "e"
      ],
      [
        "P",
        "h"
      ],
      [
        "k",
        "m"
      ],
      [
        "t",
        "t"
      ],
      [
        "Sch",
        "l"
      ],
      [
        "än",
        "ger"
      ],
      [
        "äch",
        "st"
      ],
      [
        "dam",
        "it"
      ],
      [
        "E",
        "l"
      ],
      [
        "F",
        "or"
      ],
      [
        "P",
        "ers"
      ],
      [
        "s",
        "y"
      ],
      [
        "st",
        "att"
      ],
      [
        "is",
        "s"
      ],
      [
        "k",
        "o"
      ],
      [
        "u",
        "ten"
      ],
      [
        "in",
        "ter"
      ],
      [
        "an",
        "s"
      ],
      [
        "ge",
        "sam"
      ],
      [
        "re",
        "ch"
      ],
      [
        "Mit",
        "glie"
      ],
      [
        "ho",
        "f"
      ],
      [
        "G",
        "ra"
      ],
      [
        "g",
        "ab"
      ],
      [
        "p",
        "e"
      ],
      [
        "r",
        "on"
      ],
      [
        "z",
        "el"
      ],
      [
        "ü",
        "h"
      ],
      [
        "as",
        "se"
      ],
      [
        "la",
        "ge"
      ],
      [
        "stell",
        "ung"
      ],
      [
        "f",
        "te"
      ],
      [
        "der",
        "t"
      ],
      [
        "al",
        "ien"
      ],
      [
        "am",
        "men"
      ],
      [
        "En",
        "de"
      ],
      [
        "K",
        "in"
      ],
      [
        "d",
        "ings"
      ],
      [
        "i",
        "tel"
      ],
      [
        "s",
        "ol"
      ],
      [
        "w",
        "ä"
      ],
      [
        "w",
        "ährend"
      ],
      [
        "st",
        "adt"
      ],
      [
        "ist",
        "en"
      ],
      [
        "19",
        "2"
      ],
      [
        "rei",
        "chen"
      ],
      [
        "mei",
        "ster"
      ],
      [
        "1",
        "1"
      ],
      [
        "F",
        "ilm"
      ],
      [
        "i",
        "f"
      ],
      [
        "m",
        "als"
      ],
      [
        "o",
        "gen"
      ],
      [
        "ist",
        "er"
      ],
      [
        "re",
        "u"
      ],
      [
        "Fran",
        "k"
      ],
      [
        "A",
        "m"
      ],
      [
        "M",
        "an"
      ],
      [
        "b",
        "ahn"
      ],
      [
        "w",
        "eit"
      ],
      [
        "st",
        "em"
      ],
      [
        "ei",
        "ster"
      ],
      [
        "re",
        "g"
      ],
      [
        "ion",
        "en"
      ],
      [
        "bei",
        "den"
      ],
      [
        "T",
        "ra"
      ],
      [
        "f",
        "ang"
      ],
      [
        "et",
        "t"
      ],
      [
        "A",
        "ut"
      ],
      [
        "H",
        "ei"
      ],
      [
        "e",
        "x"
      ],
      [
        "u",
        "er"
      ],
      [
        "der",
        "n"
      ],
      [
        "ge",
        "st"
      ],
      [
        "ber",
        "eits"
      ],
      [
        "Was",
        "ser"
      ],
      [
        "G",
        "en"
      ],
      [
        "K",
        "ön"
      ],
      [
        "f",
        "ach"
      ],
      [
        "k",
        "eine"
      ],
      [
        "o",
        "ber"
      ],
      [
        "zu",
        "g"
      ],
      [
        "wer",
        "k"
      ],
      [
        "ri",
        "ft"
      ],
      [
        "0",
        "er"
      ],
      [
        "h",
        "andel"
      ],
      [
        "ol",
        "d"
      ],
      [
        "rie",
        "ben"
      ],
      [
        "ha",
        "be"
      ],
      [
        "ihr",
        "er"
      ],
      [
        "T",
        "r"
      ],
      [
        "V",
        "ol"
      ],
      [
        "y",
        "p"
      ],
      [
        "Die",
        "s"
      ],
      [
        "fall",
        "s"
      ],
      [
        "F",
        "ahr"
      ],
      [
        "Z",
        "us"
      ],
      [
        "w",
        "el"
      ],
      [
        "den",
        "t"
      ],
      [
        "än",
        "g"
      ],
      [
        "upp",
        "e"
      ],
      [
        "M",
        "o"
      ],
      [
        "ä",
        "ft"
      ],
      [
        "st",
        "ein"
      ],
      [
        "gr",
        "iff"
      ],
      [
        "zi",
        "al"
      ],
      [
        "Sa",
        "ison"
      ],
      [
        "Famil",
        "ie"
      ],
      [
        "S",
        "er"
      ],
      [
        "U",
        "r"
      ],
      [
        "f",
        "ern"
      ],
      [
        "n",
        "a"
      ],
      [
        "st",
        "a"
      ],
      [
        "gen",
        "ommen"
      ],
      [
        "em",
        "pf"
      ],
      [
        "Ver",
        "b"
      ],
      [
        "Pl",
        "atz"
      ],
      [
        "bekann",
        "t"
      ],
      [
        "Kön",
        "ig"
      ],
      [
        "K",
        "rieg"
      ],
      [
        "f",
        "rei"
      ],
      [
        "u",
        "bl"
      ],
      [
        "es",
        "en"
      ],
      [
        "be",
        "zeich"
      ],
      [
        "we",
        "st"
      ],
      [
        "Mus",
        "ik"
      ],
      [
        "S",
        "üd"
      ],
      [
        "m",
        "pf"
      ],
      [
        "y",
        "n"
      ],
      [
        "wer",
        "t"
      ],
      [
        "we",
        "gen"
      ],
      [
        "da",
        "bei"
      ],
      [
        "G",
        "er"
      ],
      [
        "P",
        "ol"
      ],
      [
        "o",
        "ur"
      ],
      [
        "fe",
        "st"
      ],
      [
        "öff",
        "entlich"
      ],
      [
        "K",
        "o"
      ],
      [
        "p",
        "olit"
      ],
      [
        "t",
        "lich"
      ],
      [
        "v",
        "oll"
      ],
      [
        "z",
        "iel"
      ],
      [
        "ge",
        "hen"
      ],
      [
        "hei",
        "m"
      ],
      [
        "fahr",
        "en"
      ],
      [
        "Univers",
        "ität"
      ],
      [
        "B",
        "il"
      ],
      [
        "D",
        "i"
      ],
      [
        "K",
        "ur"
      ],
      [
        "on",
        "t"
      ],
      [
        "be",
        "tr"
      ],
      [
        "ig",
        "a"
      ],
      [
        "ihr",
        "en"
      ],
      [
        "D",
        "r"
      ],
      [
        "J",
        "u"
      ],
      [
        "Z",
        "wei"
      ],
      [
        "o",
        "ten"
      ],
      [
        "w",
        "oll"
      ],
      [
        "on",
        "en"
      ],
      [
        "ach",
        "sen"
      ],
      [
        "ck",
        "t"
      ],
      [
        "D",
        "en"
      ],
      [
        "H",
        "och"
      ],
      [
        "R",
        "ei"
      ],
      [
        "b",
        "in"
      ],
      [
        "äl",
        "t"
      ],
      [
        "R",
        "a"
      ],
      [
        "un",
        "st"
      ],
      [
        "fü",
        "n"
      ],
      [
        "ab",
        "ge"
      ],
      [
        "Ein",
        "wohn"
      ],
      [
        "Pro",
        "zent"
      ],
      [
        "schl",
        "uss"
      ],
      [
        "1",
        "4"
      ],
      [
        "k",
        "auf"
      ],
      [
        "s",
        "uch"
      ],
      [
        "s",
        "onder"
      ],
      [
        "er",
        "reich"
      ],
      [
        "ch",
        "sel"
      ],
      [
        "it",
        "zen"
      ],
      [
        "lich",
        "er"
      ],
      [
        "Sp",
        "r"
      ],
      [
        "ic",
        "e"
      ],
      [
        "gan",
        "is"
      ],
      [
        "erh",
        "ielt"
      ],
      [
        "sonder",
        "n"
      ],
      [
        "B",
        "ahn"
      ],
      [
        "C",
        "hr"
      ],
      [
        "D",
        "an"
      ],
      [
        "D",
        "ar"
      ],
      [
        "H",
        "aus"
      ],
      [
        "be",
        "findet"
      ],
      [
        "des",
        "sen"
      ],
      [
        "F",
        "rei"
      ],
      [
        "M",
        "al"
      ],
      [
        "g",
        "ang"
      ],
      [
        "o",
        "u"
      ],
      [
        "t",
        "h"
      ],
      [
        "er",
        "folg"
      ],
      [
        "il",
        "it"
      ],
      [
        "pp",
        "en"
      ],
      [
        "Mit",
        "tel"
      ],
      [
        "fin",
        "den"
      ],
      [
        "F",
        "re"
      ],
      [
        "a",
        "z"
      ],
      [
        "a",
        "kt"
      ],
      [
        "z",
        "ähl"
      ],
      [
        "er",
        "sch"
      ],
      [
        "Gr",
        "ün"
      ],
      [
        "Ne",
        "u"
      ],
      [
        "neu",
        "e"
      ],
      [
        "alle",
        "m"
      ],
      [
        "Men",
        "schen"
      ],
      [
        "P",
        "rä"
      ],
      [
        "i",
        "p"
      ],
      [
        "ier",
        "e"
      ],
      [
        "In",
        "ter"
      ],
      [
        "wir",
        "tschaft"
      ],
      [
        "Al",
        "b"
      ],
      [
        "Gro",
        "ß"
      ],
      [
        "F",
        "ol"
      ],
      [
        "L",
        "andes"
      ],
      [
        "M",
        "ill"
      ],
      [
        "ü",
        "l"
      ],
      [
        "ge",
        "stellt"
      ],
      [
        "el",
        "s"
      ],
      [
        "sp",
        "e"
      ],
      [
        "ür",
        "ger"
      ],
      [
        "Pro",
        "du"
      ],
      [
        "So",
        "hn"
      ],
      [
        "E",
        "is"
      ],
      [
        "a",
        "v"
      ],
      [
        "in",
        "z"
      ],
      [
        "den",
        "en"
      ],
      [
        "ach",
        "e"
      ],
      [
        "re",
        "cht"
      ],
      [
        "We",
        "st"
      ],
      [
        "mö",
        "glich"
      ],
      [
        "E",
        "urop"
      ],
      [
        "H",
        "ier"
      ],
      [
        "f",
        "eld"
      ],
      [
        "o",
        "st"
      ],
      [
        "p",
        "ar"
      ],
      [
        "v",
        "öl"
      ],
      [
        "v",
        "iele"
      ],
      [
        "ä",
        "d"
      ],
      [
        "am",
        "e"
      ],
      [
        "ze",
        "u"
      ],
      [
        "tern",
        "ational"
      ],
      [
        "zun",
        "ächst"
      ],
      [
        "5",
        "0"
      ],
      [
        "F",
        "orm"
      ],
      [
        "R",
        "eich"
      ],
      [
        "i",
        "b"
      ],
      [
        "m",
        "ar"
      ],
      [
        "w",
        "icht"
      ],
      [
        "z",
        "ös"
      ],
      [
        "en",
        "de"
      ],
      [
        "in",
        "ger"
      ],
      [
        "ein",
        "ige"
      ],
      [
        "se",
        "ch"
      ],
      [
        "re",
        "kt"
      ],
      [
        "fr",
        "ü"
      ],
      [
        "R",
        "ück"
      ],
      [
        "f",
        "ran"
      ],
      [
        "h",
        "un"
      ],
      [
        "k",
        "ten"
      ],
      [
        "o",
        "ck"
      ],
      [
        "w",
        "orden"
      ],
      [
        "y",
        "s"
      ],
      [
        "ig",
        "t"
      ],
      [
        "Sch",
        "ul"
      ],
      [
        "lie",
        "gen"
      ],
      [
        "ot",
        "t"
      ],
      [
        "dar",
        "auf"
      ],
      [
        "Her",
        "r"
      ],
      [
        "tre",
        "ten"
      ],
      [
        "oh",
        "ne"
      ],
      [
        "schlos",
        "sen"
      ],
      [
        "pun",
        "kt"
      ],
      [
        "H",
        "ö"
      ],
      [
        "N",
        "ational"
      ],
      [
        "k",
        "ün"
      ],
      [
        "u",
        "f"
      ],
      [
        "z",
        "t"
      ],
      [
        "it",
        "y"
      ],
      [
        "Ver",
        "ein"
      ],
      [
        "nah",
        "me"
      ],
      [
        "Fl",
        "ug"
      ],
      [
        "issen",
        "schaft"
      ],
      [
        "M",
        "ün"
      ],
      [
        "N",
        "ieder"
      ],
      [
        "T",
        "er"
      ],
      [
        "b",
        "le"
      ],
      [
        "d",
        "an"
      ],
      [
        "ch",
        "n"
      ],
      [
        "sch",
        "ule"
      ],
      [
        "ge",
        "le"
      ],
      [
        "at",
        "or"
      ],
      [
        "19",
        "0"
      ],
      [
        "St",
        "and"
      ],
      [
        "hal",
        "t"
      ],
      [
        "wen",
        "n"
      ],
      [
        "Te",
        "am"
      ],
      [
        "P",
        "ar"
      ],
      [
        "S",
        "te"
      ],
      [
        "W",
        "ahl"
      ],
      [
        "n",
        "ie"
      ],
      [
        "in",
        "nen"
      ],
      [
        "der",
        "en"
      ],
      [
        "An",
        "t"
      ],
      [
        "tr",
        "at"
      ],
      [
        "tra",
        "gen"
      ],
      [
        "Reg",
        "ion"
      ],
      [
        "Wei",
        "ter"
      ],
      [
        "b",
        "ach"
      ],
      [
        "k",
        "rieg"
      ],
      [
        "p",
        "en"
      ],
      [
        "an",
        "gen"
      ],
      [
        "or",
        "n"
      ],
      [
        "is",
        "mus"
      ],
      [
        "amer",
        "ikan"
      ],
      [
        "H",
        "ol"
      ],
      [
        "S",
        "u"
      ],
      [
        "Z",
        "ent"
      ],
      [
        "h",
        "ält"
      ],
      [
        "j",
        "ähr"
      ],
      [
        "k",
        "reis"
      ],
      [
        "v",
        "e"
      ],
      [
        "v",
        "en"
      ],
      [
        "in",
        "ner"
      ],
      [
        "ge",
        "grün"
      ],
      [
        "l",
        "assen"
      ],
      [
        "t",
        "ag"
      ],
      [
        "z",
        "ei"
      ],
      [
        "un",
        "s"
      ],
      [
        "st",
        "ie"
      ],
      [
        "und",
        "lich"
      ],
      [
        "iv",
        "en"
      ],
      [
        "aller",
        "dings"
      ],
      [
        "Zus",
        "ammen"
      ],
      [
        "J",
        "e"
      ],
      [
        "k",
        "el"
      ],
      [
        "u",
        "se"
      ],
      [
        "ö",
        "st"
      ],
      [
        "st",
        "ar"
      ],
      [
        "al",
        "igen"
      ],
      [
        "ck",
        "er"
      ],
      [
        "stell",
        "en"
      ],
      [
        "Ar",
        "t"
      ],
      [
        "B",
        "a"
      ],
      [
        "C",
        "om"
      ],
      [
        "D",
        "o"
      ],
      [
        "O",
        "b"
      ],
      [
        "W",
        "a"
      ],
      [
        "a",
        "te"
      ],
      [
        "b",
        "all"
      ],
      [
        "f",
        "ort"
      ],
      [
        "k",
        "eiten"
      ],
      [
        "m",
        "at"
      ],
      [
        "al",
        "ter"
      ],
      [
        "ent",
        "wick"
      ],
      [
        "200",
        "7"
      ],
      [
        "Le",
        "hr"
      ],
      [
        "Unter",
        "nehmen"
      ],
      [
        "stra",
        "ße"
      ],
      [
        "F",
        "in"
      ],
      [
        "T",
        "h"
      ],
      [
        "f",
        "ess"
      ],
      [
        "i",
        "de"
      ],
      [
        "st",
        "anden"
      ],
      [
        "be",
        "f"
      ],
      [
        "ver",
        "ein"
      ],
      [
        "kt",
        "ur"
      ],
      [
        "Ge",
        "gen"
      ],
      [
        "ander",
        "em"
      ],
      [
        "fran",
        "zös"
      ],
      [
        "A",
        "t"
      ],
      [
        "F",
        "ern"
      ],
      [
        "i",
        "al"
      ],
      [
        "m",
        "ä"
      ],
      [
        "er",
        "t"
      ],
      [
        "St",
        "r"
      ],
      [
        "wir",
        "k"
      ],
      [
        "Re",
        "ch"
      ],
      [
        "we",
        "g"
      ],
      [
        "we",
        "chsel"
      ],
      [
        "ze",
        "ug"
      ],
      [
        "ander",
        "e"
      ],
      [
        "fol",
        "gen"
      ],
      [
        "weiter",
        "e"
      ],
      [
        "gehör",
        "t"
      ],
      [
        "gro",
        "ßen"
      ],
      [
        "beg",
        "ann"
      ],
      [
        "B",
        "ur"
      ],
      [
        "S",
        "on"
      ],
      [
        "S",
        "eine"
      ],
      [
        "m",
        "m"
      ],
      [
        "r",
        "um"
      ],
      [
        "w",
        "elt"
      ],
      [
        "sch",
        "w"
      ],
      [
        "ell",
        "schaft"
      ],
      [
        "tra",
        "g"
      ],
      [
        "kur",
        "z"
      ],
      [
        "dies",
        "es"
      ],
      [
        "besonder",
        "e"
      ],
      [
        "a",
        "c"
      ],
      [
        "ar",
        "ten"
      ],
      [
        "es",
        "sen"
      ],
      [
        "ver",
        "wen"
      ],
      [
        "Ar",
        "beit"
      ],
      [
        "br",
        "it"
      ],
      [
        "kom",
        "mt"
      ],
      [
        "führ",
        "te"
      ],
      [
        "deut",
        "schen"
      ],
      [
        "olog",
        "ie"
      ],
      [
        "fün",
        "f"
      ],
      [
        "f",
        "äl"
      ],
      [
        "er",
        "g"
      ],
      [
        "ra",
        "d"
      ],
      [
        "ne",
        "ben"
      ],
      [
        "än",
        "de"
      ],
      [
        "Au",
        "g"
      ],
      [
        "ster",
        "reich"
      ],
      [
        "mehr",
        "ere"
      ],
      [
        "ßer",
        "dem"
      ],
      [
        "Kin",
        "der"
      ],
      [
        "B",
        "and"
      ],
      [
        "u",
        "e"
      ],
      [
        "in",
        "a"
      ],
      [
        "ein",
        "ander"
      ],
      [
        "he",
        "ut"
      ],
      [
        "geb",
        "aut"
      ],
      [
        "soll",
        "te"
      ],
      [
        "eben",
        "falls"
      ],
      [
        "ult",
        "ur"
      ],
      [
        "F",
        "rie"
      ],
      [
        "O",
        "st"
      ],
      [
        "T",
        "or"
      ],
      [
        "T",
        "itel"
      ],
      [
        "m",
        "ir"
      ],
      [
        "s",
        "üd"
      ],
      [
        "in",
        "en"
      ],
      [
        "isch",
        "es"
      ],
      [
        "em",
        "ber"
      ],
      [
        "än",
        "d"
      ],
      [
        "An",
        "fang"
      ],
      [
        "neu",
        "en"
      ],
      [
        "D",
        "em"
      ],
      [
        "R",
        "om"
      ],
      [
        "S",
        "ein"
      ],
      [
        "e",
        "hem"
      ],
      [
        "j",
        "ahr"
      ],
      [
        "w",
        "ill"
      ],
      [
        "ü",
        "t"
      ],
      [
        "on",
        "s"
      ],
      [
        "hr",
        "en"
      ],
      [
        "am",
        "t"
      ],
      [
        "auf",
        "ge"
      ],
      [
        "ör",
        "d"
      ],
      [
        "ät",
        "ig"
      ],
      [
        "Ne",
        "ben"
      ],
      [
        "Kom",
        "m"
      ],
      [
        "F",
        "uß"
      ],
      [
        "J",
        "oh"
      ],
      [
        "K",
        "unst"
      ],
      [
        "P",
        "ra"
      ],
      [
        "z",
        "og"
      ],
      [
        "un",
        "t"
      ],
      [
        "al",
        "ität"
      ],
      [
        "le",
        "ben"
      ],
      [
        "hat",
        "ten"
      ],
      [
        "mei",
        "st"
      ],
      [
        "Part",
        "ei"
      ],
      [
        "H",
        "il"
      ],
      [
        "M",
        "et"
      ],
      [
        "b",
        "o"
      ],
      [
        "c",
        "a"
      ],
      [
        "l",
        "au"
      ],
      [
        "r",
        "und"
      ],
      [
        "s",
        "ätz"
      ],
      [
        "st",
        "ud"
      ],
      [
        "ver",
        "öffentlich"
      ],
      [
        "re",
        "chen"
      ],
      [
        "Ver",
        "walt"
      ],
      [
        "os",
        "s"
      ],
      [
        "uch",
        "te"
      ],
      [
        "geb",
        "iet"
      ],
      [
        "gro",
        "ße"
      ],
      [
        "pl",
        "atz"
      ],
      [
        "ilit",
        "är"
      ],
      [
        "A",
        "d"
      ],
      [
        "H",
        "and"
      ],
      [
        "T",
        "ur"
      ],
      [
        "Z",
        "ahl"
      ],
      [
        "d",
        "orf"
      ],
      [
        "h",
        "and"
      ],
      [
        "u",
        "ar"
      ],
      [
        "z",
        "ir"
      ],
      [
        "al",
        "ten"
      ],
      [
        "el",
        "n"
      ],
      [
        "200",
        "6"
      ],
      [
        "18",
        "9"
      ],
      [
        "äu",
        "de"
      ],
      [
        "spr",
        "ün"
      ],
      [
        "Kir",
        "che"
      ],
      [
        "Gen",
        "er"
      ],
      [
        "4",
        "0"
      ],
      [
        "E",
        "le"
      ],
      [
        "P",
        "at"
      ],
      [
        "d",
        "ah"
      ],
      [
        "i",
        "te"
      ],
      [
        "t",
        "ro"
      ],
      [
        "w",
        "ür"
      ],
      [
        "in",
        "er"
      ],
      [
        "ei",
        "le"
      ],
      [
        "ar",
        "e"
      ],
      [
        "ro",
        "m"
      ],
      [
        "um",
        "s"
      ],
      [
        "Jahr",
        "hun"
      ],
      [
        "stän",
        "d"
      ],
      [
        "Bet",
        "rieb"
      ],
      [
        "schließ",
        "lich"
      ],
      [
        "Mitglie",
        "d"
      ],
      [
        "empf",
        "e"
      ],
      [
        "bezeich",
        "net"
      ],
      [
        "sech",
        "s"
      ],
      [
        "3",
        "0"
      ],
      [
        "K",
        "an"
      ],
      [
        "L",
        "in"
      ],
      [
        "N",
        "amen"
      ],
      [
        "O",
        "l"
      ],
      [
        "W",
        "ien"
      ],
      [
        "b",
        "lie"
      ],
      [
        "d",
        "ition"
      ],
      [
        "k",
        "a"
      ],
      [
        "l",
        "auf"
      ],
      [
        "m",
        "ut"
      ],
      [
        "n",
        "un"
      ],
      [
        "w",
        "or"
      ],
      [
        "st",
        "u"
      ],
      [
        "st",
        "re"
      ],
      [
        "st",
        "ütz"
      ],
      [
        "sch",
        "wer"
      ],
      [
        "au",
        "l"
      ],
      [
        "ar",
        "beit"
      ],
      [
        "es",
        "se"
      ],
      [
        "In",
        "sel"
      ],
      [
        "ik",
        "er"
      ],
      [
        "kl",
        "är"
      ],
      [
        "nah",
        "men"
      ],
      [
        "Ne",
        "w"
      ],
      [
        "spiel",
        "te"
      ],
      [
        "rit",
        "ten"
      ],
      [
        "pro",
        "du"
      ],
      [
        "arbei",
        "ten"
      ],
      [
        "arbei",
        "tete"
      ],
      [
        "grö",
        "ß"
      ],
      [
        "völ",
        "ker"
      ],
      [
        "B",
        "uch"
      ],
      [
        "I",
        "s"
      ],
      [
        "K",
        "ap"
      ],
      [
        "b",
        "ie"
      ],
      [
        "g",
        "ing"
      ],
      [
        "ol",
        "f"
      ],
      [
        "da",
        "von"
      ],
      [
        "200",
        "9"
      ],
      [
        "äch",
        "e"
      ],
      [
        "äu",
        "f"
      ],
      [
        "sein",
        "es"
      ],
      [
        "upp",
        "en"
      ],
      [
        "gemein",
        "sam"
      ],
      [
        "Vol",
        "ks"
      ],
      [
        "Einwohn",
        "er"
      ],
      [
        "B",
        "as"
      ],
      [
        "K",
        "r"
      ],
      [
        "W",
        "ährend"
      ],
      [
        "l",
        "eich"
      ],
      [
        "s",
        "st"
      ],
      [
        "u",
        "p"
      ],
      [
        "un",
        "i"
      ],
      [
        "die",
        "sen"
      ],
      [
        "le",
        "b"
      ],
      [
        "il",
        "le"
      ],
      [
        "sp",
        "ro"
      ],
      [
        "Ar",
        "ch"
      ],
      [
        "deut",
        "sch"
      ],
      [
        "gehör",
        "te"
      ],
      [
        "schie",
        "d"
      ],
      [
        "letz",
        "ten"
      ],
      [
        "Fe",
        "st"
      ],
      [
        "Lu",
        "ft"
      ],
      [
        "M",
        "eister"
      ],
      [
        "c",
        "o"
      ],
      [
        "h",
        "el"
      ],
      [
        "i",
        "us"
      ],
      [
        "k",
        "ir"
      ],
      [
        "o",
        "se"
      ],
      [
        "un",
        "ktion"
      ],
      [
        "on",
        "d"
      ],
      [
        "as",
        "st"
      ],
      [
        "än",
        "ge"
      ],
      [
        "all",
        "en"
      ],
      [
        "im",
        "mt"
      ],
      [
        "her",
        "r"
      ],
      [
        "Al",
        "l"
      ],
      [
        "erst",
        "mals"
      ],
      [
        "Joh",
        "ann"
      ],
      [
        "1",
        "00"
      ],
      [
        "B",
        "ar"
      ],
      [
        "F",
        "ra"
      ],
      [
        "H",
        "am"
      ],
      [
        "K",
        "am"
      ],
      [
        "a",
        "de"
      ],
      [
        "o",
        "ft"
      ],
      [
        "p",
        "lan"
      ],
      [
        "er",
        "en"
      ],
      [
        "on",
        "e"
      ],
      [
        "is",
        "se"
      ],
      [
        "St",
        "re"
      ],
      [
        "um",
        "en"
      ],
      [
        "Gr",
        "uppe"
      ],
      [
        "20",
        "10"
      ],
      [
        "spr",
        "ach"
      ],
      [
        "utz",
        "t"
      ],
      [
        "min",
        "ister"
      ],
      [
        "Ph",
        "il"
      ],
      [
        "gesam",
        "t"
      ],
      [
        "D",
        "ort"
      ],
      [
        "F",
        "ir"
      ],
      [
        "I",
        "t"
      ],
      [
        "P",
        "D"
      ],
      [
        "S",
        "al"
      ],
      [
        "W",
        "ohn"
      ],
      [
        "n",
        "örd"
      ],
      [
        "er",
        "halten"
      ],
      [
        "st",
        "ru"
      ],
      [
        "be",
        "steht"
      ],
      [
        "ig",
        "ung"
      ],
      [
        "Sch",
        "iff"
      ],
      [
        "hn",
        "t"
      ],
      [
        "200",
        "8"
      ],
      [
        "reich",
        "e"
      ],
      [
        "nis",
        "se"
      ],
      [
        "ga",
        "be"
      ],
      [
        "stie",
        "g"
      ],
      [
        "6",
        "0"
      ],
      [
        "L",
        "ie"
      ],
      [
        "b",
        "ung"
      ],
      [
        "l",
        "ä"
      ],
      [
        "m",
        "uss"
      ],
      [
        "s",
        "weise"
      ],
      [
        "w",
        "end"
      ],
      [
        "w",
        "ahl"
      ],
      [
        "x",
        "is"
      ],
      [
        "st",
        "off"
      ],
      [
        "sch",
        "le"
      ],
      [
        "ur",
        "t"
      ],
      [
        "gen",
        "ann"
      ],
      [
        "be",
        "de"
      ],
      [
        "ist",
        "or"
      ],
      [
        "als",
        "o"
      ],
      [
        "och",
        "en"
      ],
      [
        "geb",
        "r"
      ],
      [
        "ihr",
        "em"
      ],
      [
        "ru",
        "ck"
      ],
      [
        "reu",
        "z"
      ],
      [
        "Alb",
        "um"
      ],
      [
        "stud",
        "ierte"
      ],
      [
        "B",
        "ürger"
      ],
      [
        "D",
        "es"
      ],
      [
        "K",
        "ar"
      ],
      [
        "M",
        "ot"
      ],
      [
        "P",
        "reis"
      ],
      [
        "S",
        "ü"
      ],
      [
        "T",
        "ro"
      ],
      [
        "Z",
        "w"
      ],
      [
        "h",
        "ein"
      ],
      [
        "en",
        "den"
      ],
      [
        "sch",
        "ein"
      ],
      [
        "al",
        "is"
      ],
      [
        "Au",
        "ft"
      ],
      [
        "Pro",
        "v"
      ],
      [
        "je",
        "kt"
      ],
      [
        "je",
        "weil"
      ],
      [
        "18",
        "7"
      ],
      [
        "gew",
        "ann"
      ],
      [
        "Ent",
        "wick"
      ],
      [
        "ubl",
        "ik"
      ],
      [
        "Chr",
        "ist"
      ],
      [
        "I",
        "I"
      ],
      [
        "S",
        "itz"
      ],
      [
        "d",
        "o"
      ],
      [
        "h",
        "ör"
      ],
      [
        "m",
        "ich"
      ],
      [
        "w",
        "ahr"
      ],
      [
        "w",
        "issenschaft"
      ],
      [
        "un",
        "ser"
      ],
      [
        "at",
        "h"
      ],
      [
        "il",
        "om"
      ],
      [
        "sich",
        "t"
      ],
      [
        "os",
        "ition"
      ],
      [
        "200",
        "0"
      ],
      [
        "gan",
        "z"
      ],
      [
        "Frank",
        "reich"
      ],
      [
        "handel",
        "t"
      ],
      [
        "Fol",
        "ge"
      ],
      [
        "D",
        "orf"
      ],
      [
        "I",
        "hr"
      ],
      [
        "P",
        "un"
      ],
      [
        "P",
        "eter"
      ],
      [
        "R",
        "en"
      ],
      [
        "W",
        "il"
      ],
      [
        "s",
        "on"
      ],
      [
        "z",
        "ogen"
      ],
      [
        "ä",
        "h"
      ],
      [
        "er",
        "rich"
      ],
      [
        "st",
        "it"
      ],
      [
        "st",
        "är"
      ],
      [
        "ur",
        "sprün"
      ],
      [
        "is",
        "er"
      ],
      [
        "ach",
        "te"
      ],
      [
        "re",
        "t"
      ],
      [
        "ra",
        "ft"
      ],
      [
        "ation",
        "s"
      ],
      [
        "ze",
        "hn"
      ],
      [
        "gew",
        "ähl"
      ],
      [
        "weiter",
        "en"
      ],
      [
        "bur",
        "ger"
      ],
      [
        "fre",
        "undlich"
      ],
      [
        "Stu",
        "di"
      ],
      [
        "Aug",
        "ust"
      ],
      [
        "B",
        "i"
      ],
      [
        "C",
        "ar"
      ],
      [
        "L",
        "i"
      ],
      [
        "P",
        "er"
      ],
      [
        "s",
        "u"
      ],
      [
        "sch",
        "rei"
      ],
      [
        "sch",
        "rift"
      ],
      [
        "it",
        "er"
      ],
      [
        "be",
        "d"
      ],
      [
        "ent",
        "standen"
      ],
      [
        "om",
        "mer"
      ],
      [
        "ik",
        "a"
      ],
      [
        "da",
        "zu"
      ],
      [
        "Me",
        "ter"
      ],
      [
        "schn",
        "itt"
      ],
      [
        "mä",
        "ß"
      ],
      [
        "D",
        "am"
      ],
      [
        "S",
        "ei"
      ],
      [
        "f",
        "ra"
      ],
      [
        "s",
        "or"
      ],
      [
        "s",
        "itzen"
      ],
      [
        "w",
        "es"
      ],
      [
        "ä",
        "gt"
      ],
      [
        "ü",
        "b"
      ],
      [
        "ch",
        "er"
      ],
      [
        "de",
        "ten"
      ],
      [
        "gen",
        "annt"
      ],
      [
        "Sch",
        "w"
      ],
      [
        "ind",
        "ung"
      ],
      [
        "sten",
        "s"
      ],
      [
        "ück",
        "e"
      ],
      [
        "geh",
        "t"
      ],
      [
        "bil",
        "dung"
      ],
      [
        "Wer",
        "k"
      ],
      [
        "Gesch",
        "ichte"
      ],
      [
        "empfe",
        "hlen"
      ],
      [
        "B",
        "is"
      ],
      [
        "D",
        "on"
      ],
      [
        "G",
        "el"
      ],
      [
        "J",
        "ul"
      ],
      [
        "J",
        "uni"
      ],
      [
        "P",
        "olit"
      ],
      [
        "R",
        "ad"
      ],
      [
        "l",
        "os"
      ],
      [
        "p",
        "a"
      ],
      [
        "ü",
        "gel"
      ],
      [
        "sch",
        "t"
      ],
      [
        "ein",
        "fach"
      ],
      [
        "au",
        "p"
      ],
      [
        "am",
        "ent"
      ],
      [
        "ber",
        "t"
      ],
      [
        "sp",
        "rechen"
      ],
      [
        "et",
        "was"
      ],
      [
        "ff",
        "e"
      ],
      [
        "Be",
        "völker"
      ],
      [
        "ör",
        "per"
      ],
      [
        "og",
        "ra"
      ],
      [
        "schn",
        "ell"
      ],
      [
        "Geb",
        "iet"
      ],
      [
        "si",
        "dent"
      ],
      [
        "üs",
        "sen"
      ],
      [
        "R",
        "icht"
      ],
      [
        "S",
        "an"
      ],
      [
        "T",
        "ag"
      ],
      [
        "n",
        "am"
      ],
      [
        "w",
        "ort"
      ],
      [
        "st",
        "au"
      ],
      [
        "sch",
        "utz"
      ],
      [
        "ion",
        "s"
      ],
      [
        "lie",
        "ßen"
      ],
      [
        "Al",
        "t"
      ],
      [
        "stell",
        "te"
      ],
      [
        "haus",
        "en"
      ],
      [
        "Frau",
        "en"
      ],
      [
        "erreich",
        "te"
      ],
      [
        "gegrün",
        "det"
      ],
      [
        "N",
        "atur"
      ],
      [
        "P",
        "a"
      ],
      [
        "S",
        "tel"
      ],
      [
        "b",
        "eits"
      ],
      [
        "h",
        "ä"
      ],
      [
        "j",
        "a"
      ],
      [
        "o",
        "ster"
      ],
      [
        "v",
        "an"
      ],
      [
        "y",
        "stem"
      ],
      [
        "ä",
        "mpf"
      ],
      [
        "ge",
        "t"
      ],
      [
        "it",
        "ter"
      ],
      [
        "le",
        "gt"
      ],
      [
        "Sch",
        "wei"
      ],
      [
        "Er",
        "st"
      ],
      [
        "18",
        "8"
      ],
      [
        "sei",
        "te"
      ],
      [
        "Krieg",
        "s"
      ],
      [
        "verwen",
        "det"
      ],
      [
        "B",
        "ay"
      ],
      [
        "M",
        "än"
      ],
      [
        "O",
        "kt"
      ],
      [
        "R",
        "u"
      ],
      [
        "V",
        "ater"
      ],
      [
        "g",
        "ute"
      ],
      [
        "r",
        "es"
      ],
      [
        "t",
        "he"
      ],
      [
        "w",
        "ig"
      ],
      [
        "al",
        "te"
      ],
      [
        "or",
        "e"
      ],
      [
        "is",
        "e"
      ],
      [
        "la",
        "ger"
      ],
      [
        "Sp",
        "ort"
      ],
      [
        "gel",
        "ang"
      ],
      [
        "Fl",
        "uss"
      ],
      [
        "rit",
        "t"
      ],
      [
        "20",
        "11"
      ],
      [
        "Wir",
        "tschaft"
      ],
      [
        "Da",
        "bei"
      ],
      [
        "Welt",
        "krieg"
      ],
      [
        "ga",
        "ben"
      ],
      [
        "stän",
        "dig"
      ],
      [
        "viel",
        "en"
      ],
      [
        "grö",
        "ßer"
      ],
      [
        "frü",
        "her"
      ],
      [
        "D",
        "ien"
      ],
      [
        "p",
        "ort"
      ],
      [
        "w",
        "and"
      ],
      [
        "an",
        "ischen"
      ],
      [
        "der",
        "ung"
      ],
      [
        "at",
        "ive"
      ],
      [
        "zu",
        "vor"
      ],
      [
        "ach",
        "en"
      ],
      [
        "200",
        "5"
      ],
      [
        "bes",
        "itz"
      ],
      [
        "setz",
        "te"
      ],
      [
        "ass",
        "ung"
      ],
      [
        "dien",
        "st"
      ],
      [
        "bil",
        "d"
      ],
      [
        "arbei",
        "ter"
      ],
      [
        "ins",
        "besondere"
      ],
      [
        "Ho",
        "tel"
      ],
      [
        "mach",
        "en"
      ],
      [
        "Frie",
        "d"
      ],
      [
        "2",
        "5"
      ],
      [
        "C",
        "on"
      ],
      [
        "E",
        "m"
      ],
      [
        "K",
        "arl"
      ],
      [
        "K",
        "ultur"
      ],
      [
        "N",
        "ov"
      ],
      [
        "S",
        "k"
      ],
      [
        "f",
        "rie"
      ],
      [
        "f",
        "ast"
      ],
      [
        "h",
        "aupt"
      ],
      [
        "m",
        "ent"
      ],
      [
        "v",
        "ice"
      ],
      [
        "z",
        "in"
      ],
      [
        "ie",
        "s"
      ],
      [
        "ver",
        "kehr"
      ],
      [
        "St",
        "ein"
      ],
      [
        "um",
        "f"
      ],
      [
        "ne",
        "te"
      ],
      [
        "wei",
        "sen"
      ],
      [
        "Ein",
        "satz"
      ],
      [
        "da",
        "ß"
      ],
      [
        "führ",
        "ung"
      ],
      [
        "nah",
        "e"
      ],
      [
        "Mar",
        "kt"
      ],
      [
        "Univers",
        "ity"
      ],
      [
        "verschieden",
        "en"
      ],
      [
        "blie",
        "b"
      ],
      [
        "äuf",
        "ig"
      ],
      [
        "Zw",
        "ischen"
      ],
      [
        "Okt",
        "ober"
      ],
      [
        "B",
        "u"
      ],
      [
        "H",
        "el"
      ],
      [
        "P",
        "o"
      ],
      [
        "S",
        "ommer"
      ],
      [
        "T",
        "od"
      ],
      [
        "d",
        "re"
      ],
      [
        "f",
        "ör"
      ],
      [
        "g",
        "il"
      ],
      [
        "h",
        "äng"
      ],
      [
        "k",
        "un"
      ],
      [
        "k",
        "at"
      ],
      [
        "m",
        "on"
      ],
      [
        "m",
        "et"
      ],
      [
        "n",
        "äch"
      ],
      [
        "p",
        "ol"
      ],
      [
        "r",
        "en"
      ],
      [
        "t",
        "ei"
      ],
      [
        "in",
        "gt"
      ],
      [
        "st",
        "ark"
      ],
      [
        "den",
        "ten"
      ],
      [
        "eit",
        "ung"
      ],
      [
        "ent",
        "stand"
      ],
      [
        "her",
        "vor"
      ],
      [
        "200",
        "4"
      ],
      [
        "teil",
        "t"
      ],
      [
        "Mar",
        "k"
      ],
      [
        "gan",
        "gen"
      ],
      [
        "eigen",
        "en"
      ],
      [
        "ym",
        "p"
      ],
      [
        "Leben",
        "s"
      ],
      [
        "Bil",
        "d"
      ],
      [
        "Hol",
        "z"
      ],
      [
        "zei",
        "gt"
      ],
      [
        "heut",
        "igen"
      ],
      [
        "ilom",
        "eter"
      ],
      [
        "B",
        "on"
      ],
      [
        "C",
        "l"
      ],
      [
        "H",
        "of"
      ],
      [
        "T",
        "o"
      ],
      [
        "h",
        "och"
      ],
      [
        "l",
        "ern"
      ],
      [
        "m",
        "o"
      ],
      [
        "be",
        "stand"
      ],
      [
        "le",
        "x"
      ],
      [
        "Die",
        "ser"
      ],
      [
        "Sch",
        "rift"
      ],
      [
        "Ge",
        "or"
      ],
      [
        "ün",
        "st"
      ],
      [
        "Re",
        "gel"
      ],
      [
        "uch",
        "s"
      ],
      [
        "stell",
        "er"
      ],
      [
        "br",
        "auch"
      ],
      [
        "wo",
        "bei"
      ],
      [
        "zwei",
        "ten"
      ],
      [
        "di",
        "rekt"
      ],
      [
        "bl",
        "ei"
      ],
      [
        "lan",
        "ge"
      ],
      [
        "setz",
        "en"
      ],
      [
        "Sta",
        "ats"
      ],
      [
        "Mann",
        "schaft"
      ],
      [
        "Pers",
        "on"
      ],
      [
        "wel",
        "che"
      ],
      [
        "Ju",
        "gend"
      ],
      [
        "C",
        "he"
      ],
      [
        "M",
        "är"
      ],
      [
        "h",
        "ät"
      ],
      [
        "o",
        "so"
      ],
      [
        "p",
        "iel"
      ],
      [
        "r",
        "aum"
      ],
      [
        "ber",
        "eich"
      ],
      [
        "ist",
        "ischen"
      ],
      [
        "ig",
        "n"
      ],
      [
        "sich",
        "er"
      ],
      [
        "lie",
        "fer"
      ],
      [
        "Au",
        "ßerdem"
      ],
      [
        "ige",
        "s"
      ],
      [
        "Ar",
        "beits"
      ],
      [
        "Pro",
        "ble"
      ],
      [
        "fol",
        "ge"
      ],
      [
        "ken",
        "n"
      ],
      [
        "Deut",
        "schen"
      ],
      [
        "mus",
        "ste"
      ],
      [
        "off",
        "en"
      ],
      [
        "Geb",
        "äude"
      ],
      [
        "Lei",
        "st"
      ],
      [
        "gewähl",
        "t"
      ],
      [
        "G",
        "ast"
      ],
      [
        "H",
        "andel"
      ],
      [
        "K",
        "reis"
      ],
      [
        "W",
        "ald"
      ],
      [
        "h",
        "y"
      ],
      [
        "i",
        "ent"
      ],
      [
        "ä",
        "um"
      ],
      [
        "in",
        "ternational"
      ],
      [
        "ge",
        "führt"
      ],
      [
        "am",
        "p"
      ],
      [
        "sp",
        "ort"
      ],
      [
        "Sch",
        "n"
      ],
      [
        "ger",
        "e"
      ],
      [
        "Er",
        "folg"
      ],
      [
        "so",
        "gar"
      ],
      [
        "pp",
        "el"
      ],
      [
        "18",
        "6"
      ],
      [
        "bes",
        "ser"
      ],
      [
        "Ber",
        "g"
      ],
      [
        "Ber",
        "eich"
      ],
      [
        "Or",
        "ganis"
      ],
      [
        "gegen",
        "über"
      ],
      [
        "zeit",
        "ig"
      ],
      [
        "erst",
        "ör"
      ],
      [
        "mei",
        "sten"
      ],
      [
        "gehör",
        "en"
      ],
      [
        "zie",
        "h"
      ],
      [
        "Pers",
        "onen"
      ],
      [
        "H",
        "ar"
      ],
      [
        "N",
        "ä"
      ],
      [
        "R",
        "ich"
      ],
      [
        "R",
        "es"
      ],
      [
        "R",
        "olle"
      ],
      [
        "R",
        "aum"
      ],
      [
        "S",
        "eiten"
      ],
      [
        "V",
        "i"
      ],
      [
        "W",
        "ar"
      ],
      [
        "W",
        "ieder"
      ],
      [
        "b",
        "ele"
      ],
      [
        "g",
        "ra"
      ],
      [
        "i",
        "der"
      ],
      [
        "er",
        "wä"
      ],
      [
        "en",
        "gl"
      ],
      [
        "st",
        "eil"
      ],
      [
        "st",
        "ag"
      ],
      [
        "sch",
        "ul"
      ],
      [
        "ein",
        "mal"
      ],
      [
        "ich",
        "ten"
      ],
      [
        "or",
        "s"
      ],
      [
        "gen",
        "au"
      ],
      [
        "mit",
        "t"
      ],
      [
        "rei",
        "se"
      ],
      [
        "In",
        "du"
      ],
      [
        "ab",
        "r"
      ],
      [
        "gr",
        "amm"
      ],
      [
        "all",
        "es"
      ],
      [
        "Sp",
        "e"
      ],
      [
        "her",
        "aus"
      ],
      [
        "18",
        "5"
      ],
      [
        "spiel",
        "t"
      ],
      [
        "fer",
        "tig"
      ],
      [
        "gro",
        "ß"
      ],
      [
        "ihn",
        "en"
      ],
      [
        "schlos",
        "s"
      ],
      [
        "sy",
        "stem"
      ],
      [
        "ehem",
        "aligen"
      ],
      [
        "Pra",
        "xis"
      ],
      [
        "Gener",
        "al"
      ],
      [
        "gebr",
        "acht"
      ],
      [
        "A",
        "s"
      ],
      [
        "A",
        "mer"
      ],
      [
        "J",
        "an"
      ],
      [
        "L",
        "änder"
      ],
      [
        "P",
        "e"
      ],
      [
        "S",
        "el"
      ],
      [
        "S",
        "ol"
      ],
      [
        "s",
        "ent"
      ],
      [
        "er",
        "ne"
      ],
      [
        "ch",
        "te"
      ],
      [
        "ei",
        "st"
      ],
      [
        "sch",
        "iff"
      ],
      [
        "al",
        "er"
      ],
      [
        "ich",
        "tet"
      ],
      [
        "be",
        "stehen"
      ],
      [
        "ab",
        "sol"
      ],
      [
        "Mit",
        "te"
      ],
      [
        "kl",
        "einer"
      ],
      [
        "Se",
        "e"
      ],
      [
        "was",
        "ser"
      ],
      [
        "Bei",
        "spiel"
      ],
      [
        "zent",
        "r"
      ],
      [
        "Kir",
        "chen"
      ],
      [
        "tem",
        "ber"
      ],
      [
        "verschieden",
        "e"
      ],
      [
        "Hei",
        "mat"
      ],
      [
        "sta",
        "at"
      ],
      [
        "Mill",
        "ionen"
      ],
      [
        "gele",
        "gen"
      ],
      [
        "Bur",
        "g"
      ],
      [
        "jeweil",
        "s"
      ],
      [
        "Entwick",
        "lung"
      ],
      [
        "E",
        "ben"
      ],
      [
        "F",
        "ü"
      ],
      [
        "F",
        "all"
      ],
      [
        "H",
        "eil"
      ],
      [
        "K",
        "at"
      ],
      [
        "K",
        "reuz"
      ],
      [
        "M",
        "ag"
      ],
      [
        "S",
        "PD"
      ],
      [
        "T",
        "hem"
      ],
      [
        "c",
        "t"
      ],
      [
        "k",
        "ü"
      ],
      [
        "r",
        "än"
      ],
      [
        "Ö",
        "sterreich"
      ],
      [
        "ß",
        "t"
      ],
      [
        "st",
        "alt"
      ],
      [
        "at",
        "ten"
      ],
      [
        "be",
        "teil"
      ],
      [
        "ig",
        "ten"
      ],
      [
        "icht",
        "s"
      ],
      [
        "Jahr",
        "es"
      ],
      [
        "im",
        "men"
      ],
      [
        "sie",
        "ben"
      ],
      [
        "Ar",
        "bei"
      ],
      [
        "fol",
        "gt"
      ],
      [
        "äl",
        "ter"
      ],
      [
        "äch",
        "lich"
      ],
      [
        "199",
        "9"
      ],
      [
        "Ma",
        "i"
      ],
      [
        "Se",
        "p"
      ],
      [
        "Kl",
        "oster"
      ],
      [
        "Land",
        "kreis"
      ],
      [
        "Reg",
        "ierung"
      ],
      [
        "einge",
        "setzt"
      ],
      [
        "Famil",
        "ien"
      ],
      [
        "Co",
        "unt"
      ],
      [
        "Produ",
        "ktion"
      ],
      [
        "amerikan",
        "ischen"
      ],
      [
        "Rech",
        "ts"
      ],
      [
        "leich",
        "t"
      ],
      [
        "It",
        "alien"
      ],
      [
        "Sei",
        "te"
      ],
      [
        "9",
        "0"
      ],
      [
        "A",
        "mt"
      ],
      [
        "B",
        "en"
      ],
      [
        "C",
        "a"
      ],
      [
        "D",
        "om"
      ],
      [
        "K",
        "ü"
      ],
      [
        "L",
        "auf"
      ],
      [
        "L",
        "ond"
      ],
      [
        "R",
        "ah"
      ],
      [
        "T",
        "al"
      ],
      [
        "W",
        "ochen"
      ],
      [
        "g",
        "ten"
      ],
      [
        "k",
        "ein"
      ],
      [
        "m",
        "acht"
      ],
      [
        "n",
        "ieder"
      ],
      [
        "st",
        "imm"
      ],
      [
        "an",
        "ten"
      ],
      [
        "ur",
        "en"
      ],
      [
        "ol",
        "e"
      ],
      [
        "re",
        "gel"
      ],
      [
        "Er",
        "geb"
      ],
      [
        "über",
        "nahm"
      ],
      [
        "Verwalt",
        "ungs"
      ],
      [
        "Richt",
        "ung"
      ],
      [
        "Sep",
        "tember"
      ],
      [
        "B",
        "el"
      ],
      [
        "B",
        "ru"
      ],
      [
        "E",
        "igen"
      ],
      [
        "K",
        "ran"
      ],
      [
        "L",
        "iter"
      ],
      [
        "f",
        "el"
      ],
      [
        "i",
        "ft"
      ],
      [
        "l",
        "iga"
      ],
      [
        "p",
        "on"
      ],
      [
        "s",
        "ah"
      ],
      [
        "st",
        "elle"
      ],
      [
        "ein",
        "z"
      ],
      [
        "ein",
        "zel"
      ],
      [
        "or",
        "ganis"
      ],
      [
        "be",
        "vor"
      ],
      [
        "ver",
        "lie"
      ],
      [
        "se",
        "e"
      ],
      [
        "lich",
        "keit"
      ],
      [
        "ig",
        "te"
      ],
      [
        "ut",
        "ter"
      ],
      [
        "In",
        "s"
      ],
      [
        "Sch",
        "we"
      ],
      [
        "och",
        "ter"
      ],
      [
        "sel",
        "ben"
      ],
      [
        "tr",
        "itt"
      ],
      [
        "En",
        "gl"
      ],
      [
        "ück",
        "en"
      ],
      [
        "bes",
        "uchte"
      ],
      [
        "führ",
        "en"
      ],
      [
        "hin",
        "ter"
      ],
      [
        "199",
        "8"
      ],
      [
        "spiel",
        "en"
      ],
      [
        "fl",
        "uss"
      ],
      [
        "deut",
        "sche"
      ],
      [
        "hei",
        "ten"
      ],
      [
        "zeich",
        "nung"
      ],
      [
        "fahr",
        "t"
      ],
      [
        "Spiel",
        "er"
      ],
      [
        "etz",
        "t"
      ],
      [
        "richt",
        "ung"
      ],
      [
        "arr",
        "iere"
      ],
      [
        "Frank",
        "f"
      ],
      [
        "erg",
        "ie"
      ],
      [
        "Prov",
        "inz"
      ],
      [
        "gil",
        "t"
      ],
      [
        "B",
        "re"
      ],
      [
        "D",
        "R"
      ],
      [
        "F",
        "ar"
      ],
      [
        "F",
        "unktion"
      ],
      [
        "J",
        "ohn"
      ],
      [
        "M",
        "use"
      ],
      [
        "O",
        "s"
      ],
      [
        "f",
        "and"
      ],
      [
        "i",
        "ver"
      ],
      [
        "k",
        "an"
      ],
      [
        "l",
        "t"
      ],
      [
        "l",
        "es"
      ],
      [
        "m",
        "ein"
      ],
      [
        "m",
        "ark"
      ],
      [
        "m",
        "üssen"
      ],
      [
        "t",
        "on"
      ],
      [
        "t",
        "ätig"
      ],
      [
        "v",
        "ol"
      ],
      [
        "ä",
        "ten"
      ],
      [
        "ä",
        "hn"
      ],
      [
        "st",
        "ei"
      ],
      [
        "an",
        "geb"
      ],
      [
        "gen",
        "utzt"
      ],
      [
        "ber",
        "u"
      ],
      [
        "ut",
        "h"
      ],
      [
        "bei",
        "spiel"
      ],
      [
        "et",
        "te"
      ],
      [
        "ab",
        "häng"
      ],
      [
        "ik",
        "en"
      ],
      [
        "gr",
        "en"
      ],
      [
        "Ge",
        "w"
      ],
      [
        "Be",
        "griff"
      ],
      [
        "Ar",
        "ten"
      ],
      [
        "är",
        "en"
      ],
      [
        "sam",
        "m"
      ],
      [
        "kl",
        "ass"
      ],
      [
        "We",
        "g"
      ],
      [
        "dam",
        "als"
      ],
      [
        "zi",
        "p"
      ],
      [
        "bil",
        "den"
      ],
      [
        "soll",
        "en"
      ],
      [
        "öff",
        "ent"
      ],
      [
        "bet",
        "rieb"
      ],
      [
        "Bl",
        "ü"
      ],
      [
        "besonder",
        "s"
      ],
      [
        "ins",
        "gesamt"
      ],
      [
        "schließ",
        "end"
      ],
      [
        "zie",
        "hen"
      ],
      [
        "mach",
        "te"
      ],
      [
        "sy",
        "ch"
      ],
      [
        "Zwei",
        "ten"
      ],
      [
        "woll",
        "te"
      ],
      [
        "Eis",
        "en"
      ],
      [
        "wirk",
        "lich"
      ],
      [
        "stit",
        "ut"
      ],
      [
        "D",
        "u"
      ],
      [
        "F",
        "C"
      ],
      [
        "I",
        "m"
      ],
      [
        "K",
        "ilometer"
      ],
      [
        "L",
        "ud"
      ],
      [
        "M",
        "ich"
      ],
      [
        "P",
        "re"
      ],
      [
        "h",
        "äufig"
      ],
      [
        "l",
        "ungen"
      ],
      [
        "m",
        "oder"
      ],
      [
        "p",
        "ers"
      ],
      [
        "y",
        "r"
      ],
      [
        "ä",
        "m"
      ],
      [
        "ar",
        "i"
      ],
      [
        "zu",
        "dem"
      ],
      [
        "ver",
        "fü"
      ],
      [
        "auf",
        "grund"
      ],
      [
        "fü",
        "hl"
      ],
      [
        "ad",
        "urch"
      ],
      [
        "Ein",
        "zel"
      ],
      [
        "Ber",
        "eits"
      ],
      [
        "teil",
        "ung"
      ],
      [
        "kam",
        "en"
      ],
      [
        "Ges",
        "ellschaft"
      ],
      [
        "ätz",
        "e"
      ],
      [
        "Ka",
        "iser"
      ],
      [
        "Stra",
        "ßen"
      ],
      [
        "pe",
        "ten"
      ],
      [
        "ersch",
        "ien"
      ],
      [
        "dan",
        "ach"
      ],
      [
        "fess",
        "or"
      ],
      [
        "mäß",
        "ig"
      ],
      [
        "kun",
        "ft"
      ],
      [
        "oso",
        "ph"
      ],
      [
        "Nä",
        "he"
      ],
      [
        "Lond",
        "on"
      ],
      [
        "Rah",
        "men"
      ],
      [
        "E",
        "t"
      ],
      [
        "T",
        "on"
      ],
      [
        "W",
        "ie"
      ],
      [
        "e",
        "hmen"
      ],
      [
        "f",
        "s"
      ],
      [
        "h",
        "istor"
      ],
      [
        "t",
        "ur"
      ],
      [
        "te",
        "ten"
      ],
      [
        "it",
        "alien"
      ],
      [
        "In",
        "ternational"
      ],
      [
        "Be",
        "zir"
      ],
      [
        "200",
        "1"
      ],
      [
        "200",
        "2"
      ],
      [
        "Gr",
        "ö"
      ],
      [
        "hei",
        "ra"
      ],
      [
        "off",
        "iz"
      ],
      [
        "grün",
        "dete"
      ],
      [
        "Sta",
        "at"
      ],
      [
        "prä",
        "sent"
      ],
      [
        "..",
        "."
      ],
      [
        "französ",
        "ischen"
      ],
      [
        "Fuß",
        "ball"
      ],
      [
        "Nov",
        "ember"
      ],
      [
        "2",
        "4"
      ],
      [
        "2",
        "7"
      ],
      [
        "D",
        "is"
      ],
      [
        "H",
        "al"
      ],
      [
        "H",
        "inter"
      ],
      [
        "K",
        "n"
      ],
      [
        "M",
        "art"
      ],
      [
        "N",
        "ame"
      ],
      [
        "T",
        "ier"
      ],
      [
        "T",
        "ochter"
      ],
      [
        "b",
        "i"
      ],
      [
        "i",
        "pp"
      ],
      [
        "v",
        "ent"
      ],
      [
        "ü",
        "ge"
      ],
      [
        "ü",
        "ler"
      ],
      [
        "en",
        "g"
      ],
      [
        "in",
        "t"
      ],
      [
        "sch",
        "er"
      ],
      [
        "le",
        "hr"
      ],
      [
        "ver",
        "kauf"
      ],
      [
        "ut",
        "t"
      ],
      [
        "um",
        "ent"
      ],
      [
        "wei",
        "s"
      ],
      [
        "om",
        "m"
      ],
      [
        "kt",
        "or"
      ],
      [
        "Be",
        "g"
      ],
      [
        "ag",
        "te"
      ],
      [
        "sel",
        "ten"
      ],
      [
        "ze",
        "pt"
      ],
      [
        "gew",
        "esen"
      ],
      [
        "setz",
        "ung"
      ],
      [
        "199",
        "0"
      ],
      [
        "bar",
        "e"
      ],
      [
        "Fr",
        "üh"
      ],
      [
        "mus",
        "ik"
      ],
      [
        "Te",
        "chn"
      ],
      [
        "mann",
        "schaft"
      ],
      [
        "Ent",
        "schei"
      ],
      [
        "US",
        "A"
      ],
      [
        "ex",
        "ist"
      ],
      [
        "Dies",
        "es"
      ],
      [
        "Ser",
        "vice"
      ],
      [
        "Indu",
        "st"
      ],
      [
        "beispiel",
        "sweise"
      ],
      [
        "2",
        "3"
      ],
      [
        "B",
        "ü"
      ],
      [
        "B",
        "ra"
      ],
      [
        "F",
        "il"
      ],
      [
        "H",
        "in"
      ],
      [
        "K",
        "ol"
      ],
      [
        "M",
        "ö"
      ],
      [
        "M",
        "or"
      ],
      [
        "P",
        "lan"
      ],
      [
        "P",
        "aul"
      ],
      [
        "T",
        "ran"
      ],
      [
        "Z",
        "immer"
      ],
      [
        "b",
        "a"
      ],
      [
        "b",
        "ald"
      ],
      [
        "f",
        "il"
      ],
      [
        "f",
        "ilm"
      ],
      [
        "g",
        "lichen"
      ],
      [
        "h",
        "eits"
      ],
      [
        "i",
        "re"
      ],
      [
        "n",
        "ot"
      ],
      [
        "ie",
        "f"
      ],
      [
        "st",
        "et"
      ],
      [
        "ge",
        "ord"
      ],
      [
        "au",
        "ber"
      ],
      [
        "at",
        "ung"
      ],
      [
        "ter",
        "s"
      ],
      [
        "ra",
        "g"
      ],
      [
        "ent",
[...]
